<unk>	0
<s>	0
</s>	0
<pad>	0
▁	-2.76575
?	-4.19426
-	-4.40195
,	-4.44918
的	-4.73635
.	-4.8888
!	-5.08135
了	-5.09019
...	-5.09742
我	-5.15259
你	-5.25962
ที่	-5.56309
คุณ	-5.72024
ฉัน	-5.78953
แล้ว	-5.84031
他	-5.93079
是	-5.97267
cH	-5.99079
s	-6.03285
ได้	-6.06607
不	-6.0722
นะ	-6.07333
มัน	-6.08761
'	-6.11555
มา	-6.15902
在	-6.15931
▁-	-6.16623
ไป	-6.18768
ผม	-6.20125
吗	-6.2135
เขา	-6.23689
ของ	-6.23886
เธอ	-6.23889
我们	-6.25741
และ	-6.27372
ไม่	-6.32423
ให้	-6.39085
有	-6.39349
她	-6.40066
เป็น	-6.44287
人	-6.44895
ใน	-6.46368
เลย	-6.47378
2	-6.49467
เรา	-6.51293
นาย	-6.53137
นี่	-6.53172
เธ	-6.55965
。	-6.58174
"	-6.59105
ว่า	-6.59417
好	-6.61452
จะ	-6.62177
มี	-6.62417
น	-6.62649
吧	-6.63043
这	-6.64049
F	-6.68022
กับ	-6.70123
111111}	-6.71103
上	-6.74097
一	-6.74986
อยู่	-6.75002
ส	-6.75701
แต่	-6.76197
要	-6.77465
那	-6.78165
啊	-6.78535
来	-6.79668
นี้	-6.80206
""	-6.80242
t	-6.81063
和	-6.81272
การ	-6.81541
▁{\	-6.82381
ด้วย	-6.83118
ก็	-6.83296
อะไร	-6.83461
"""	-6.83472
就	-6.83688
去	-6.84709
cHFFFFFF	-6.86639
ดี	-6.86856
กัน	-6.86971
他们	-6.88218
到	-6.88354
}{\3	-6.90478
เน	-6.91321
▁you	-6.91326
ๆ	-6.91459
什么	-6.92378
เหรอ	-6.93137
คน	-6.9421
..	-6.96357
ไม่ได้	-6.96559
会	-6.96866
▁我	-6.97414
ครับ	-6.97995
ก	-6.9803
▁the	-6.9816
呢	-6.99075
ใช่	-7.00414
说	-7.00782
大	-7.02117
ง	-7.02438
你的	-7.03483
想	-7.04464
ข้า	-7.05283
จาก	-7.05302
ด	-7.05657
ทํา	-7.06127
ตัว	-7.06636
▁I	-7.07507
ม	-7.08085
นั่น	-7.11616
ดู	-7.14752
都	-7.14836
ล่ะ	-7.15186
▁to	-7.16262
มาก	-7.17069
我的	-7.17138
▁你	-7.17841
一个	-7.18859
อีก	-7.19009
สิ	-7.19298
เรื่อง	-7.2054
你们	-7.20682
เจ้า	-7.20791
พวกเขา	-7.20865
过	-7.21482
能	-7.21815
แม่	-7.22764
很	-7.22993
子	-7.24726
พ่อ	-7.24767
得	-7.2505
里	-7.25062
下	-7.25612
▁a	-7.25921
น่ะ	-7.26475
这个	-7.26876
看	-7.27138
ไว้	-7.27667
ลูก	-7.30058
▁และ	-7.31704
被	-7.31755
把	-7.32098
ค	-7.32795
ความ	-7.33901
\	-7.34268
小	-7.34712
แก	-7.35214
{\4	-7.35628
▁คุณ	-7.36636
出	-7.37467
走	-7.375
บ	-7.39047
▁ฉัน	-7.39221
对	-7.39483
做	-7.40322
c	-7.40691
ของคุณ	-7.4089
หรือ	-7.40896
ค่ะ	-7.41063
เอา	-7.41317
斯	-7.41705
ถูก	-7.41988
用	-7.42262
ต้อง	-7.42883
ล	-7.42967
点	-7.45194
不是	-7.45354
นั้น	-7.45596
没有	-7.46325
▁แต่	-7.46367
ท	-7.46487
ย	-7.46864
也	-7.47875
现在	-7.48598
I	-7.49714
ว	-7.50156
หรอก	-7.50363
m	-7.50393
n	-7.50663
没	-7.50885
พวก	-7.5199
别	-7.52212
หา	-7.52299
手	-7.52764
)	-7.52932
ของฉัน	-7.5345
re	-7.53459
它	-7.53686
但	-7.54414
y	-7.5462
打	-7.54638
บอก	-7.55386
着	-7.55592
เ	-7.55865
คือ	-7.56092
เอง	-7.565
的人	-7.57091
พูด	-7.57355
โอเค	-7.57663
ท่าน	-7.58771
地	-7.5967
ก่อน	-7.59755
1	-7.60871
ใช้	-7.61137
ถึง	-7.61243
แค่	-7.61595
中	-7.61968
ป	-7.62077
ไหม	-7.62168
	-7.62394
▁ไม่	-7.62469
ตอนนี้	-7.6311
	-7.63259
再	-7.63705
ั	-7.63782
死	-7.63895
ต	-7.63903
可以	-7.64035
ถ้า	-7.64774
快	-7.65155
个	-7.65247
知道	-7.65314
อย่าง	-7.6533
就是	-7.65618
ไม่มี	-7.66233
000000}	-7.6651
ร	-7.67313
ตาย	-7.68566
从	-7.686
จริงๆ	-7.68634
เห็น	-7.68893
มั้ย	-7.69052
ทาง	-7.69064
我們	-7.69444
ขึ้น	-7.71501
ที่จะ	-7.71574
ทําไม	-7.71868
ออก	-7.72434
ใคร	-7.72956
ชั้น	-7.73214
▁it	-7.73297
d	-7.73517
多	-7.73594
โอ้	-7.73713
เข้า	-7.74498
▁ผม	-7.75116
事	-7.7541
น่า	-7.7548
งาน	-7.7556
เพื่อ	-7.76204
太	-7.76894
可	-7.77301
▁of	-7.77592
先生	-7.77618
ไม่ใช่	-7.77714
ที่นี่	-7.77867
ing	-7.78385
ช่วย	-7.78843
a	-7.78907
那个	-7.78951
家	-7.79166
我想	-7.79239
心	-7.79403
	-7.79526
ห	-7.79632
特	-7.79721
ต่อ	-7.79748
หน้า	-7.79866
:	-7.80472
这是	-7.80563
自己	-7.81394
头	-7.81439
จริง	-7.81503
ลง	-7.81556
ฉันจะ	-7.81682
天	-7.82734
หนู	-7.82891
พวกเรา	-7.83274
时	-7.83955
哦	-7.8402
▁ๆ	-7.84098
เด็ก	-7.84551
好吧	-7.84629
{\3	-7.8472
ส่ง	-7.84916
▁ที่	-7.85307
真	-7.85404
还	-7.85444
为	-7.85987
ยัง	-7.86984
อ	-7.87006
ใจ	-7.8703
รู้	-7.87069
หนึ่ง	-7.87693
คิดว่า	-7.87749
คิด	-7.87834
ed	-7.88409
德	-7.88872
这样	-7.89151
跟	-7.89323
▁""	-7.89466
ช	-7.89477
เหมือน	-7.89566
前	-7.89852
嗎	-7.90087
ผู้	-7.90251
▁that	-7.90346
อย่า	-7.90892
เงิน	-7.9172
ของเรา	-7.92
尔	-7.92216
่	-7.92819
เพราะ	-7.92963
▁in	-7.9316
สําหรับ	-7.93253
เค้า	-7.9374
(	-7.94093
เฮ้	-7.94156
ตาม	-7.94338
如果	-7.94747
202020}	-7.94778
ไง	-7.94839
开	-7.94994
比	-7.95409
	-7.95499
当	-7.96221
ใหม่	-7.96238
บ้าน	-7.96384
หน่อย	-7.96386
生	-7.9645
克	-7.96686
อยู่ใน	-7.96781
這	-7.96997
	-7.97013
กําลัง	-7.97224
·	-7.97246
后	-7.97369
ฆ่า	-7.97421
{\	-7.9754
้	-7.9763
还有	-7.97951
งั้น	-7.9806
他的	-7.9823
给我	-7.98778
會	-7.98924
我是	-7.98935
▁me	-7.99045
是的	-7.99385
ขอ	-7.99405
这些	-7.99514
รถ	-7.99987
不要	-8.00602
เมื่อ	-8.00827
拉	-8.00977
}{\4	-8.01326
r	-8.0149
สิ่งที่	-8.01566
เล่น	-8.01695
	-8.01822
er	-8.02071
回	-8.02158
ออกไป	-8.02169
ทุกคน	-8.02704
ซะ	-8.0303
而	-8.03148
又	-8.03518
找	-8.03685
年	-8.03764
我要	-8.03789
ตา	-8.04037
กลับมา	-8.04607
吃	-8.04725
_	-8.05015
ทั้งหมด	-8.05112
กิน	-8.05506
เจอ	-8.05663
ส์	-8.05869
รับ	-8.06117
ฟัง	-8.06341
รอ	-8.06823
已经	-8.06901
來	-8.07056
หรอ	-8.07445
好了	-8.07471
มันเป็น	-8.07485
▁มัน	-8.07567
之	-8.07665
แน่	-8.07717
หยุด	-8.07727
行	-8.07843
เวลา	-8.08473
▁我们	-8.08714
车	-8.08787
ละ	-8.08795
发	-8.08941
我知道	-8.08981
拿	-8.09103
长	-8.09131
听	-8.09142
	-8.09532
เพื่อน	-8.09779
ทํางาน	-8.10161
叫	-8.10367
无	-8.10486
▁เธอ	-8.10538
บอกว่า	-8.10577
อยาก	-8.10758
ชื่อ	-8.10923
给	-8.10942
โอ	-8.10978
老	-8.11228
好的	-8.11285
ตัวเอง	-8.11699
一下	-8.11747
像	-8.12456
น้ํา	-8.12526
說	-8.12532
มือ	-8.1255
เราจะ	-8.13167
ก็ได้	-8.13206
หัว	-8.13792
ทําให้	-8.14106
ของเขา	-8.14529
▁เรา	-8.14719
▁ใช่	-8.15298
带	-8.15431
ชีวิต	-8.15443
ฟ	-8.15688
成	-8.15692
e	-8.1637
ยา	-8.16426
รัก	-8.16676
谁	-8.16692
▁and	-8.16773
放	-8.17
i	-8.17302
ใช่ไหม	-8.17682
คะ	-8.17899
▁is	-8.1855
为什么	-8.18639
开始	-8.18654
者	-8.18662
孩子	-8.18722
ใช่มั้ย	-8.18831
▁เขา	-8.19187
怎么	-8.19211
最	-8.1951
水	-8.19543
一样	-8.19643
เกี่ยวกับ	-8.19754
嘿	-8.19767
in	-8.20009
ใส่	-8.20079
A	-8.2029
ซิ	-8.20596
身	-8.20992
所以	-8.21094
爱	-8.21095
请	-8.21202
พ	-8.21513
ตอน	-8.21578
我会	-8.21665
พา	-8.2168
กลับ	-8.21835
让	-8.21871
C	-8.21928
但是	-8.21935
需要	-8.22276
更	-8.22405
▁แล้ว	-8.22496
▁他	-8.22795
▁นาย	-8.23017
那么	-8.23129
เริ่ม	-8.23215
คนที่	-8.23368
แบบ	-8.23716
那些	-8.23746
不会	-8.2381
因为	-8.24155
ที	-8.24244
รู้ว่า	-8.24298
ชอบ	-8.24335
6	-8.24562
可能	-8.24957
的事	-8.25838
找到	-8.25858
工作	-8.26477
才	-8.26609
先	-8.26778
住	-8.27206
您	-8.27496
了吗	-8.27594
เสีย	-8.27598
/	-8.27804
ออกมา	-8.2784
ของเธอ	-8.28137
等	-8.28251
面	-8.28339
路	-8.2871
力	-8.28775
所	-8.28976
3	-8.29096
让我	-8.29356
เถอะ	-8.29431
这里	-8.29465
ยิง	-8.29589
▁on	-8.29955
自	-8.30158
ลา	-8.30646
พอ	-8.31075
นา	-8.31235
วัน	-8.31496
บน	-8.31532
门	-8.31651
利	-8.32005
ทุกอย่าง	-8.32029
S	-8.32145
西	-8.32444
ยังไง	-8.32737
▁be	-8.33083
有人	-8.33162
卡	-8.33198
นัก	-8.33382
三	-8.33484
fs	-8.33556
al	-8.33584
กว่า	-8.3369
▁we	-8.33709
คุณจะ	-8.33799
只是	-8.33826
ไอ้	-8.34118
法	-8.34161
你是	-8.34169
的时候	-8.34188
ร์	-8.34313
不能	-8.34565
高	-8.34565
谢谢	-8.34727
还是	-8.3473
ต้องการ	-8.3522
这么	-8.3527
他們	-8.35336
ใหญ่	-8.35359
สอง	-8.35578
ทุก	-8.35713
對	-8.35836
	-8.36002
บ้าง	-8.36527
จ	-8.36548
钱	-8.36557
金	-8.36983
โลก	-8.37008
ทิ้ง	-8.37122
给你	-8.37269
เรื่องนี้	-8.37423
l	-8.37648
名	-8.37763
都是	-8.37848
时间	-8.379
过来	-8.3801
พวกมัน	-8.3807
แบบนี้	-8.38091
ปี	-8.38113
动	-8.38217
分	-8.38418
▁for	-8.38715
看看	-8.39036
本	-8.39156
很好	-8.39365
เข้ามา	-8.39549
见	-8.40195
ไหน	-8.40256
的话	-8.40265
▁/	-8.40748
เนี่ย	-8.40783
รา	-8.40802
新	-8.41038
格	-8.41108
หรือเปล่า	-8.41159
มอง	-8.41452
ผมจะ	-8.41556
5	-8.41596
起	-8.41618
道	-8.41717
ขอบคุณ	-8.41724
ที่สุด	-8.41816
以	-8.41931
ll	-8.41981
真的	-8.42221
เรียก	-8.42371
外	-8.42796
回来	-8.42824
美	-8.43029
ทั้ง	-8.43036
只	-8.43054
▁your	-8.43191
向	-8.43275
เปิด	-8.43278
ตั้ง	-8.43416
马	-8.4357
สาย	-8.43592
คํา	-8.43701
东西	-8.43749
ซ	-8.43962
你知道	-8.44133
จับ	-8.44137
ทําอะไร	-8.44236
什麼	-8.44582
于	-8.4493
เดิน	-8.44971
พบ	-8.45213
今天	-8.45572
进	-8.45869
ไม่เคย	-8.45896
▁know	-8.45956
我不知道	-8.45996
我们的	-8.46014
号	-8.46218
an	-8.46299
将	-8.46518
อา	-8.4654
朋友	-8.46679
ห้อง	-8.46813
bg	-8.46851
transparent	-8.46905
หลัง	-8.46952
枪	-8.46979
安	-8.4702
ลอง	-8.47112
你要	-8.47121
▁不	-8.47217
告诉我	-8.476
เสียง	-8.47768
นํา	-8.47783
▁但	-8.47785
ะต	-8.47847
▁do	-8.47917
重	-8.47948
出去	-8.4795
然后	-8.48627
โดย	-8.48652
▁this	-8.49022
or	-8.49196
ผิด	-8.49238
สร้าง	-8.49245
รึเปล่า	-8.49527
情	-8.49715
▁was	-8.49816
u	-8.49933
en	-8.49988
玩	-8.50269
	-8.50271
แห่ง	-8.50397
罗	-8.50548
ไปแล้ว	-8.5074
เครื่อง	-8.50771
出来	-8.51017
เอ	-8.5123
คืน	-8.51314
เร	-8.51381
มิ	-8.51521
fn	-8.51779
啦	-8.52358
正	-8.52488
掉	-8.52588
之前	-8.52765
不知道	-8.52789
เข้าใจ	-8.52822
พี่	-8.52932
le	-8.53034
ของผม	-8.53241
ครอบครัว	-8.53277
▁ถ้า	-8.53285
h	-8.53336
เรือ	-8.53472
火	-8.53594
ถาม	-8.53658
问	-8.53818
บ้า	-8.53886
ภาพ	-8.53917
過	-8.53963
คง	-8.54112
พยายาม	-8.54125
ได้รับ	-8.54252
B	-8.54365
T	-8.54671
พวกนั้น	-8.54674
恩	-8.54692
ติด	-8.54765
▁have	-8.55164
เอาล่ะ	-8.55343
作	-8.55352
เข้าไป	-8.55403
ตํารวจ	-8.55438
เร็ว	-8.55535
เคย	-8.55815
ผ่าน	-8.55842
ซี	-8.55913
พระเจ้า	-8.55952
ปล่อย	-8.55984
话	-8.56069
เหมือนกัน	-8.56442
们	-8.56473
是啊	-8.56493
看到	-8.56598
海	-8.56625
在这里	-8.56718
ริ	-8.56723
那是	-8.56763
กลับไป	-8.56794
一起	-8.56832
อยู่ที่นี่	-8.56957
只有	-8.57146
ar	-8.5715
离开	-8.57151
เก็บ	-8.57289
也许	-8.57312
ให้ฉัน	-8.57491
么	-8.5763
两	-8.57641
เธญเธ	-8.57744
问题	-8.57823
光	-8.57945
ส่วน	-8.5808
信	-8.5822
神	-8.58224
安全	-8.58247
ไม่เป็นไร	-8.58331
สาม	-8.584
N	-8.58573
อาจ	-8.58686
เดี๋ยว	-8.58695
当然	-8.5905
ลี	-8.59668
4	-8.59723
活	-8.60019
▁ใน	-8.60024
女	-8.60029
เชื่อ	-8.60045
巴	-8.60185
非常	-8.60233
全	-8.60266
ไฟ	-8.60306
花	-8.60335
จัดการ	-8.60386
不过	-8.60487
เดียว	-8.61117
โดน	-8.61172
E	-8.61258
ตรง	-8.61327
จํา	-8.61344
You	-8.61497
一次	-8.61591
▁You	-8.61669
▁not	-8.6169
แน่นอน	-8.61773
尼	-8.61896
嗯	-8.61978
▁อย่า	-8.62154
1\	-8.62195
เลือก	-8.62475
ดีกว่า	-8.62623
▁my	-8.62642
接	-8.62688
สามารถ	-8.62796
妈妈	-8.62848
同	-8.63293
วันนี้	-8.63299
นั่ง	-8.6337
ลิ	-8.63451
ดิ	-8.63457
เมือง	-8.63493
จน	-8.63741
抱歉	-8.63768
ะพ	-8.63858
死了	-8.64348
คา	-8.64398
ฉันคิดว่า	-8.64412
入	-8.64443
加	-8.64456
นอน	-8.64567
送	-8.64631
ซื้อ	-8.6475
▁can	-8.64883
机	-8.65023
来了	-8.65163
เลือด	-8.65202
D	-8.65209
、	-8.65453
喝	-8.65515
意	-8.6552
โร	-8.65617
喜欢	-8.65718
口	-8.65747
▁ก็	-8.65752
อาจจะ	-8.65753
应该	-8.65784
部	-8.65927
ปืน	-8.65929
著	-8.66086
f	-8.66359
ผู้หญิง	-8.66566
ะ	-8.66919
ปิด	-8.66922
弄	-8.66936
เกิด	-8.66963
個	-8.67049
你想	-8.67209
我在	-8.67248
หมด	-8.67366
日	-8.67453
与	-8.67502
ท์	-8.67502
救	-8.67636
气	-8.6781
อัน	-8.67864
是个	-8.68244
เปลี่ยน	-8.68255
ที่คุณ	-8.68383
性	-8.68464
干	-8.68976
命	-8.68993
▁她	-8.69004
起来	-8.69081
该	-8.69111
你在	-8.69487
นิ	-8.69558
真是	-8.69644
นาง	-8.69688
五	-8.69886
让你	-8.69889
不行	-8.6992
帮	-8.69945
所有	-8.69983
内	-8.70115
一些	-8.70215
เป็นคน	-8.70229
定	-8.70246
希望	-8.7028
M	-8.70366
提	-8.7059
เราต้อง	-8.70593
▁with	-8.70642
白	-8.70667
อยู่ไหน	-8.70727
发现	-8.70978
你們	-8.7105
	-8.71087
เล	-8.71093
处	-8.71191
เอ่อ	-8.71257
ve	-8.71272
阿	-8.71306
是谁	-8.71493
・	-8.71656
เปล่า	-8.72051
มีอะไร	-8.72118
o	-8.72271
沒有	-8.7236
ดื่ม	-8.72495
ไม่รู้	-8.72527
空	-8.7263
shad	-8.7286
ออกจาก	-8.72882
ต่อไป	-8.72898
位	-8.72898
如果你	-8.73062
ไม่มีใคร	-8.73117
布	-8.73187
教	-8.73192
沒	-8.73286
▁what	-8.73415
对不起	-8.73431
เรียน	-8.73602
▁f	-8.73652
จะต้อง	-8.73722
通	-8.74003
一個	-8.74227
到了	-8.74491
主	-8.74622
จบ	-8.74668
L	-8.74719
血	-8.74745
บางที	-8.74746
没错	-8.74816
我不	-8.74941
งั้นเหรอ	-8.74951
▁are	-8.75044
มีคน	-8.75144
我就	-8.75242
大家	-8.75457
ขาย	-8.7573
杀	-8.75773
管	-8.7578
it	-8.75882
▁นี่	-8.75886
▁โอเค	-8.75934
ไม่ต้อง	-8.75936
查	-8.76068
อะไรนะ	-8.76148
0	-8.76536
นี่คือ	-8.766
คนอื่น	-8.76756
現在	-8.76886
一点	-8.76955
#	-8.77003
ข้อ	-8.77051
理	-8.77087
ธ	-8.77109
ly	-8.77303
ได้ยิน	-8.77375
นึง	-8.77462
爸爸	-8.77491
สวย	-8.77541
จะไม่	-8.7757
*	-8.77956
เลยนะ	-8.78094
相	-8.78112
儿	-8.78283
受	-8.78307
体	-8.78382
是我	-8.78394
可是	-8.78459
▁don	-8.78671
等等	-8.78775
学	-8.78828
เด	-8.78907
有点	-8.78963
派	-8.7903
ให้คุณ	-8.79116
รู้สึก	-8.79192
事情	-8.79264
จะได้	-8.79297
เท	-8.7934
▁หรือ	-8.79499
ผู้ชาย	-8.79548
เธฒเธ	-8.79633
ิ	-8.79655
่ง	-8.79749
เธฑเธ	-8.79848
▁he	-8.7986
跑	-8.79976
ซึ่ง	-8.80054
รี	-8.80223
她的	-8.80247
怎么了	-8.80404
哈	-8.80417
眼	-8.80425
合	-8.80467
ชาย	-8.80482
▁B	-8.80571
▁มี	-8.80617
น้อย	-8.80735
}	-8.80761
มากกว่า	-8.80848
หมอ	-8.80938
夫	-8.80955
▁just	-8.8119
8	-8.8121
ตก	-8.81248
米	-8.81342
น่าจะ	-8.81448
สัน	-8.81497
กลัว	-8.81502
买	-8.81574
▁b	-8.81633
g	-8.8193
и	-8.82086
十	-8.82102
关	-8.82175
怪	-8.82324
還	-8.82342
อย่างนั้น	-8.82348
为了	-8.82413
รู้จัก	-8.82691
มาจาก	-8.82718
์	-8.82754
我也	-8.82912
些	-8.83031
▁ว่า	-8.83081
觉得	-8.83109
สิ่ง	-8.83114
有什么	-8.83225
员	-8.83419
on	-8.83449
是什么	-8.83502
搞	-8.83514
วา	-8.83573
พร้อม	-8.83586
ฟังนะ	-8.83618
想要	-8.83626
一直	-8.83659
往	-8.83728
▁A	-8.83736
▁3	-8.83741
กับฉัน	-8.83778
วาง	-8.83812
▁out	-8.83844
00	-8.83888
กระ	-8.83926
เม	-8.83953
明	-8.84018
倒	-8.84088
▁那	-8.84314
走了	-8.84338
O	-8.84373
过去	-8.84432
ข	-8.84569
ที่ไหน	-8.84573
อีกครั้ง	-8.84604
收	-8.84682
ดังนั้น	-8.84683
7	-8.84781
伊	-8.84826
这种	-8.84937
เลิก	-8.85156
待	-8.85385
กลับบ้าน	-8.85395
k	-8.85717
เขียน	-8.85806
呀	-8.85817
ขึ้นมา	-8.85876
迪	-8.85966
別	-8.85987
▁ฉันจะ	-8.86001
ของนาย	-8.86033
อาหาร	-8.86125
转	-8.86144
ได้แล้ว	-8.86146
หล่อน	-8.86309
怎么样	-8.86351
▁จะ	-8.86398
P	-8.86423
早	-8.86524
็	-8.86532
准备	-8.86564
继续	-8.8662
喂	-8.86667
是你	-8.86707
ได้ไหม	-8.8694
▁คน	-8.87052
度	-8.87106
ดูแล	-8.87119
ur	-8.87229
如何	-8.87385
เท่านั้น	-8.87487
噢	-8.87519
场	-8.87533
b	-8.87558
公	-8.87708
睡	-8.87758
อ่าน	-8.87799
那样	-8.87819
▁这	-8.87889
อื่น	-8.87895
我觉得	-8.87926
ที่ดี	-8.8844
你会	-8.88468
物	-8.88549
文	-8.88568
任何	-8.886
ข้อมูล	-8.88676
▁S	-8.88772
书	-8.8887
交	-8.88878
装	-8.889
โค	-8.88949
th	-8.89218
▁เพื่อ	-8.89237
黑	-8.8949
หรือไม่	-8.89793
มันจะ	-8.8983
เดี๋ยวนี้	-8.89942
远	-8.90029
ล่า	-8.90071
9	-8.90118
ลืม	-8.90139
肯定	-8.90215
的地方	-8.90402
	-8.90481
แหละ	-8.9049
ตกลง	-8.90511
อยู่กับ	-8.90543
一切	-8.90558
ฉันไม่ได้	-8.90564
กา	-8.9068
今晚	-8.90929
รอบ	-8.91208
ri	-8.91247
我能	-8.91254
写	-8.91593
回家	-8.91622
ติ	-8.91773
คืนนี้	-8.91833
อยากจะ	-8.9184
线	-8.91959
ย์	-8.91962
坐	-8.92065
▁here	-8.92068
า	-8.92204
โกหก	-8.92222
警察	-8.9257
地方	-8.92827
他是	-8.92966
四	-8.92979
哪	-8.92992
ประตู	-8.93041
嘛	-8.93103
ฉันไม่	-8.93181
p	-8.93197
จัง	-8.93259
▁up	-8.93293
จะเป็น	-8.93322
几	-8.93552
快点	-8.93556
ข่าว	-8.93585
ชา	-8.93685
士	-8.93728
หนี	-8.93859
器	-8.93914
ช่าง	-8.9399
ซี่	-8.9407
▁ไป	-8.94172
ปลอดภัย	-8.94333
不了	-8.94391
嗨	-8.94437
却	-8.94468
點	-8.9448
你好	-8.94497
w	-8.94507
เบอร์	-8.94572
เบ	-8.94761
▁all	-8.9494
回去	-8.94956
不用	-8.95076
พวกคุณ	-8.95078
ขอโทษ	-8.95087
发生	-8.95221
พัก	-8.95222
แอ	-8.95256
แล้วก็	-8.95378
รูป	-8.9552
▁C	-8.95522
▁2	-8.9562
แบบนั้น	-8.95623
ไปที่	-8.95652
ไม่มีอะไร	-8.95658
แก่	-8.95661
นี่มัน	-8.95717
สุดท้าย	-8.9591
酒	-8.9594
球	-8.95945
อิ	-8.96083
ระเบิด	-8.96097
世界	-8.96102
战	-8.96246
你能	-8.9629
已	-8.96292
只要	-8.96377
พวกนี้	-8.96483
ซา	-8.96583
在一起	-8.96679
สัก	-8.9669
bord	-8.96725
สาว	-8.96739
医生	-8.96786
二	-8.96824
瑞	-8.96856
而且	-8.96877
้ง	-8.9688
▁\	-8.96902
方	-8.96923
女人	-8.97058
มาที่นี่	-8.97073
เจ	-8.97073
的是	-8.97116
這個	-8.97186
就像	-8.972
就会	-8.9723
达	-8.97293
▁p	-8.97314
连	-8.97353
▁(	-8.97426
ch	-8.97534
月	-8.97551
ไปหา	-8.97584
ยาก	-8.97633
ฉันรู้ว่า	-8.97705
变	-8.97728
เค	-8.97734
ได้ยังไง	-8.97737
สูง	-8.97742
at	-8.97868
听着	-8.98055
วง	-8.9808
อยู่ที่	-8.98151
▁get	-8.98262
อายุ	-8.98592
ฉันก็	-8.98631
เขาจะ	-8.98656
จุด	-8.98694
亚	-8.98698
流	-8.98703
▁ปี	-8.98713
▁go	-8.98732
ควร	-8.9874
เกิดขึ้น	-8.99036
คอ	-8.99076
谈	-8.99211
คนเดียว	-8.99253
บา	-8.99263
林	-8.9928
队	-8.99309
คุณต้อง	-8.99429
ระหว่าง	-8.99542
▁like	-8.997
莉	-8.99873
ที่มี	-8.99936
星	-8.99937
ซัก	-9.00032
โม	-9.00113
山	-9.00122
停	-9.00195
之后	-9.00278
ในการ	-9.00493
穿	-9.00518
周	-9.00555
指	-9.00661
แรก	-9.00762
船	-9.00851
此	-9.00863
โต	-9.00875
电话	-9.00952
上帝	-9.0102
เสมอ	-9.01116
บางอย่าง	-9.01188
来的	-9.01207
เยี่ยม	-9.01217
ยังไม่	-9.01241
▁เดี๋ยว	-9.01301
▁ไม่ใช่	-9.01321
万	-9.01612
品	-9.01613
鬼	-9.01618
ชิ	-9.01663
相信	-9.01696
ดูเหมือน	-9.01812
每	-9.01881
คู่	-9.02027
้น	-9.02538
的东西	-9.02549
ง่าย	-9.02614
อืม	-9.02711
โล	-9.02803
แมน	-9.0286
挺	-9.02879
难	-9.02977
常	-9.02984
el	-9.03028
做的	-9.03038
เพ	-9.03072
科	-9.03096
เธอจะ	-9.03378
ซ์	-9.03577
告诉你	-9.0359
取	-9.03653
เว	-9.03659
不错	-9.0366
也是	-9.03717
好像	-9.03756
ตั้งแต่	-9.03884
纳	-9.03943
be	-9.03958
完全	-9.04004
保	-9.04043
ด้าน	-9.04204
v	-9.04282
สําคัญ	-9.04319
有个	-9.04356
	-9.04394
เพียง	-9.04612
片	-9.04763
强	-9.04777
這樣	-9.04802
算	-9.04879
ความจริง	-9.04894
จัด	-9.04946
ตัน	-9.04987
艾	-9.04995
ie	-9.05065
狗	-9.05193
ฉันรู้	-9.05263
開	-9.05311
อยู่ที่ไหน	-9.05338
边	-9.05345
ทําได้	-9.05376
跟你	-9.05674
兄弟	-9.05804
雷	-9.06112
跟我	-9.06276
ทีม	-9.0634
อยู่แล้ว	-9.06353
มนุษย์	-9.06366
公司	-9.06418
你可以	-9.06433
岁	-9.06451
得到	-9.06473
靠	-9.06559
สัญญา	-9.06572
感觉	-9.06576
次	-9.06582
นาน	-9.06587
知	-9.06589
ฉันต้อง	-9.06659
局	-9.06665
ได้มั้ย	-9.06822
10	-9.06836
我有	-9.06864
สนุก	-9.06883
ทหาร	-9.06959
ศพ	-9.06998
ตอนที่	-9.07034
โทร	-9.07163
โทรศัพท์	-9.07214
เกินไป	-9.07215
▁กับ	-9.07235
说话	-9.07272
小姐	-9.07303
告诉	-9.07357
▁about	-9.07379
ตัด	-9.07426
明白	-9.07442
森	-9.07447
ปัญหา	-9.07462
风	-9.07524
ถ้าคุณ	-9.07584
离	-9.07653
หมายถึง	-9.0767
แย่	-9.07672
เพิ่ง	-9.07768
了解	-9.07799
คอย	-9.07872
洛	-9.07904
รู	-9.07962
平	-9.07986
▁พ่อ	-9.08051
ad	-9.08096
自己的	-9.08111
▁เพราะ	-9.08138
是不是	-9.08209
声	-9.08303
ใด	-9.08344
完	-9.08379
台	-9.08433
ก็คือ	-9.08462
数	-9.08551
少	-9.08552
ตี	-9.08583
วิ	-9.08611
อีกแล้ว	-9.08631
ขา	-9.08664
一个人	-9.08714
国	-9.08721
电	-9.08732
ไอ	-9.08844
干嘛	-9.08896
	-9.08964
半	-9.08995
兰	-9.09007
▁เป็น	-9.09044
ดี้	-9.09046
好吗	-9.09055
ไกล	-9.09113
ฮ	-9.09159
那里	-9.0925
為	-9.09287
错	-9.09364
รักษา	-9.0943
พระ	-9.09478
▁5	-9.09497
ณ	-9.09527
化	-9.09537
奇	-9.09607
塔	-9.09617
犯	-9.09618
ที่เรา	-9.09702
维	-9.09755
▁c	-9.09838
房	-9.0997
หลาย	-9.10035
在哪	-9.10049
正在	-9.10101
วิ่ง	-9.10102
如此	-9.10165
K	-9.10228
ชุด	-9.10307
照	-9.10311
พวกนาย	-9.10434
จะไป	-9.1044
รี่	-9.10462
色	-9.10465
城	-9.10547
เกิดอะไรขึ้น	-9.10682
包	-9.10773
เยอะ	-9.10878
▁gonna	-9.10997
传	-9.11066
走吧	-9.11212
▁right	-9.11215
อะ	-9.11307
มาแล้ว	-9.11314
留	-9.11413
ra	-9.11465
来吧	-9.11641
ุ	-9.11697
别人	-9.11725
▁got	-9.1173
总	-9.11812
รึ	-9.11881
和你	-9.11936
夜	-9.1202
โง่	-9.12035
อี	-9.12077
ระบบ	-9.12212
หายไป	-9.1224
ไม่มีทาง	-9.12266
ขโมย	-9.12457
▁1	-9.12467
言	-9.12467
ค่า	-9.12471
อาทิตย์	-9.12576
在这	-9.12757
军	-9.12834
你有	-9.12853
เธตเน	-9.1292
我可以	-9.13015
▁快	-9.13049
เรามี	-9.13053
เฮ	-9.13176
没事	-9.13214
做什么	-9.1324
药	-9.13367
明天	-9.13406
计划	-9.13429
落	-9.13496
我们要	-9.13524
我不想	-9.13563
▁别	-9.13781
ประ	-9.13828
ปล่อยให้	-9.13836
亲	-9.13976
มาก่อน	-9.13983
男人	-9.14048
▁แม่	-9.14109
ไร	-9.14229
你觉得	-9.14229
il	-9.1423
สั่ง	-9.14308
生活	-9.14359
นี่เป็น	-9.14424
ได้เลย	-9.14464
ถ	-9.14511
感	-9.14544
解	-9.14682
妳	-9.14751
ผล	-9.14766
▁want	-9.14843
คุยกับ	-9.14887
ให้เขา	-9.14992
โด	-9.15058
ทําลาย	-9.15061
บิน	-9.15164
เดือน	-9.15201
เท่าไหร่	-9.15231
▁so	-9.15243
กับคุณ	-9.15327
ปาก	-9.15472
สวัสดี	-9.15479
สี	-9.15626
วะ	-9.1563
▁เอ่อ	-9.1577
ไปเลย	-9.15899
啥	-9.15913
或者	-9.16017
你也	-9.16044
▁是的	-9.16087
谢谢你	-9.16089
讲	-9.16121
伤	-9.1618
G	-9.16185
เพลง	-9.162
เชิญ	-9.16204
奥	-9.16268
ดีมาก	-9.1631
▁我是	-9.16346
สุด	-9.16423
and	-9.16534
ดา	-9.16695
不想	-9.16859
ที่รัก	-9.17015
修	-9.17035
นายจะ	-9.17064
ตรงนี้	-9.17089
la	-9.17116
จะมี	-9.17173
ถูกต้อง	-9.17222
不管	-9.17306
▁ทําไม	-9.17433
H	-9.17454
พูดว่า	-9.17531
▁但是	-9.17665
ไปไหน	-9.17753
ขอให้	-9.17789
我没	-9.17861
民	-9.17887
ตามหา	-9.17892
▁ขอบคุณ	-9.17932
หัวใจ	-9.1799
拍	-9.18067
深	-9.18128
st	-9.18235
se	-9.18255
波	-9.18315
ro	-9.18319
รอย	-9.18327
刚	-9.18333
อย่างที่	-9.18365
你就	-9.18373
逃	-9.18456
ีย	-9.1852
	-9.18587
一定	-9.18597
种	-9.1866
สอน	-9.18725
ชนะ	-9.18874
ให้ผม	-9.18906
跳	-9.19038
๊	-9.19045
ที่ฉัน	-9.19102
六	-9.19171
基	-9.19321
▁就	-9.19334
ต่าง	-9.19347
ย้าย	-9.19366
es	-9.19429
但我	-9.19447
▁เจ้า	-9.19455
好好	-9.19468
時	-9.19557
cHFF	-9.1963
เก	-9.19634
把你	-9.19687
你不	-9.19697
这儿	-9.19726
นั่นแหละ	-9.19818
或	-9.19839
เจ้าหน้าที่	-9.19857
下来	-9.20041
อยากให้	-9.20081
你说	-9.20081
击	-9.2015
▁one	-9.2016
วิธี	-9.20211
我不能	-9.20213
▁他们	-9.20297
ne	-9.20356
选	-9.20361
แล้วนะ	-9.20397
ห้าม	-9.20483
干什么	-9.20495
ต้องทํา	-9.20691
หาก	-9.20731
因為	-9.20792
要是	-9.20799
伯	-9.20827
กําลังจะ	-9.20887
区	-9.20901
▁him	-9.20903
毒	-9.20939
ร่า	-9.20978
它们	-9.20992
帮我	-9.21003
คุณกําลัง	-9.21076
不可能	-9.21099
ด้วยกัน	-9.2115
แรง	-9.2118
两个	-9.21225
▁M	-9.2125
认为	-9.21258
สู้	-9.2131
女孩	-9.21314
▁T	-9.21375
มันก็	-9.21411
▁think	-9.21497
ตลอด	-9.21531
ลูกชาย	-9.21572
	-9.21698
20	-9.21749
ผมคิดว่า	-9.21798
ได้รับการ	-9.21819
หนังสือ	-9.2195
条	-9.21994
清	-9.2203
อาวุธ	-9.22102
把他	-9.22103
เซ	-9.22163
裡	-9.22169
服	-9.22198
罪	-9.22218
นะครับ	-9.22329
姆	-9.2233
ถือ	-9.22338
ลิน	-9.22339
從	-9.22378
卖	-9.22491
进来	-9.2252
进去	-9.22527
假	-9.22533
站	-9.22542
ว่ะ	-9.22555
กิ	-9.226
ก็จะ	-9.2266
แ	-9.22747
你怎么	-9.22824
▁We	-9.22857
超	-9.22958
กะ	-9.22974
เพราะว่า	-9.23006
笑	-9.23021
คุณคิดว่า	-9.23065
รีบ	-9.23077
ร้าย	-9.232
เอาไว้	-9.23214
怎样	-9.23247
▁ข้า	-9.23303
สงคราม	-9.23324
室	-9.23379
这就是	-9.23453
ล์	-9.23476
โทรหา	-9.23479
▁there	-9.23502
让他	-9.2356
ี	-9.23589
代	-9.23692
案	-9.23743
หมา	-9.23797
ตลก	-9.23805
พิเศษ	-9.23806
What	-9.23831
我只是	-9.23902
越	-9.23997
คิดถึง	-9.24058
在这儿	-9.24073
就能	-9.24107
เก่า	-9.243
间	-9.24322
ผ	-9.24466
和我	-9.24534
ที่นั่น	-9.24629
]	-9.24631
乐	-9.2465
แทน	-9.24675
ฉันไม่รู้	-9.24685
นะคะ	-9.24745
无法	-9.2475
失	-9.24893
愿	-9.24915
皮	-9.25047
เตอร์	-9.25209
不到	-9.2528
คงจะ	-9.25334
其他	-9.25339
▁เราจะ	-9.25372
เป็นใคร	-9.25446
表	-9.2546
มีความสุข	-9.25469
保护	-9.25493
天啊	-9.25518
▁จาก	-9.25598
决定	-9.25753
▁พวกเขา	-9.25784
第	-9.25845
ฉันได้	-9.25942
ควรจะ	-9.25987
ไม่อยาก	-9.26032
以前	-9.26036
使	-9.2609
由	-9.26092
給	-9.26184
ศ	-9.26652
เย็น	-9.26693
บอกฉัน	-9.26736
ir	-9.26761
้ม	-9.26797
在哪里	-9.26867
ต์	-9.27019
成为	-9.2708
混蛋	-9.2709
li	-9.27106
พวกเธอ	-9.27166
พัน	-9.27176
ไม่ดี	-9.27211
演	-9.27218
病	-9.27268
ทําร้าย	-9.27275
มันไม่	-9.27279
ปกป้อง	-9.27371
ผมก็	-9.27385
บริษัท	-9.27439
▁พระเจ้า	-9.27543
我很	-9.27572
สงสัย	-9.27585
再见	-9.2759
อยู่นี่	-9.27634
诺	-9.27651
โก	-9.2767
แผน	-9.27682
千	-9.27768
ดาว	-9.27788
拜托	-9.27897
เหลือ	-9.2793
▁no	-9.28135
ฉันต้องการ	-9.28153
ถนน	-9.28254
他们的	-9.28259
换	-9.28283
ครู	-9.28345
ใบ	-9.28346
ลงไป	-9.2837
蒂	-9.28435
กลายเป็น	-9.28455
ทิ	-9.28524
คุณมี	-9.28569
มีใคร	-9.2859
步	-9.2861
美国	-9.28838
z	-9.28857
ไม่เห็น	-9.28899
▁这是	-9.28927
โจ	-9.29006
原	-9.29138
破	-9.29239
把我	-9.29357
สัตว์	-9.29376
期	-9.2938
▁พวก	-9.29508
ขับ	-9.2958
抓	-9.29586
就在	-9.2959
客	-9.29625
ได้โปรด	-9.29638
โซ	-9.29714
กลุ่ม	-9.29869
อันตราย	-9.2989
▁at	-9.2991
也不	-9.29917
見	-9.30014
听到	-9.30025
行动	-9.30069
เลี้ยง	-9.30118
帮你	-9.30327
到底	-9.30378
丝	-9.30393
ระวัง	-9.30401
偷	-9.3053
▁It	-9.30609
ตอบ	-9.30698
操	-9.3075
โปรด	-9.30759
ก่อนที่	-9.30861
這是	-9.31055
นอก	-9.31062
And	-9.3108
เซอร์	-9.31147
	-9.31212
ฉันมี	-9.31342
我不是	-9.31348
件	-9.31359
杀了	-9.31442
ร้าน	-9.31443
不會	-9.31513
ไม่สามารถ	-9.31514
นี	-9.31527
แฟน	-9.31534
bo	-9.3169
▁เอา	-9.31711
怎麼	-9.31718
如	-9.31751
ยู	-9.31856
▁แค่	-9.31869
工	-9.31882
มั๊ย	-9.32033
看来	-9.32035
๋	-9.32169
小心	-9.32178
เดียวกัน	-9.32199
ห์	-9.32244
โชคดี	-9.32285
ขวา	-9.32314
นั่นคือ	-9.32358
莱	-9.32383
บั	-9.32389
托	-9.32469
โน	-9.32493
ประเทศ	-9.32618
ห้า	-9.32639
多少	-9.32776
其实	-9.32788
รอด	-9.32872
ครั้ง	-9.32905
เขาเป็น	-9.32958
หน่วย	-9.32963
才能	-9.3305
伦	-9.33065
▁w	-9.33066
เหนือ	-9.33093
ฮะ	-9.3312
麻烦	-9.33143
พูดถึง	-9.33149
▁เฮ้	-9.33159
เพียงแค่	-9.33178
并	-9.33187
热	-9.33228
ด์	-9.33233
没什么	-9.33292
ระ	-9.33334
讓	-9.33435
ฉันว่า	-9.33455
เวอร์	-9.33479
总是	-9.33563
名字	-9.33584
จึง	-9.33691
น์	-9.33701
เต็ม	-9.33841
สนใจ	-9.3389
我们得	-9.3393
他在	-9.33984
ข้าง	-9.3399
有些	-9.34091
我去	-9.34141
王	-9.34183
百	-9.3419
反	-9.34202
密	-9.34256
ใกล้	-9.34319
▁谢谢	-9.3433
让我们	-9.34343
จ่าย	-9.34433
晚上	-9.34517
史	-9.34552
的事情	-9.34643
เล็ก	-9.34772
ือ	-9.34784
费	-9.34895
所有的	-9.34923
尽	-9.34952
单	-9.35015
我已经	-9.35027
們	-9.35036
以为	-9.35096
คุณได้	-9.35103
根	-9.35248
这么做	-9.35266
▁การ	-9.35335
脚	-9.3544
ความคิด	-9.3546
๊ก	-9.35516
ชั่วโมง	-9.35568
ให้เธอ	-9.35614
อากาศ	-9.35672
เมื่อไหร่	-9.35729
ปกติ	-9.35867
ยก	-9.35941
ent	-9.35947
▁นั่น	-9.35986
ฮา	-9.3608
เฟ	-9.36117
索	-9.36271
普	-9.36276
▁แล้วก็	-9.36278
▁所以	-9.36307
下去	-9.36318
ดูสิ	-9.36321
▁โอ้	-9.36357
永远	-9.36387
▁her	-9.36423
เห	-9.36508
車	-9.36526
忙	-9.36592
ข้าจะ	-9.36702
แน่ๆ	-9.36727
กู	-9.36748
ฉลาด	-9.3676
画	-9.3676
师	-9.36803
▁P	-9.36806
เก่ง	-9.36835
เจอกัน	-9.36906
清楚	-9.36906
耶	-9.36917
ฝึก	-9.36917
คดี	-9.36962
ว่าจะ	-9.37009
ชน	-9.37026
ผมไม่ได้	-9.37062
R	-9.37098
lo	-9.37142
愛	-9.37146
飞	-9.37281
晚	-9.37285
กลาง	-9.37348
สา	-9.37362
เช	-9.37441
มีการ	-9.37451
至少	-9.37473
结	-9.37509
สิบ	-9.37602
พิ	-9.37625
把它	-9.37702
ะฐ	-9.37737
อย่างนี้	-9.37779
ใช้เวลา	-9.37841
ช้า	-9.37864
ic	-9.3788
▁see	-9.37956
报	-9.38106
人类	-9.3811
▁4	-9.38215
โบ	-9.38218
แต่งงาน	-9.38253
ตื่น	-9.38325
选择	-9.38416
男	-9.38587
ลู	-9.38604
ยิ่ง	-9.3862
▁And	-9.38685
นิดหน่อย	-9.38709
很多	-9.38811
去找	-9.3885
在我	-9.38861
เหมือนกับ	-9.38873
เล่า	-9.38922
ไม้	-9.38941
▁h	-9.38961
▁10	-9.38961
มากเลย	-9.38997
▁คือ	-9.39109
勒	-9.39128
พรุ่งนี้	-9.39173
求	-9.39182
改变	-9.39227
พูดอะไร	-9.39268
担心	-9.39361
่า	-9.39376
▁d	-9.3941
我现在	-9.39417
son	-9.39481
证	-9.39497
ฉันเป็น	-9.39607
梦	-9.39645
▁The	-9.39705
เจ็บ	-9.39777
▁No	-9.39819
เธกเน	-9.3986
武器	-9.39861
อก	-9.39923
ร้อง	-9.39975
最后	-9.3998
他妈的	-9.40018
还没	-9.40121
หรือยัง	-9.40192
มีความ	-9.40227
ร้อน	-9.40234
後	-9.40258
เจน	-9.40296
告	-9.40401
是吗	-9.40421
เมีย	-9.40432
該	-9.40501
8080}	-9.40579
▁L	-9.40643
หลังจาก	-9.4066
ขี้	-9.40666
▁back	-9.40675
ก็แค่	-9.40704
ทา	-9.40709
บาง	-9.40718
警	-9.40728
ครึ่ง	-9.40851
te	-9.40875
▁ตอนนี้	-9.40878
▁What	-9.40966
▁我知道	-9.41001
帶	-9.41154
หมายความว่า	-9.41181
未	-9.41319
มานี่	-9.41364
控制	-9.41402
เสร็จ	-9.41444
办	-9.41489
曾	-9.41543
其	-9.41554
อง	-9.41561
我需要	-9.41562
洗	-9.41562
直	-9.41604
关于	-9.41664
我来	-9.41752
นับ	-9.41805
运	-9.41811
บี	-9.4186
州	-9.41961
It	-9.4197
肉	-9.41973
去了	-9.4202
▁ขอ	-9.42236
藏	-9.42276
引	-9.42276
นั่นเป็น	-9.42347
is	-9.4235
เราได้	-9.42414
马上	-9.42426
เตือน	-9.42433
呃	-9.42632
คุยกัน	-9.42657
我不会	-9.42815
▁ไอ้	-9.42933
จิ	-9.42955
收到	-9.42983
ใต้	-9.43166
温	-9.43217
量	-9.43218
▁they	-9.43246
应	-9.43347
ว่าไง	-9.43355
สินะ	-9.43382
了吧	-9.43437
▁นาที	-9.43535
接受	-9.43537
วี	-9.43551
世	-9.43566
ซ่อน	-9.43598
im	-9.43657
頭	-9.43718
切	-9.43762
สามี	-9.43774
▁แก	-9.43823
มาถึง	-9.43825
ช่วง	-9.43888
等一下	-9.43932
Y	-9.43933
มันไม่ใช่	-9.43999
是我的	-9.44042
อร์	-9.44083
\3	-9.44154
แสดง	-9.44206
整	-9.44224
แค	-9.44235
▁ไม่มี	-9.44255
约	-9.44397
ไม	-9.444
เงียบ	-9.44447
ร่วม	-9.44491
情况	-9.44526
痛	-9.4464
คุณไม่	-9.44653
身上	-9.44744
院	-9.44876
▁我想	-9.44913
หนัง	-9.44926
读	-9.44983
ควบคุม	-9.44994
喔	-9.45068
แปลก	-9.45086
สี่	-9.45102
他会	-9.4514
ฉ	-9.45157
วิน	-9.45171
無	-9.45214
จะมา	-9.45266
我得	-9.45287
U	-9.45298
จะทํา	-9.45314
帮助	-9.45381
弹	-9.45405
am	-9.45483
乱	-9.45486
曼	-9.45493
ยังคง	-9.45509
้อ	-9.45518
古	-9.45576
มีปัญหา	-9.45577
ลูกสาว	-9.45584
女士	-9.4559
▁#	-9.45686
ol	-9.45702
回到	-9.45731
▁我要	-9.45737
▁เมื่อ	-9.45798
แซม	-9.45854
00\	-9.45855
追	-9.45863
เพิ่ม	-9.459
ชาว	-9.45941
ตะ	-9.45942
ทาน	-9.45976
แล้วล่ะ	-9.46001
帮忙	-9.46025
ดึง	-9.46129
坏	-9.46159
一切都	-9.46172
石	-9.46264
预	-9.46264
▁你们	-9.46265
โอกาส	-9.46336
这次	-9.46339
J	-9.46428
ไม่ค่อย	-9.46468
见过	-9.46496
八	-9.46522
จริงเหรอ	-9.46609
说的	-9.46669
0\3	-9.46722
实	-9.46808
字	-9.46826
ไล่	-9.46984
▁He	-9.46995
แบ	-9.47022
ปีศาจ	-9.47127
登	-9.47127
ate	-9.4725
确定	-9.47253
记得	-9.4727
อธิบาย	-9.47388
你看	-9.47398
เธอเป็น	-9.4741
▁嘿	-9.47454
ฉันอยาก	-9.47476
制	-9.47481
调	-9.47545
มันคือ	-9.47642
哥	-9.47882
คําสั่ง	-9.47896
戴	-9.47968
เท่า	-9.4801
จากนั้น	-9.48011
吉	-9.48053
音	-9.48146
เดินทาง	-9.48157
关系	-9.48187
《	-9.48436
市	-9.48499
ตรวจ	-9.48502
ดีๆ	-9.48515
คุณไม่ได้	-9.48587
你得	-9.48596
พวกเค้า	-9.48608
这不是	-9.48611
ที่ผม	-9.48617
ถ้าเรา	-9.48826
กระเป๋า	-9.48833
aH	-9.4888
块	-9.48896
份	-9.48924
她们	-9.48959
油	-9.48964
\4	-9.48985
我们可以	-9.49006
น่ารัก	-9.49039
没人	-9.49047
fscx	-9.49053
fscy	-9.49053
样	-9.49087
张	-9.49116
共	-9.49123
當	-9.49126
》	-9.49141
随	-9.49191
害	-9.49227
เตรียม	-9.49288
เด็กๆ	-9.49313
人们	-9.49354
上的	-9.49366
โฮ	-9.49367
亲爱的	-9.49404
我和	-9.49445
เจ๋ง	-9.49584
ฝัน	-9.49588
▁us	-9.49592
ผู้คน	-9.49692
首	-9.49717
จ๊ะ	-9.49764
宝贝	-9.49798
นั่นมัน	-9.49808
还在	-9.49838
领	-9.49846
龙	-9.49851
▁งั้น	-9.4988
看起来	-9.49897
▁W	-9.49993
เต้น	-9.49997
▁มันเป็น	-9.50087
คุณรู้	-9.50121
ไปได้	-9.50131
ho	-9.50166
程	-9.50217
เป็นอะไร	-9.50221
座	-9.50272
必须	-9.50286
x	-9.50338
赛	-9.50352
象	-9.50355
混	-9.50372
福	-9.50373
長	-9.5038
ผมว่า	-9.50427
[	-9.5044
สองคน	-9.50468
อยากได้	-9.50517
怎么办	-9.50532
ติดต่อ	-9.50593
处理	-9.50601
我没有	-9.50627
id	-9.50635
急	-9.50651
或许	-9.50662
▁20	-9.50666
防	-9.50741
那個	-9.50793
如果我	-9.50801
班	-9.50817
圣	-9.50925
约翰	-9.50926
人的	-9.50948
สติ	-9.50956
เรื่องนั้น	-9.50976
ประมาณ	-9.51016
ฉันกําลัง	-9.5103
谈谈	-9.5106
▁6	-9.51066
ยอมรับ	-9.51093
▁Ya	-9.51117
ดํา	-9.51162
as	-9.51215
你还	-9.51219
你和	-9.51293
ตัดสินใจ	-9.513
ของข้า	-9.51315
om	-9.51332
นรก	-9.51371
一天	-9.51377
▁然后	-9.51407
ล้าง	-9.51481
变成	-9.51481
小子	-9.51524
สถานที่	-9.5157
▁嗯	-9.51586
จ้ะ	-9.51649
รู้ไหม	-9.51812
動	-9.51826
บาร์	-9.51871
射	-9.51876
毛	-9.51912
▁E	-9.51945
店	-9.5199
~	-9.52013
没关系	-9.52035
คุณเป็น	-9.52054
里面	-9.521
推	-9.52104
▁from	-9.52195
ฉันหมายถึง	-9.5226
เรากําลัง	-9.52284
คุย	-9.52335
บอกให้	-9.52414
你们的	-9.52427
คนหนึ่ง	-9.5246
	-9.52469
รู้มั้ย	-9.52471
ลุง	-9.52498
W	-9.52509
我都	-9.52541
โรงเรียน	-9.52599
▁ผมจะ	-9.52644
ยอม	-9.52674
蛋	-9.52711
南	-9.52816
小时	-9.52838
หาย	-9.52916
莫	-9.52927
ฉันชอบ	-9.52983
威	-9.5303
的小	-9.53089
差	-9.53108
ภายใน	-9.53111
她是	-9.53134
22\	-9.53136
断	-9.53147
ฉันเห็น	-9.533
护	-9.53446
官	-9.53464
我说	-9.53475
โกรธ	-9.53501
ร้อย	-9.53503
เธธเธ	-9.5351
萨	-9.53654
鱼	-9.53665
還有	-9.53704
เป	-9.53707
พลาด	-9.53717
阻止	-9.53758
ter	-9.53792
อยู่บน	-9.53813
แค่ไหน	-9.53906
เริ่มต้น	-9.53929
牌	-9.53943
ชม	-9.53963
ข้าม	-9.53966
丽	-9.54008
形	-9.54024
▁我們	-9.54036
语	-9.54109
ึ	-9.54169
对我	-9.54198
ว่าคุณ	-9.54209
▁time	-9.54223
ยืน	-9.54229
แจ้ง	-9.54323
อึ	-9.54333
ต้า	-9.54354
สมอง	-9.54368
害怕	-9.54376
第一	-9.54468
便	-9.54475
型	-9.54501
บิ	-9.54534
คงไม่	-9.54561
我知道你	-9.54631
我喜欢	-9.54676
图	-9.54726
เข้าไปใน	-9.54751
最近	-9.54754
ให้เรา	-9.54766
อ่ะ	-9.54823
The	-9.54845
ของพวกเขา	-9.54846
那就	-9.54853
家人	-9.54854
ซู	-9.54882
ต่างหาก	-9.54891
1}	-9.5491
而已	-9.54933
▁them	-9.54961
做了	-9.55079
▁now	-9.55118
这么说	-9.55182
ม้า	-9.55225
ดีนะ	-9.55319
七	-9.55345
อุ	-9.55368
เกือบ	-9.55431
极	-9.55438
甚至	-9.55441
ัล	-9.55457
ge	-9.55469
รายงาน	-9.55511
我们会	-9.55531
杰	-9.55621
หัวหน้า	-9.55645
發	-9.55736
看见	-9.55761
็ค	-9.55778
什么时候	-9.55828
都不	-9.55848
เราก็	-9.559
调查	-9.55929
หนัก	-9.56003
塞	-9.56006
เรื่องที่	-9.56026
顿	-9.56034
พี่ชาย	-9.56063
กอง	-9.56149
หวัดดี	-9.56153
爾	-9.56195
▁need	-9.56199
ไร้	-9.56307
非	-9.56333
在那里	-9.5636
สัญญาณ	-9.56365
就要	-9.56391
ce	-9.56458
冲	-9.56481
ไฮ	-9.56506
เพื่อให้	-9.56522
12	-9.56545
相信我	-9.56563
冰	-9.56576
父亲	-9.56646
改	-9.56651
ตําแหน่ง	-9.56671
认识	-9.56681
劳	-9.56767
娜	-9.56822
吓	-9.56856
แต่ง	-9.56859
不好	-9.56874
ไม่รู้สิ	-9.56891
ยังมี	-9.56948
造	-9.57002
กับผม	-9.57038
พลัง	-9.57118
▁เพื่อน	-9.57124
We	-9.57138
ผมต้อง	-9.5718
是在	-9.57184
因为我	-9.57204
▁R	-9.57235
ผมไม่	-9.57249
付	-9.57253
我是说	-9.57328
赶	-9.57353
จู	-9.57372
已經	-9.57391
ลับ	-9.57409
อะไรกัน	-9.57416
▁什么	-9.57428
為什麼	-9.57449
▁de	-9.57564
ไม่ควร	-9.57626
按	-9.57811
碰	-9.57817
ทํามัน	-9.57886
Hei	-9.57892
殺	-9.57903
博士	-9.57929
หล่ะ	-9.57939
迷	-9.57944
วน	-9.58028
衣服	-9.58084
เป็นไงบ้าง	-9.58131
เธอต้อง	-9.58137
他说	-9.58147
东	-9.58184
請	-9.58209
ต้น	-9.58295
兵	-9.5839
妈	-9.58407
ยุ่ง	-9.5842
90	-9.58445
no	-9.58481
ริค	-9.58482
闭嘴	-9.58501
视	-9.58581
เหล่านี้	-9.58626
โทษที	-9.58683
不好意思	-9.58699
那种	-9.58725
完成	-9.58756
	-9.58792
us	-9.58833
▁我会	-9.58844
敢	-9.58894
ฉันไป	-9.58899
ฉันทํา	-9.58937
满	-9.58942
街	-9.58999
รึยัง	-9.59037
打算	-9.59048
เกลียด	-9.59104
记	-9.59132
货	-9.59178
mo	-9.59208
จา	-9.59209
以后	-9.59294
หนุ่ม	-9.59359
近	-9.59376
我们就	-9.59435
守	-9.59464
ไม่ยอม	-9.59609
หรอกนะ	-9.59646
你应该	-9.59653
ฉันจะไม่	-9.59662
Microsoft	-9.59672
มีเรื่อง	-9.59678
na	-9.59696
หลับ	-9.59697
哇	-9.59731
เนื้อ	-9.5974
เสื้อ	-9.5977
แตก	-9.59831
แล	-9.59859
ตายแล้ว	-9.59904
在你	-9.60013
野	-9.60063
太好了	-9.60087
出现	-9.60094
หญิง	-9.60097
อย่างไร	-9.60219
聽	-9.6023
เกม	-9.60255
กรุณา	-9.60264
หวังว่า	-9.60357
▁will	-9.60363
在哪儿	-9.60381
夫人	-9.60391
ญ	-9.60521
歌	-9.60548
ver	-9.60561
แม้แต่	-9.60639
找到了	-9.60652
▁l	-9.60653
注意	-9.60695
วันที่	-9.60762
กังวล	-9.60793
给他	-9.60805
够	-9.60819
ick	-9.60831
▁ท่าน	-9.60852
你不能	-9.60868
he	-9.60957
เสียใจ	-9.61026
ขาด	-9.61106
▁不是	-9.61124
คั	-9.61154
เเล้ว	-9.61158
ระดับ	-9.61174
机会	-9.61199
รอน	-9.61205
เช่น	-9.61265
解决	-9.61266
ว่ามัน	-9.61279
แสง	-9.6132
▁哦	-9.6133
直到	-9.61347
ไปด้วย	-9.61416
พวกเขาจะ	-9.615
นก	-9.61523
นาที	-9.61527
养	-9.61557
雪	-9.61557
▁K	-9.61583
จ้าง	-9.61588
ดัง	-9.61609
ไซ	-9.61609
กับเธอ	-9.61626
งั้นก็	-9.61635
你了	-9.61729
是因为	-9.61742
ตี้	-9.61748
疑	-9.61754
เท้า	-9.61771
系	-9.61812
มันมี	-9.61913
ตรวจสอบ	-9.61962
游戏	-9.61963
這麼	-9.61969
同意	-9.62011
排	-9.62012
you	-9.62052
อม	-9.6211
因	-9.62173
all	-9.62227
兒	-9.62283
▁ที่รัก	-9.62301
ผ้า	-9.62358
ก็ไม่	-9.62367
怕	-9.6238
ของเจ้า	-9.62404
ยินดี	-9.62436
弗	-9.62552
เช้า	-9.62577
何	-9.62595
存在	-9.62607
ให้กับ	-9.62645
เดิม	-9.6269
天哪	-9.62711
ว้าว	-9.62818
ลลี่	-9.62833
这样的	-9.62859
หวัง	-9.6294
ซ่า	-9.63019
มาร์	-9.63025
ก็ต้อง	-9.63074
友	-9.63136
低	-9.63173
un	-9.63215
จนกว่า	-9.63232
บางคน	-9.63235
念	-9.63323
ความรัก	-9.63334
จอห์น	-9.63359
▁were	-9.63458
▁不要	-9.63503
对你	-9.63506
你不是	-9.6351
ฮอ	-9.63546
บู	-9.63551
危险	-9.63554
那边	-9.63652
衣	-9.63789
生命	-9.63864
ลึก	-9.63867
คนนี้	-9.63874
	-9.63888
คุณก็	-9.64015
联系	-9.64095
久	-9.64109
ไว	-9.64161
乔	-9.6419
还要	-9.64208
กี้	-9.64237
one	-9.64266
ให้ได้	-9.64316
V	-9.6433
▁an	-9.64338
ภรรยา	-9.64343
ป่า	-9.64346
ที่อยู่	-9.64397
เต	-9.6443
我们在	-9.64447
绝对	-9.64461
目标	-9.64525
จะให้	-9.64547
เส	-9.64589
团	-9.64589
影	-9.6459
ปลา	-9.64638
50	-9.64651
食	-9.64697
系统	-9.64713
失去	-9.64739
▁เหมือน	-9.64756
冷	-9.64809
มาให้	-9.64814
ที่เขา	-9.64822
自由	-9.64857
ไม่ว่า	-9.64907
มากมาย	-9.64933
大人	-9.64987
▁his	-9.65045
留下	-9.65061
คืออะไร	-9.65096
结果	-9.65132
給我	-9.65157
ว์	-9.65206
的生活	-9.65331
บันทึก	-9.65333
ไม่รู้ว่า	-9.6541
▁G	-9.65421
เกร	-9.65513
กล้า	-9.65536
ว่าเขา	-9.65546
大家都	-9.65642
烧	-9.65646
北	-9.65656
魔	-9.65705
招	-9.65747
ราย	-9.65774
看着	-9.65812
โทษ	-9.65843
อารมณ์	-9.65855
ฉันขอโทษ	-9.65882
สู่	-9.65899
喜歡	-9.65959
怎么回事	-9.66038
称	-9.66064
ทางนี้	-9.66096
ทําให้ฉัน	-9.66138
红	-9.66158
灵	-9.6616
什么事	-9.66161
咱们	-9.66176
เข	-9.66367
令	-9.66418
แม	-9.66443
节	-9.66461
菲	-9.6648
房子	-9.66599
เออ	-9.66639
中的	-9.6665
ถ่าย	-9.66652
特别	-9.66662
要去	-9.66664
ขับรถ	-9.66721
โ	-9.66735
都会	-9.66743
ฟิ	-9.66777
เธอก็	-9.66801
這些	-9.66806
我还	-9.6693
ื	-9.66949
结束	-9.66961
เป็นเรื่อง	-9.66985
虽然	-9.67012
舞	-9.67013
45	-9.67031
新的	-9.67038
▁N	-9.67075
▁ได้โปรด	-9.67106
▁could	-9.67117
He	-9.67179
背	-9.67183
盖	-9.67223
梅	-9.67223
长官	-9.67252
แยก	-9.67265
你现在	-9.67285
คําถาม	-9.67288
琌	-9.67329
错了	-9.67334
保持	-9.67337
英	-9.67376
ได	-9.67407
▁ชั้น	-9.67432
▁现在	-9.67457
ก้า	-9.675
吸血鬼	-9.67542
散	-9.67542
เร็วเข้า	-9.67569
我们都	-9.67569
斯特	-9.67623
ry	-9.67635
料	-9.67643
铁	-9.67648
确实	-9.67661
他们会	-9.67684
是否	-9.67709
恨	-9.67754
整个	-9.67841
刚才	-9.67852
那你	-9.67888
ig	-9.67902
เกิน	-9.67965
เส้น	-9.68013
อ้อ	-9.68019
บท	-9.68089
ไม่ชอบ	-9.68094
นายต้อง	-9.68103
▁好吧	-9.68131
▁did	-9.68142
ขอโทษนะ	-9.68156
嘴	-9.68161
除了	-9.68188
ap	-9.68206
杯	-9.68232
ลี่	-9.68295
▁สําหรับ	-9.68301
几个	-9.68313
สเตอร์	-9.68317
กับเขา	-9.6835
เรียกว่า	-9.68376
是为了	-9.68411
เกอร์	-9.68447
เรียบร้อย	-9.68468
เย	-9.68558
ทะเล	-9.68639
拿到	-9.68657
▁好的	-9.68679
ว่าฉัน	-9.68744
แดน	-9.68747
ส่วนตัว	-9.6876
ขอบใจ	-9.6877
ทําแบบนี้	-9.68826
ร่าง	-9.68844
ชาติ	-9.68851
จะตาย	-9.68873
只能	-9.68977
แต่ฉัน	-9.69049
套	-9.69102
誰	-9.69136
刀	-9.69149
แจ็ค	-9.69155
楼	-9.69228
玛	-9.69238
佛	-9.69257
30	-9.69265
你自己	-9.69267
其他人	-9.6929
สูญเสีย	-9.69291
助	-9.69344
ผมมี	-9.69347
组织	-9.69366
ที่บ้าน	-9.69374
ลาย	-9.69388
打电话	-9.69588
เหตุผล	-9.69592
et	-9.69692
อั	-9.69693
สาร	-9.6972
ia	-9.69727
เป็นผู้	-9.69731
恶	-9.69799
该死的	-9.69819
▁st	-9.69823
ต้องไป	-9.69894
學	-9.69903
▁if	-9.69909
ประจํา	-9.69945
参加	-9.69952
คนนั้น	-9.70022
ความรู้สึก	-9.7011
及	-9.7012
กัปตัน	-9.70127
ぃ	-9.70127
但你	-9.70199
โทรมา	-9.70199
我叫	-9.70243
ธุรกิจ	-9.70244
สิ่งนี้	-9.70286
傻	-9.70338
จะทําให้	-9.70397
ก้าว	-9.70401
เลีย	-9.7041
เป็นไปได้	-9.70446
▁ต้อง	-9.70465
เชื่อว่า	-9.70505
แท้	-9.70526
เป้าหมาย	-9.70573
อย่างน้อย	-9.70576
听我说	-9.70622
จะทําอะไร	-9.70631
上面	-9.70645
集	-9.70662
อะไรที่	-9.70796
杰克	-9.70844
莎	-9.70848
该死	-9.70879
เขาไม่ได้	-9.70915
懂	-9.70932
权	-9.70953
临	-9.71001
กรรม	-9.71023
ยอด	-9.71044
奇怪	-9.7106
มากๆ	-9.71065
เมา	-9.71087
▁tr	-9.7114
แอน	-9.7114
扔	-9.71224
ผมต้องการ	-9.7125
脸	-9.71284
精	-9.71307
说什么	-9.71332
to	-9.71348
ก็ยัง	-9.71503
认	-9.71567
一种	-9.71595
▁我就	-9.71671
สุดยอด	-9.71681
ถ้าเธอ	-9.71791
任何人	-9.71807
直接	-9.7183
麦	-9.71899
▁as	-9.71975
▁su	-9.71992
ฉันไม่เคย	-9.72084
组	-9.72136
อยู่ที่นั่น	-9.72218
▁some	-9.72226
正常	-9.72261
ยาม	-9.72284
ซอ	-9.72304
最好	-9.72348
หุบปาก	-9.72445
木	-9.72445
这边	-9.72482
躲	-9.72556
太太	-9.72574
瓦	-9.72668
当时	-9.72681
หลัก	-9.72685
สบาย	-9.72708
▁she	-9.72729
小孩	-9.72745
กุญแจ	-9.7278
ทัน	-9.72785
ไท	-9.72792
不然	-9.72799
ลํา	-9.72844
陪	-9.72883
ยาน	-9.72907
所以我	-9.72958
味	-9.7296
腿	-9.73004
คุณสามารถ	-9.73008
举	-9.73056
我们是	-9.73061
000	-9.73092
努力	-9.73118
หรือไง	-9.73159
立	-9.73214
ฉันไม่อยาก	-9.73218
เราต้องการ	-9.73235
สบายดี	-9.73328
คําตอบ	-9.73375
แสน	-9.73487
เอาไป	-9.73488
够了	-9.7359
應該	-9.73684
และฉัน	-9.73686
คุณต้องการ	-9.73701
มีเวลา	-9.73731
没问题	-9.73731
第一次	-9.73732
研究	-9.73794
打开	-9.73857
๊อ	-9.73911
▁going	-9.73997
儿子	-9.74017
จี	-9.7406
แต่ผม	-9.74062
ล้าน	-9.74066
จะเอา	-9.74069
ํา	-9.74109
ถ้าฉัน	-9.7411
▁หนู	-9.74124
เหตุ	-9.74144
หก	-9.74221
我會	-9.74238
ไ	-9.74241
▁ลูก	-9.74305
媽	-9.74349
พ่อแม่	-9.74357
里的	-9.74362
解释	-9.74375
man	-9.74388
和他	-9.74451
ลอ	-9.74504
可能是	-9.74519
▁ho	-9.74524
板	-9.74559
ป้า	-9.74573
▁เราต้อง	-9.7464
各位	-9.74641
เป็นเพื่อน	-9.74663
感到	-9.74671
ภัย	-9.74702
昨晚	-9.74708
ออ	-9.74729
my	-9.74758
飞机	-9.74786
15	-9.74806
ราคา	-9.74807
No	-9.74826
อาร์	-9.74833
%	-9.7491
ตร	-9.74935
機	-9.75013
นอกจาก	-9.7503
目	-9.75123
惊	-9.75158
双	-9.75161
不该	-9.75165
很高兴	-9.75165
▁take	-9.75166
复	-9.75291
▁who	-9.753
ได้ไง	-9.7536
岛	-9.75391
เธอไม่	-9.75402
เป็นการ	-9.75435
ดัน	-9.75453
ในห้อง	-9.75461
▁been	-9.75477
ทําตัว	-9.75511
漂亮	-9.75522
ฝ่าย	-9.7553
ers	-9.75551
妮	-9.75597
▁good	-9.7563
▁ดู	-9.75686
ตรงนั้น	-9.75687
這裡	-9.75702
哪里	-9.75704
因为你	-9.75707
模	-9.75731
分钟	-9.7576
เอาละ	-9.75762
死亡	-9.75771
游	-9.75792
ก็ดี	-9.7582
เล็กๆ	-9.75912
醒	-9.75931
配	-9.75953
dy	-9.75954
หลบ	-9.75955
19	-9.75957
ท้อง	-9.75963
ฉันแค่	-9.75994
胡	-9.76002
มาหา	-9.76146
负责	-9.76162
贝	-9.76166
任	-9.76179
脱	-9.76301
抓住	-9.76471
แพ	-9.76472
ก็มี	-9.76516
กุ	-9.76517
แฮ	-9.76581
学校	-9.76655
聪明	-9.76664
ม่า	-9.7667
16	-9.76688
ا	-9.76771
词	-9.76781
the	-9.76786
กล	-9.76797
▁would	-9.76842
ว่าเธอ	-9.7689
หละ	-9.76922
น้องชาย	-9.76938
凯	-9.7695
露	-9.76981
ที่เธอ	-9.77003
	-9.77014
♪	-9.77022
进行	-9.7703
เผา	-9.77031
消息	-9.77068
ใจเย็น	-9.77073
▁พวกเรา	-9.77087
?"	-9.77116
เขาไม่	-9.77267
หายใจ	-9.77292
代表	-9.77307
จง	-9.77361
讓我	-9.77417
任务	-9.77422
ย่า	-9.77429
ไล	-9.77454
▁还有	-9.77469
▁7	-9.77473
นัด	-9.77487
为你	-9.77506
ดีขึ้น	-9.77508
pe	-9.77508
▁say	-9.77575
สัปดาห์	-9.7759
若	-9.776
星期	-9.7762
家伙	-9.77681
ي	-9.77702
▁ฉันก็	-9.77721
校	-9.77773
น้อง	-9.778
希	-9.77831
▁ที่จะ	-9.77838
都在	-9.77903
่น	-9.77959
紧	-9.78041
หลักฐาน	-9.78077
ag	-9.78114
ies	-9.78163
มากขึ้น	-9.7826
有多	-9.78264
ทีนี้	-9.78296
搬	-9.78308
并不	-9.78389
国王	-9.78444
个人	-9.78533
มั้ง	-9.78554
课	-9.78664
่อ	-9.78744
還是	-9.78796
อัล	-9.78871
	-9.78902
层	-9.78902
ร้า	-9.78903
我一直	-9.78918
est	-9.78964
开枪	-9.78985
end	-9.78986
忘了	-9.78987
ผมรู้	-9.78994
就算	-9.79012
ของมัน	-9.79016
ut	-9.7902
求你了	-9.79052
รวม	-9.79082
จิต	-9.79131
โยน	-9.79132
你真	-9.79156
成功	-9.79178
对吧	-9.79222
ตู้	-9.79248
是一个	-9.79269
แอบ	-9.79325
ปา	-9.79335
你没	-9.79377
ตอนนั้น	-9.7948
树	-9.79487
พัง	-9.79498
กระสุน	-9.795
กองทัพ	-9.79503
一位	-9.79517
秘密	-9.79576
อ่า	-9.79681
ด้วยนะ	-9.79695
重新	-9.79703
บอ	-9.7974
me	-9.7974
ion	-9.79774
กลิ่น	-9.79779
ess	-9.79799
เราไม่ได้	-9.79819
ay	-9.79852
คริส	-9.79922
▁That	-9.80023
เดอร์	-9.80041
บี้	-9.80062
▁对	-9.80083
鸡	-9.801
ul	-9.80111
มอ	-9.80128
พูดถูก	-9.80143
คุก	-9.80168
พูดกับ	-9.80186
欢迎	-9.80222
มันไม่ได้	-9.8026
男孩	-9.80296
▁如果	-9.80304
เธดเธ	-9.80322
關	-9.80337
群	-9.80345
ขอบคุณมาก	-9.80371
ทน	-9.80373
แน่ใจว่า	-9.80376
▁好吗	-9.80436
แถว	-9.80447
หลอก	-9.80475
曾经	-9.80487
镇	-9.80496
来说	-9.80507
▁因为	-9.8053
博	-9.80571
เเ	-9.80573
什么意思	-9.80671
政府	-9.80706
▁O	-9.80766
一定要	-9.8082
牛	-9.80822
在那	-9.80852
▁way	-9.80926
op	-9.81005
ฮิ	-9.81069
กษัตริย์	-9.8107
เช็ค	-9.8108
กล่อง	-9.81116
我看	-9.81133
见到	-9.81147
过了	-9.81186
菜	-9.81191
25	-9.81199
ฉันเอง	-9.81199
战争	-9.81199
伤害	-9.81268
นึก	-9.81289
ก่อ	-9.8129
หนีไป	-9.81328
通过	-9.81342
要求	-9.8135
we	-9.81402
▁our	-9.81422
唱	-9.81429
输	-9.81435
检查	-9.81441
完了	-9.81447
难道	-9.81509
呆	-9.81514
ไปถึง	-9.81538
ขอร้อง	-9.81602
各	-9.81614
ุ่ม	-9.81632
出了	-9.81693
เราไม่	-9.81706
去吧	-9.81731
业	-9.8177
足	-9.8177
有一个	-9.81782
的孩子	-9.81918
อะไรเลย	-9.8194
ให้มัน	-9.81958
之间	-9.81981
แน่ใจ	-9.82011
汉	-9.82038
เหยื่อ	-9.82048
好啊	-9.8207
่ม	-9.82141
骗	-9.82222
เธฒ	-9.82282
有没有	-9.82297
理解	-9.82301
哥哥	-9.82375
▁but	-9.82458
ฉันบอก	-9.82467
▁come	-9.8251
爸	-9.82516
ลม	-9.82559
ฟัน	-9.82567
这事	-9.82577
▁หยุด	-9.82615
พล	-9.82696
สม	-9.82704
ta	-9.82751
草	-9.83036
私	-9.83087
退	-9.83104
锁	-9.83156
คุณทํา	-9.83239
ยาว	-9.8324
▁ma	-9.83257
เขต	-9.83308
式	-9.83308
ผมอยาก	-9.83353
信任	-9.83355
▁请	-9.83384
哭	-9.8341
กล้อง	-9.83411
大概	-9.83425
产	-9.83484
国家	-9.83501
เท่าที่	-9.83505
▁off	-9.83592
其中	-9.83605
จากการ	-9.83679
ng	-9.8368
就这样	-9.83694
เอล	-9.83745
เสี่ยง	-9.83748
ไม่กี่	-9.83989
沃	-9.84035
อ๋อ	-9.84035
ไปเถอะ	-9.84047
ตึก	-9.84052
不再	-9.84052
存	-9.84093
讨厌	-9.8416
ผี	-9.84178
謝謝	-9.84228
务	-9.84253
มีชีวิต	-9.84274
试	-9.84285
纽约	-9.84288
那儿	-9.84313
มาเร็ว	-9.84319
土	-9.84361
ไม่ได้หรอก	-9.84363
มืด	-9.84374
源	-9.84409
ไมเคิล	-9.84413
บางครั้ง	-9.84433
ขน	-9.84438
故事	-9.84467
把她	-9.84491
照顾	-9.84546
知道了	-9.84584
▁co	-9.84585
滚	-9.84607
use	-9.84625
剧	-9.84787
ทรง	-9.84794
ack	-9.84847
我们需要	-9.84858
进入	-9.8486
時間	-9.84921
▁是啊	-9.85013
โรค	-9.85016
หู	-9.85017
第二	-9.85061
馬	-9.85078
年前	-9.85168
國	-9.85227
才是	-9.85277
另一	-9.85281
质	-9.85283
แต่คุณ	-9.85287
ต้องมี	-9.85295
贵	-9.85296
เธฅ	-9.85333
พิสูจน์	-9.85423
ell	-9.85547
เรามา	-9.85548
แวมไพร์	-9.85551
根本	-9.8567
คอน	-9.85689
เธฃ	-9.85693
ทราบ	-9.85712
轻	-9.85758
证明	-9.85766
▁ฉันไม่	-9.85804
归	-9.85806
的吗	-9.85859
▁不过	-9.85871
▁J	-9.85915
网	-9.85916
เป็นไง	-9.85919
คอร์	-9.85919
▁H	-9.85953
ยังไม่ได้	-9.85961
来这里	-9.85991
上了	-9.86007
还能	-9.86013
回答	-9.86047
烂	-9.86061
ค่อนข้าง	-9.86061
โรง	-9.86078
คนนึง	-9.86079
鸟	-9.86189
ค้นหา	-9.86277
蒙	-9.86293
โรงแรม	-9.86317
▁ั	-9.86393
ive	-9.86443
我猜	-9.8648
架	-9.86515
▁how	-9.86532
沙	-9.86543
治	-9.86562
帕	-9.86574
หิว	-9.86575
็ก	-9.8662
ผมได้	-9.86631
▁为什么	-9.86636
ช่วยฉัน	-9.86641
不在	-9.86701
เลวร้าย	-9.86881
พยายามจะ	-9.86896
▁8	-9.86929
升	-9.86961
หมดแล้ว	-9.87039
錢	-9.8709
▁make	-9.87099
ฟา	-9.87099
放弃	-9.87102
ภ	-9.87115
กับการ	-9.87132
脑	-9.87135
เปิดประตู	-9.87163
รึไง	-9.87209
เรน	-9.8721
戏	-9.87214
河	-9.8722
比赛	-9.8727
探	-9.87317
FF	-9.87347
▁没有	-9.87389
ท่า	-9.87434
ดูเหมือนว่า	-9.8744
วอ	-9.87443
一樣	-9.87455
炸	-9.87466
屋	-9.87508
ลล์	-9.87532
很抱歉	-9.8756
这件事	-9.87593
ฉันจะไป	-9.87608
多久	-9.87634
▁เอ	-9.87683
底	-9.87689
吸	-9.87727
医院	-9.87744
เลน	-9.87785
级	-9.87867
现	-9.87876
后面	-9.87902
ชิ้น	-9.8799
臭	-9.87999
对了	-9.8805
至	-9.8809
果	-9.88124
华	-9.8813
我真的	-9.8814
age	-9.88153
ดร	-9.88192
氣	-9.88261
▁ไม่เป็นไร	-9.8828
มันได้	-9.88305
英雄	-9.88393
糟糕	-9.88421
เรียนรู้	-9.8847
อาการ	-9.88503
ฉันเคย	-9.88591
ไม่นะ	-9.88595
เกาะ	-9.88598
决	-9.88626
ยึด	-9.88654
弟弟	-9.88656
让他们	-9.88671
หนึ่งใน	-9.8871
也没	-9.8872
刻	-9.88755
抱	-9.88783
撞	-9.88785
ation	-9.88798
มอบ	-9.88799
快走	-9.88853
co	-9.88889
ن	-9.88914
▁tell	-9.88926
ขอบคุณครับ	-9.89016
突然	-9.89051
ทอง	-9.89083
备	-9.89165
ไม่เอาน่า	-9.8918
▁had	-9.89205
干的	-9.89227
搞定	-9.89228
ha	-9.89305
จดหมาย	-9.89314
เป็นเด็ก	-9.89334
หรือว่า	-9.89378
奖	-9.89445
素	-9.89445
เขาไป	-9.89452
ของตัวเอง	-9.89473
杀死	-9.89532
ต้องการที่จะ	-9.89604
อย	-9.89681
多了	-9.89711
叫我	-9.89745
開始	-9.89848
手机	-9.89877
爆	-9.89894
รม	-9.89903
จูบ	-9.89954
▁你是	-9.89987
我很抱歉	-9.90005
ผมไม่รู้	-9.90034
▁th	-9.90054
รหัส	-9.90105
封	-9.90106
เดอะ	-9.90161
全部	-9.90162
จะพูด	-9.9019
That	-9.90215
监狱	-9.90244
นิ้ว	-9.90259
▁g	-9.90324
ต้องการให้	-9.90338
▁Yeah	-9.90342
เเต่	-9.90377
ฐาน	-9.90384
回来了	-9.90397
วาด	-9.90397
ไม่เข้าใจ	-9.90427
ine	-9.9049
借	-9.90492
猎	-9.90509
真相	-9.90514
้ว	-9.90526
ข้างนอก	-9.90556
▁คุณจะ	-9.90559
ฉันขอ	-9.90607
ษ	-9.9063
姑娘	-9.90644
แม่ง	-9.90664
รบ	-9.90666
真正的	-9.90675
是他	-9.90705
กร	-9.90722
的工作	-9.90771
冒	-9.90775
等着	-9.9078
城市	-9.90794
ทุกๆ	-9.90822
นิค	-9.90894
价	-9.90898
办公室	-9.90911
มาสิ	-9.90918
มีโอกาส	-9.91017
斗	-9.91033
ป้องกัน	-9.91046
將	-9.91046
เหอะ	-9.91065
然	-9.91095
進	-9.91137
▁ใคร	-9.9115
雅	-9.91181
ทั้งนั้น	-9.91223
除	-9.91298
我也是	-9.91308
大的	-9.91313
問	-9.91315
ู	-9.91469
真的吗	-9.91471
ลด	-9.91484
投	-9.91507
อ่อน	-9.91518
速	-9.9159
ฉันยัง	-9.91595
你想要	-9.91674
หัน	-9.91713
ความลับ	-9.91719
就可以	-9.91741
会有	-9.91839
ไม่ให้	-9.91848
โท	-9.9188
都有	-9.91923
แล้วไง	-9.9197
库	-9.91989
牙	-9.91991
ลบ	-9.92022
朝	-9.92128
	-9.92128
ซั	-9.922
商	-9.92243
境	-9.92254
止	-9.92258
刚刚	-9.92266
母亲	-9.92285
ให้นาย	-9.92317
พี	-9.92337
กว่านี้	-9.92396
列	-9.924
副	-9.924
洞	-9.924
烟	-9.924
沒事	-9.92428
ที่นาย	-9.92429
เดท	-9.92453
รุ	-9.92463
外面	-9.92503
赌	-9.92522
員	-9.92536
▁down	-9.92542
晚安	-9.92573
ก้น	-9.92622
怎么会	-9.92624
ของขวัญ	-9.92641
"-	-9.92643
เธอไป	-9.92645
ผมกําลัง	-9.92671
場	-9.92673
ขัง	-9.92673
หลาน	-9.92686
ผมขอ	-9.92699
แส	-9.92721
ผมขอโทษ	-9.9274
เนีย	-9.92766
埃	-9.9281
是個	-9.92862
都没	-9.92903
ก็เป็น	-9.92918
▁เรื่อง	-9.92924
办法	-9.92926
หมายความว่าไง	-9.92938
兹	-9.92947
ที่เป็น	-9.92949
丢	-9.9301
丁	-9.93062
你不会	-9.93068
ไว้ใจ	-9.93112
กัด	-9.93113
เนอร์	-9.93126
แก้ว	-9.93155
ล้ม	-9.93158
▁对吧	-9.93172
แต่ว่า	-9.93177
แช	-9.93179
33	-9.93189
家族	-9.93205
你来	-9.9327
这是什么	-9.93285
开心	-9.93335
ทําตาม	-9.93389
เบน	-9.93409
不懂	-9.93454
เธช	-9.93476
ทําแบบนั้น	-9.93507
▁等等	-9.93551
秒	-9.93631
;	-9.93634
ดีใจที่	-9.93674
เครื่องบิน	-9.93679
▁didn	-9.93705
ของการ	-9.93735
逼	-9.93766
พื้น	-9.93778
别担心	-9.93789
中心	-9.93798
พื้นที่	-9.93816
放下	-9.93829
不需要	-9.93854
แต่ถ้า	-9.93891
於	-9.93904
	-9.93911
箱	-9.9393
泰	-9.94003
家庭	-9.94011
主意	-9.94028
ตลอดเวลา	-9.94035
▁Oh	-9.9404
แท	-9.94067
ไม่ต้องห่วง	-9.94078
我认为	-9.94127
หิน	-9.94191
But	-9.94194
痛苦	-9.94194
终于	-9.94207
不太	-9.94212
ใช่แล้ว	-9.94219
九	-9.94327
เป็นแค่	-9.94334
เรื่องอะไร	-9.94354
我爱你	-9.94355
ล้อเล่น	-9.94359
เมอร์	-9.94377
11	-9.94403
▁你知道	-9.9441
ด้วยซ้ํา	-9.94417
我自己	-9.94421
記	-9.94459
เทพ	-9.94465
尸体	-9.94477
ข้อความ	-9.94477
กฎ	-9.94509
ฟังดู	-9.94527
ออกไปจาก	-9.9455
考虑	-9.94606
แก้	-9.94713
顶	-9.9474
อเมริกา	-9.94744
总统	-9.9475
ee	-9.94761
เนี่ยนะ	-9.94774
让她	-9.94802
Sam	-9.94831
作为	-9.94862
หลังจากที่	-9.94871
เหล้า	-9.94888
ear	-9.94902
思	-9.94916
▁con	-9.94923
pp	-9.94933
我们走	-9.94964
หน้าที่	-9.94989
เสนอ	-9.95025
▁อะไรนะ	-9.95026
เสื้อผ้า	-9.95034
我就是	-9.95066
孩子们	-9.95104
13	-9.95134
คุณไป	-9.95136
อิน	-9.95162
女儿	-9.95187
สเต	-9.95221
▁ตอน	-9.95246
เดี๋ยวก่อน	-9.95281
替	-9.95285
จําได้	-9.95352
ทุกวัน	-9.95368
ที่ต้อง	-9.95415
ต้องใช้	-9.95418
ถ้านาย	-9.95425
吻	-9.95445
บัตร	-9.95455
น่ากลัว	-9.95515
เขาก็	-9.95539
ฝัง	-9.95586
ภารกิจ	-9.95586
รถไฟ	-9.95682
แจ	-9.95716
电影	-9.95742
你这	-9.95744
望	-9.95826
导	-9.95848
那麼	-9.95852
per	-9.95853
หน	-9.95882
เช่นกัน	-9.95883
็น	-9.95889
แพ้	-9.95935
丹	-9.95964
▁look	-9.95971
异	-9.95997
ที่ดีที่สุด	-9.96005
จะฆ่า	-9.96077
ยาย	-9.96082
ว่าง	-9.96083
▁or	-9.96088
อย่ามา	-9.96091
注	-9.96094
สุ	-9.96102
มึง	-9.96123
还活着	-9.96145
惹	-9.9615
ครั้งแรก	-9.96151
เธงเน	-9.9617
給你	-9.96212
จะช่วย	-9.96213
話	-9.96234
所有人	-9.96322
ชัดเจน	-9.96323
很难	-9.96356
ตรงไหน	-9.96379
ดีใจ	-9.96391
เหรียญ	-9.96402
哪儿	-9.9645
นี่ไม่ใช่	-9.96573
แลนด์	-9.96584
克斯	-9.96655
不同	-9.9667
ชั่ว	-9.96702
ศัตรู	-9.96718
ผมเป็น	-9.96719
ep	-9.96741
说了	-9.96809
鲁	-9.9681
มีแต่	-9.96867
แซ	-9.96881
วางแผน	-9.96941
跟他	-9.9698
狂	-9.96998
ลงมา	-9.97
มอน	-9.97005
置	-9.97031
คุณรู้ว่า	-9.97049
um	-9.97066
未来	-9.97073
เป็นที่	-9.97093
回來	-9.97131
เขาได้	-9.97155
派对	-9.9723
หมาย	-9.9723
มาจากไหน	-9.97279
สวม	-9.97291
ยืนยัน	-9.97291
มาเถอะ	-9.97302
เวน	-9.97369
房间	-9.9738
ถอย	-9.97417
你以为	-9.9745
遇到	-9.9747
จีน	-9.97477
闻	-9.97523
咖啡	-9.97612
为何	-9.97631
扯	-9.9772
และก็	-9.97735
安排	-9.97787
แล้วคุณ	-9.97792
骨	-9.97793
เฮ้ย	-9.9781
结婚	-9.97816
▁就是	-9.97823
死的	-9.97844
ไม่ต้องการ	-9.97845
▁over	-9.97865
放在	-9.97973
กันเถอะ	-9.97979
元	-9.97986
▁ใช่ไหม	-9.97991
▁little	-9.98008
กาแฟ	-9.98016
น้องสาว	-9.98032
ด้า	-9.9804
航	-9.98128
เคน	-9.98146
在乎	-9.98169
เป็นคนที่	-9.98184
▁D	-9.98184
激	-9.98259
ป่วย	-9.98267
งี่เง่า	-9.98296
也会	-9.98299
证据	-9.98302
慢	-9.98306
ny	-9.98346
問題	-9.98362
▁man	-9.9838
ทําให้คุณ	-9.98389
โก้	-9.9839
▁thing	-9.98398
我希望	-9.98412
เธฅเน	-9.98424
酷	-9.98438
来自	-9.98454
มู	-9.98468
สวน	-9.98479
จอ	-9.98526
初	-9.98551
容	-9.98558
暗	-9.98569
Z	-9.98586
66	-9.98588
ออกมาจาก	-9.98707
ศาล	-9.9873
件事	-9.9877
▁r	-9.98778
ดาบ	-9.98785
เจค	-9.98815
เราไป	-9.98822
ปิ	-9.98823
80	-9.98851
我只	-9.98877
เมื่อคืน	-9.98886
กับเรา	-9.98906
จะบอก	-9.98958
计	-9.98975
เขามี	-9.99018
67	-9.99027
รั	-9.99112
他就	-9.99152
ขนาด	-9.99193
ขึ้นไป	-9.99293
观	-9.99306
猫	-9.99314
饿	-9.99314
理由	-9.99346
ค่อย	-9.99378
ได้ว่า	-9.99378
想想	-9.99381
角	-9.99408
ทุกอย่างที่	-9.99463
แผล	-9.99483
建	-9.99652
ast	-9.99664
可爱	-9.99671
หน่อยสิ	-9.99735
ปฏิเสธ	-9.99753
▁when	-9.99764
ถุง	-9.99774
类	-9.99811
▁ฉันรู้	-9.99831
ที่เหลือ	-9.99849
别的	-9.99867
bu	-9.99868
ค้น	-9.99884
拖	-9.999
加油	-9.99901
银行	-9.99919
▁love	-9.99962
疯了	-9.99982
ว่าทําไม	-10.0001
▁而且	-10.0007
是你的	-10.0009
วิธีที่	-10.001
ฉันรู้สึก	-10.0018
สาบาน	-10.0018
老兄	-10.0019
ัน	-10.0021
CE	-10.0025
▁by	-10.0027
▁mean	-10.003
测	-10.0031
降	-10.0033
▁something	-10.0034
่อน	-10.0036
▁ฮ	-10.0036
นายก็	-10.0038
带着	-10.0042
那是什么	-10.0042
那就是	-10.0043
我想要	-10.0043
di	-10.0046
票	-10.0048
简单	-10.0053
妈的	-10.0055
ไปยัง	-10.0056
糟	-10.0061
觉	-10.0061
ใครจะ	-10.0064
ไม่เอา	-10.0074
香	-10.0078
抽	-10.0079
ร่างกาย	-10.0079
昨天	-10.008
สะ	-10.008
โจมตี	-10.0087
เอาเลย	-10.0088
ที่ถูก	-10.0091
รู้เรื่อง	-10.0092
保证	-10.0092
透	-10.0093
没事的	-10.0094
แขน	-10.0095
设	-10.0095
▁So	-10.0098
饭	-10.0103
压	-10.0106
准	-10.0106
职	-10.0107
ฮัลโหล	-10.0108
硬	-10.0108
กําแพง	-10.0108
▁more	-10.0109
ช่อง	-10.0111
ไม่จําเป็นต้อง	-10.0115
人生	-10.0116
▁นี่มัน	-10.0117
คาร์	-10.0117
必	-10.012
绝	-10.0122
休	-10.0122
你去	-10.0125
ช่วยชีวิต	-10.013
เป็นพวก	-10.0133
ทั้งสอง	-10.0135
蠢	-10.0137
霍	-10.0138
โชว์	-10.0138
มุม	-10.014
มันเป็นเรื่อง	-10.0149
夠	-10.0153
恶魔	-10.0154
然後	-10.0154
老爸	-10.0157
社	-10.0157
听说	-10.0164
ดีน	-10.0164
▁เกิดอะไรขึ้น	-10.0166
众	-10.0167
อดีต	-10.0168
坐下	-10.0172
สงบ	-10.0176
幸	-10.018
สมควร	-10.0182
พอล	-10.0182
ภาษา	-10.0183
灯	-10.0183
ab	-10.0184
เฝ้า	-10.0184
杀人	-10.0188
伴	-10.0189
รร	-10.0191
家里	-10.0195
Mar	-10.0203
加入	-10.0204
伙计	-10.0213
效	-10.0217
ขนาดนั้น	-10.0222
是真的	-10.0228
號	-10.0228
地球	-10.0228
มักจะ	-10.0229
คิ	-10.0231
了嗎	-10.0232
สําเร็จ	-10.0236
不可	-10.0236
นี่แหละ	-10.0236
专	-10.0237
秀	-10.0243
ล็อค	-10.0256
ลาก	-10.0257
แค่นั้น	-10.026
出來	-10.0264
ถ้าเขา	-10.0268
วิล	-10.0269
ton	-10.0277
论	-10.0279
一只	-10.0285
宝	-10.0287
อาจารย์	-10.0288
凡	-10.0288
จําเป็นต้อง	-10.0289
试试	-10.0289
想到	-10.0292
你必须	-10.0293
一条	-10.0296
智	-10.0305
你需要	-10.0305
愿意	-10.0306
ในชีวิต	-10.0311
都没有	-10.0311
มันคืออะไร	-10.0317
答应	-10.0322
音乐	-10.0326
重要	-10.0326
父母	-10.0328
这一切	-10.0329
ฝ่าบาท	-10.0334
สถานการณ์	-10.0334
โย	-10.0334
ธรรมดา	-10.0334
ใ	-10.0342
ผมแค่	-10.0343
เธญ	-10.0346
โต๊ะ	-10.0347
พอดี	-10.0349
剑	-10.0349
รัฐ	-10.0349
更多	-10.0352
你为什么	-10.0354
我以为	-10.0358
大学	-10.0358
ทันที	-10.0361
โรงพยาบาล	-10.0361
ที่นี้	-10.037
เศร้า	-10.0375
vi	-10.0377
เวลาที่	-10.0382
สนาม	-10.0391
18	-10.0393
的女人	-10.0394
老婆	-10.0394
รางวัล	-10.0395
猜	-10.0399
อด	-10.0401
我们有	-10.0406
印	-10.0408
เวร	-10.0412
ก็ตาม	-10.0414
老师	-10.0416
ไหว	-10.0418
信号	-10.0419
ทําไมล่ะ	-10.0422
หัวเราะ	-10.0426
探员	-10.0427
ฉันไม่รู้ว่า	-10.043
ทั	-10.0432
摩	-10.0439
墙	-10.0441
款	-10.0441
▁อืม	-10.0441
ร่วมเพศ	-10.0441
old	-10.045
แน	-10.0451
说过	-10.0453
od	-10.0455
So	-10.0458
พึ่ง	-10.0459
▁sp	-10.0462
คลับ	-10.0467
住在	-10.0468
挑	-10.047
▁19	-10.0471
弱	-10.0472
微软雅黑	-10.0472
เอกสาร	-10.0472
支	-10.0474
你到底	-10.0475
ฉันอยากจะ	-10.0477
赢	-10.0478
ru	-10.0486
床	-10.0488
ต่ํา	-10.049
เซ็น	-10.0492
▁你要	-10.0494
些什么	-10.0495
บอกผม	-10.0496
▁15	-10.0497
▁วัน	-10.05
▁let	-10.0501
肯	-10.0501
ที่ผ่านมา	-10.0501
翻	-10.0502
服务	-10.0506
ราช	-10.0511
ไปซะ	-10.0511
ขอบคุณค่ะ	-10.0513
ต่อสู้	-10.0513
听起来	-10.0514
ไปดู	-10.0515
ระยะ	-10.0515
致	-10.0516
母	-10.0516
อํานาจ	-10.0517
我必须	-10.0519
พระองค์	-10.0519
别这样	-10.0519
可不是	-10.052
▁我不知道	-10.0523
ว่าเรา	-10.053
م	-10.0534
หลง	-10.054
เป็นห่วง	-10.0544
生意	-10.0547
นักสืบ	-10.0549
門	-10.0549
雇	-10.0549
姐姐	-10.0549
族	-10.055
สิ้น	-10.055
交易	-10.055
等我	-10.0556
那天	-10.0562
Dean	-10.0564
ل	-10.0565
▁ใช่มั้ย	-10.0571
刺	-10.058
ปีเตอร์	-10.0584
cHC	-10.0584
你真的	-10.0588
ni	-10.059
屁	-10.0594
ในที่สุด	-10.0597
ของท่าน	-10.0599
เลยว่า	-10.0607
短	-10.061
▁ซึ่ง	-10.061
▁嗨	-10.0614
ard	-10.0614
ง่ายๆ	-10.0617
ช่วยด้วย	-10.062
核	-10.0627
em	-10.0631
มาตลอด	-10.0633
Why	-10.0634
เลยล่ะ	-10.0636
ฉันมา	-10.0637
โอ้พระเจ้า	-10.0638
ish	-10.0642
曲	-10.0643
累	-10.0643
的时间	-10.0644
ลีย์	-10.0645
จะถูก	-10.0646
照片	-10.065
หัก	-10.0656
▁black	-10.0658
หลุม	-10.0658
吹	-10.0658
变得	-10.0664
暴	-10.067
แม้	-10.067
ผิว	-10.0674
醫生	-10.0675
你没事吧	-10.0682
แป	-10.0682
พวกเขากําลัง	-10.0686
笔	-10.0688
วิญญาณ	-10.0689
ชัก	-10.0695
完美	-10.0696
身边	-10.0697
▁โอ	-10.0697
ต้องการอะไร	-10.0704
บริสุทธิ์	-10.0706
ศูนย์	-10.0706
ตั้งใจ	-10.071
ให้ตายสิ	-10.0711
的问题	-10.0711
找你	-10.0712
คุณคง	-10.0717
瞧	-10.0721
「	-10.0721
พอแล้ว	-10.0723
目前	-10.0728
ดั	-10.0729
pos	-10.074
錯	-10.0744
婚	-10.0746
ca	-10.0751
琳	-10.0752
富	-10.0753
陛下	-10.0753
ff	-10.0758
约会	-10.0761
礼	-10.0762
ส่วนใหญ่	-10.0768
rial	-10.0768
时候	-10.0769
抢	-10.0769
圈	-10.0769
雨	-10.0769
เหล็ก	-10.0769
มันไป	-10.0772
ฉันสามารถ	-10.0773
จะไปไหน	-10.0776
ลําบาก	-10.0785
เคร	-10.0786
ดอล	-10.0788
再来	-10.0789
นึกว่า	-10.0789
นั่นไม่ใช่	-10.0793
发现了	-10.0794
ist	-10.0796
精神	-10.0796
แดง	-10.0798
了一个	-10.0798
电视	-10.0803
มาทําอะไรที่นี่	-10.0803
ค้า	-10.0805
事件	-10.0808
เป็นนัก	-10.0809
的朋友	-10.0814
我们能	-10.0815
她在	-10.0815
อุบัติเหตุ	-10.0817
BAR	-10.0818
คุณเคย	-10.0821
東西	-10.0823
使用	-10.0824
一场	-10.083
เราสามารถ	-10.0833
事实	-10.0834
ของแก	-10.0834
眼睛	-10.0844
Ro	-10.0845
น่าสนใจ	-10.0847
รัฐบาล	-10.0848
旧	-10.0849
律师	-10.0849
สถานี	-10.0849
คําพูด	-10.085
寻	-10.085
没有人	-10.0855
拥有	-10.0858
ก็ไม่ได้	-10.086
否则	-10.0865
3300}	-10.0865
你知道吗	-10.0865
不必	-10.0869
比如	-10.0869
的時候	-10.0874
เป็นยังไงบ้าง	-10.0875
静	-10.0876
ความผิด	-10.0878
คาด	-10.0882
เจาะ	-10.0882
สิ่งที่คุณ	-10.0882
我们必须	-10.0883
看到了	-10.0893
แนว	-10.0895
问你	-10.0898
ฉันไม่สามารถ	-10.0898
报告	-10.0899
▁But	-10.0905
น่ะสิ	-10.0907
欧	-10.0913
太棒了	-10.0914
ถอด	-10.0914
随便	-10.0914
ใครบางคน	-10.092
ดุ	-10.0928
ดอน	-10.0931
อนาคต	-10.094
困	-10.094
▁我也	-10.0944
营	-10.0945
ของพ่อ	-10.0947
▁ฉันคิดว่า	-10.0952
▁เร็วเข้า	-10.0954
▁12	-10.0957
▁30	-10.0959
ไม่หรอก	-10.096
ธนาคาร	-10.0961
三个	-10.0972
下面	-10.0972
ทําอย่างนั้น	-10.0973
优	-10.0978
附近	-10.0978
รองเท้า	-10.0978
的确	-10.0981
信息	-10.0983
你确定	-10.0988
告诉他	-10.0989
挂	-10.0994
แลน	-10.0996
โพ	-10.0999
再说	-10.0999
ถึงเวลา	-10.1
กําจัด	-10.1006
反正	-10.1008
攻击	-10.1011
像是	-10.1013
有一	-10.1013
你呢	-10.1019
是这样	-10.1024
ไปกับ	-10.1025
ประกาศ	-10.1026
โป	-10.1027
即使	-10.1028
号码	-10.1028
oo	-10.1031
เราจะไป	-10.1033
终	-10.1036
了我	-10.1037
园	-10.1041
撒	-10.1043
猪	-10.1043
瑟	-10.1043
ไข่	-10.1048
▁คุณต้อง	-10.1051
势	-10.1059
礼物	-10.1061
สังหาร	-10.1062
โอ้ว	-10.1063
เบล	-10.1063
ความตาย	-10.1067
ได้ยินเสียง	-10.1069
ฆาตกร	-10.1075
率	-10.1075
ปล้น	-10.1075
เทอร์	-10.1081
持	-10.1089
ยิ้ม	-10.1092
ดิน	-10.1096
ได้นะ	-10.1099
เหตุการณ์	-10.1099
จะหา	-10.11
▁那是	-10.11
นัง	-10.1104
離開	-10.1109
我把	-10.1112
แต่เขา	-10.112
แข่ง	-10.1121
施	-10.1125
報	-10.1125
สักหน่อย	-10.1125
tt	-10.1128
哥们	-10.1133
โห	-10.1134
เธอไม่ได้	-10.1137
คุณอยาก	-10.1138
คงต้อง	-10.1139
คือการ	-10.1139
记录	-10.1142
เราควร	-10.1142
ซาน	-10.1142
ท่อ	-10.1143
เอก	-10.1144
看上去	-10.1144
ฉันเข้าใจ	-10.1146
好嗎	-10.1151
ice	-10.1154
วั	-10.1156
	-10.1158
ด่วน	-10.1166
想象	-10.1166
带来	-10.1167
案子	-10.1168
เห็นว่า	-10.117
ma	-10.118
▁快点	-10.1181
เคยเป็น	-10.1182
เขากําลัง	-10.1189
บัญชี	-10.1191
上去	-10.1193
午	-10.1203
右	-10.1206
เรีย	-10.1206
▁people	-10.1207
▁แน่นอน	-10.1209
具	-10.1212
我还是	-10.1212
อบ	-10.1216
สภาพ	-10.1218
▁Do	-10.1222
ต้องเป็น	-10.1222
掉了	-10.1222
请你	-10.1229
根本不	-10.1229
ภาค	-10.1232
跟着	-10.1232
唯一	-10.1235
怎么做	-10.1235
▁โดย	-10.1238
แขก	-10.1241
妹妹	-10.1241
ออกไปจากที่นี่	-10.1241
比较	-10.1241
准备好	-10.1242
แห	-10.1246
一步	-10.1251
▁真的	-10.1253
起來	-10.1254
判	-10.1256
ฟ้า	-10.1257
搭	-10.1257
เหนื่อย	-10.1257
▁9	-10.126
ขอบคุณที่	-10.1261
ทั่ว	-10.1261
ทําไม่ได้	-10.1263
เธงเธ	-10.1266
感谢	-10.1271
นิด	-10.1272
左	-10.1272
成了	-10.1273
▁亲爱的	-10.1275
อะไรน่ะ	-10.1279
กับพวก	-10.128
为什么要	-10.1281
คัน	-10.1282
เกี่ยว	-10.1287
威胁	-10.1291
ผมทํา	-10.1291
▁ฉันไม่ได้	-10.1292
停止	-10.1292
oy	-10.1293
ค์	-10.1297
值得	-10.1299
你很	-10.1303
ke	-10.1304
ปาร์ตี้	-10.1305
休息	-10.1305
很棒	-10.1306
ชาร์ลี	-10.1306
免	-10.1306
เขาทํา	-10.1307
似乎	-10.1308
ชี	-10.131
开玩笑	-10.1312
ซะอีก	-10.1315
娘	-10.1317
▁pa	-10.1319
ant	-10.1323
و	-10.1324
สมัย	-10.1329
结束了	-10.1333
冷静	-10.1334
谢	-10.1338
麼	-10.1338
拯救	-10.1341
训练	-10.1341
เทร	-10.1342
ไม่มีวัน	-10.1342
ยกเว้น	-10.135
得很	-10.1351
的話	-10.1354
兩	-10.1356
ได้อย่างไร	-10.1358
硂	-10.1358
แก้ไข	-10.136
ยังอยู่	-10.1361
路上	-10.1361
ที่ได้	-10.1363
เธฐเธ	-10.137
เยี่ยมมาก	-10.1373
有关	-10.1378
เธฐ	-10.1387
Ca	-10.1387
nt	-10.1389
甲	-10.1392
停下	-10.1394
食物	-10.1394
▁St	-10.1398
發生	-10.1398
▁มันจะ	-10.1403
餐	-10.1405
怀	-10.1408
能不能	-10.1409
他要	-10.1412
คุณยัง	-10.1413
谋杀	-10.1421
เขาบอกว่า	-10.1421
ไปกัน	-10.1425
席	-10.1425
สวรรค์	-10.1425
桑	-10.1426
迫	-10.1426
達	-10.1426
FBI	-10.1426
一定会	-10.1426
ร้องไห้	-10.1426
开车	-10.1426
พี่น้อง	-10.1429
▁has	-10.143
ถ้างั้น	-10.1432
ทําไมไม่	-10.1433
ak	-10.1434
ip	-10.1434
สําหรับการ	-10.1436
合作	-10.1437
ใช่มั๊ย	-10.1438
考	-10.1438
你是谁	-10.1439
意义	-10.1444
พยายามที่จะ	-10.1446
ื่อ	-10.1447
ฮาร์	-10.1448
ไม่เชื่อ	-10.1451
wo	-10.1451
抓到	-10.1456
กด	-10.146
消	-10.146
當然	-10.146
nd	-10.146
กฎหมาย	-10.1466
เจ้านาย	-10.1467
อยากรู้	-10.1468
สุดๆ	-10.1469
เกียรติ	-10.1471
จะทํายังไง	-10.1472
คุณมา	-10.1472
ทําให้มัน	-10.1472
รุ่น	-10.1474
มิน	-10.1475
一直在	-10.1485
一家	-10.1486
▁是吗	-10.1488
หน้าต่าง	-10.1489
ทนาย	-10.1491
ปลอม	-10.1494
""?"	-10.1495
许	-10.1497
CF	-10.1501
拿着	-10.1503
ผมรู้ว่า	-10.1505
▁นี่คือ	-10.151
的名字	-10.1511
ธรรมชาติ	-10.1511
ลุกขึ้น	-10.1515
我对	-10.1516
一名	-10.1516
ได้สิ	-10.1519
另一个	-10.1524
คุณเห็น	-10.1525
道歉	-10.1528
也有	-10.1529
告訴我	-10.1529
อีกที	-10.1534
แต่ตอนนี้	-10.1536
▁Co	-10.1536
▁但我	-10.1544
คลา	-10.1545
想知道	-10.1545
熊	-10.1545
疼	-10.1545
简直	-10.1546
มันต้อง	-10.1546
แค่นี้	-10.155
▁ทุกคน	-10.1551
ไว้ใน	-10.1551
受伤	-10.1554
找不到	-10.1554
ลอย	-10.1555
โมง	-10.1555
易	-10.156
顾	-10.1561
ock	-10.1562
	-10.1562
救了	-10.1564
烦	-10.1572
给我们	-10.1578
Jane	-10.1579
媽媽	-10.158
AA	-10.1583
你父亲	-10.1584
ข้าว	-10.1589
最好的	-10.1589
棒	-10.1591
สน	-10.1592
ประกัน	-10.1595
必須	-10.1597
厉害	-10.1597
一點	-10.16
อะไรบางอย่าง	-10.16
的一切	-10.1601
ลูกค้า	-10.1603
但他	-10.1604
สืบ	-10.1605
ty	-10.1609
▁Ma	-10.161
มั	-10.1612
ก็รู้	-10.1613
刑	-10.1614
可能会	-10.1621
ที่ทําให้	-10.1621
老天	-10.1623
กล่าว	-10.1628
ติดตาม	-10.1628
你认为	-10.1634
ไปหน่อย	-10.1637
คุม	-10.1639
ขนาดนี้	-10.1644
เปอร์	-10.1646
禁	-10.1648
善	-10.1648
钥匙	-10.1649
ฟอ	-10.165
很久	-10.165
แปลว่า	-10.1652
กํา	-10.1652
ื้อ	-10.1652
เหล่านั้น	-10.1653
黑体	-10.1654
太多	-10.166
能够	-10.1661
永	-10.1663
หมายเลข	-10.1668
以為	-10.1674
ผมหมายถึง	-10.1675
ให้ดี	-10.1677
是吧	-10.1684
ไมค์	-10.1684
รายการ	-10.1684
HBE	-10.1685
司	-10.1688
▁Well	-10.1688
เกล	-10.1689
ธา	-10.1689
部分	-10.169
ฝาก	-10.1691
ลิง	-10.1697
ิล	-10.1697
อร่อย	-10.1701
หมู	-10.1702
提供	-10.1702
经	-10.1711
ช่วยเหลือ	-10.1712
po	-10.1714
▁kill	-10.1714
你已经	-10.1716
忘	-10.1716
疯	-10.1718
ไม่รู้จัก	-10.1719
808080}	-10.1719
遇	-10.172
不過	-10.1721
การ์	-10.1723
ใช้ชีวิต	-10.1724
ตัวตน	-10.1727
你知道我	-10.1727
40	-10.1728
ความสัมพันธ์	-10.1732
ผิดพลาด	-10.1733
ตัดสิน	-10.1733
见面	-10.1734
แต่เรา	-10.1735
—	-10.1735
将会	-10.1735
เธอได้	-10.1735
救命	-10.1743
轮	-10.1745
เธอกําลัง	-10.1749
的大	-10.175
知道吗	-10.1751
หลังจากนั้น	-10.1754
มีบางอย่าง	-10.1754
อาย	-10.1756
หน่ะ	-10.1758
去哪	-10.1761
不知	-10.1765
難	-10.1766
我才	-10.1767
你还好吗	-10.1767
也不会	-10.1767
ราชินี	-10.1771
uck	-10.1771
它的	-10.1774
真好	-10.1774
或是	-10.1778
原因	-10.1781
ซ้าย	-10.1783
ang	-10.1785
伙	-10.1786
欠	-10.1788
體	-10.1788
有很多	-10.1789
他们在	-10.1789
没法	-10.179
▁ชั่วโมง	-10.1795
依	-10.1805
ปรับ	-10.1812
เดา	-10.1812
自然	-10.1813
เดล	-10.1818
胜	-10.1821
วิเศษ	-10.1824
个月	-10.1826
不喜欢	-10.1832
ตรา	-10.1833
เช่นนั้น	-10.1834
ประหลาด	-10.1836
在那儿	-10.1837
沉	-10.1841
您的	-10.1844
以及	-10.1844
不对	-10.185
มาเลย	-10.1855
限	-10.1858
ขยะ	-10.186
战斗	-10.1861
这么多	-10.1862
งค์	-10.1863
▁j	-10.1863
我真	-10.1864
ประโยชน์	-10.1875
หยิบ	-10.1877
เธฑเน	-10.1877
讓你	-10.1885
ละคร	-10.1893
處	-10.1893
之一	-10.1893
คุณพูด	-10.1893
準備	-10.1894
▁never	-10.1895
住了	-10.1897
ไปกันเถอะ	-10.1899
有趣	-10.19
คร	-10.1904
狼	-10.1906
我相信	-10.1906
住手	-10.1907
60	-10.1907
ฆ่าเขา	-10.1909
令人	-10.191
▁บางที	-10.191
จะได้รับ	-10.1911
差不多	-10.1912
既然	-10.1912
▁当然	-10.1913
早就	-10.1914
地狱	-10.1915
和她	-10.1916
Re	-10.1916
อะไรบ้าง	-10.1917
ฉันเลย	-10.192
ทั้งคู่	-10.1923
ทอม	-10.1927
遗	-10.193
ت	-10.193
เอ๊ย	-10.1932
放松	-10.1933
▁U	-10.1935
听见	-10.1936
意思	-10.1938
ทั้งหมดที่	-10.194
的那个	-10.1941
ถูกจับ	-10.1942
息	-10.1942
医	-10.1943
ๆๆ	-10.1945
มาด้วย	-10.1946
ดอก	-10.1947
พวกเราจะ	-10.195
กันแล้ว	-10.1953
关心	-10.1954
็ท	-10.1955
เธฒเน	-10.1957
12\	-10.196
弟	-10.1963
▁呃	-10.1966
ไหล	-10.1967
ชู	-10.1967
นี้เป็น	-10.1969
เขาต้อง	-10.197
聚	-10.1971
命令	-10.1981
亮	-10.1983
康	-10.1983
มังกร	-10.1984
▁should	-10.1984
รบกวน	-10.1984
▁我不	-10.1985
每次	-10.1987
值	-10.1992
牢	-10.2
界	-10.2001
110}	-10.2002
ยุ	-10.2006
的原因	-10.2011
ผมไป	-10.2019
ซ่อม	-10.202
師	-10.202
支持	-10.202
โคร	-10.2021
อาจเป็น	-10.2021
犯罪	-10.2021
▁而	-10.2027
▁n	-10.2028
ทําไมคุณถึง	-10.2028
特工	-10.2029
วิธีการ	-10.2035
ever	-10.2035
忍	-10.2037
咬	-10.2038
属于	-10.2039
หอ	-10.2039
ขั้น	-10.2042
สาวๆ	-10.2044
บอกคุณ	-10.2046
過來	-10.2047
是对的	-10.205
ment	-10.2052
มีด	-10.2055
你怎么知道	-10.2056
▁really	-10.2057
等你	-10.2058
นั่งลง	-10.2062
我要去	-10.2063
ดีที่สุด	-10.2067
碎	-10.2073
ซ้ํา	-10.2074
เอเลน่า	-10.2074
ข้างล่าง	-10.2074
เลอร์	-10.2083
เดน	-10.2087
一定是	-10.2094
งานนี้	-10.2094
พร้อมกับ	-10.2095
我父亲	-10.2096
จริงๆแล้ว	-10.2097
甜	-10.2106
你说什么	-10.2106
เธอมี	-10.2106
รู้สึกว่า	-10.2108
ไปเอา	-10.211
อย่างอื่น	-10.211
ไม่ออก	-10.2114
到你	-10.2117
ตุ	-10.2119
你该	-10.212
ที่ไม่	-10.2124
เอ้ย	-10.2126
ก็คง	-10.2127
苦	-10.2127
傷	-10.2127
青	-10.2128
卷	-10.2128
สต์	-10.2131
给了	-10.2134
ไม่เป็น	-10.2135
เล็กน้อย	-10.2136
他们是	-10.2137
จอด	-10.2139
早上	-10.2142
เชื่อใจ	-10.2146
呼吸	-10.2146
吵	-10.2146
播	-10.2146
萬	-10.2146
หลุด	-10.2146
看过	-10.215
พนัน	-10.2166
เลว	-10.2166
睡觉	-10.2166
我们不能	-10.2167
移	-10.2173
วอล	-10.2175
缺	-10.2183
答案	-10.2184
一旦	-10.2185
เบร	-10.2186
หวาน	-10.2186
นม	-10.2187
น้ํามัน	-10.2187
วิส	-10.2195
错误	-10.2197
นาม	-10.2197
ity	-10.2199
监	-10.22
」	-10.2201
Elena	-10.2201
เอส	-10.2204
获	-10.2207
▁你就	-10.2207
นี่ไง	-10.2209
รับใช้	-10.221
麦克	-10.2211
船长	-10.2212
๊ด	-10.2221
多谢	-10.2222
卫	-10.2223
ทอด	-10.2223
告訴	-10.2224
一年	-10.2225
怪物	-10.2225
这家伙	-10.2226
็อก	-10.2228
ดีแล้ว	-10.2231
ทําไมถึง	-10.2232
มั่นใจ	-10.2237
ทรมาน	-10.2238
ฝีมือ	-10.2238
居然	-10.2238
▁เค้า	-10.2241
ผมชอบ	-10.2242
▁สิ่งที่	-10.2243
▁长官	-10.2246
除非	-10.225
แว	-10.2251
สําหรับคุณ	-10.2254
醉	-10.2256
กําหนด	-10.2256
聊	-10.226
▁into	-10.2263
ster	-10.2264
每个	-10.2268
了你	-10.227
一遍	-10.2271
ความฝัน	-10.2272
ถูกฆ่า	-10.2272
离开这里	-10.2273
so	-10.2276
เป็นไปไม่ได้	-10.2279
机器	-10.228
รอง	-10.2281
某	-10.2281
เราทํา	-10.2284
บอล	-10.2287
当我	-10.2289
為了	-10.229
我只是想	-10.2291
我要你	-10.2291
ถ้าผม	-10.2293
茶	-10.2293
ที่เกิดขึ้น	-10.2295
ow	-10.2295
就这么	-10.2297
ไก่	-10.2297
เห็นด้วย	-10.2311
ใครสักคน	-10.2312
ไปทาง	-10.2314
แต่เธอ	-10.2314
现场	-10.2316
真的很	-10.2316
正是	-10.2317
บุก	-10.2319
有可能	-10.2324
病人	-10.2325
มะ	-10.2327
摸	-10.233
途	-10.233
ละกัน	-10.2331
ลุก	-10.2332
如果我们	-10.2334
หาทาง	-10.2334
老大	-10.2335
ซะที	-10.2335
通知	-10.2337
จะกลับมา	-10.2337
▁แต่ฉัน	-10.2344
父	-10.2346
เสียใจด้วย	-10.2346
เพราะฉัน	-10.2347
面前	-10.2348
ซ้อม	-10.2349
利用	-10.2351
那时	-10.2356
เธข	-10.2358
意外	-10.2361
你最好	-10.2362
ฆ่าคน	-10.2363
签	-10.2365
ว่าผม	-10.2365
พยาบาล	-10.2367
赞	-10.2368
疯狂	-10.2368
ศึก	-10.2368
殺了	-10.2371
▁ro	-10.2373
."	-10.2381
ฝั่ง	-10.2385
盾	-10.2386
เคยเห็น	-10.2391
我们现在	-10.2393
要做	-10.2395
บอกอะไร	-10.2396
คุณดู	-10.2398
松	-10.2402
ไม่เหมือน	-10.2405
เธซเธ	-10.2406
พวกแก	-10.2408
高兴	-10.2409
凶手	-10.2411
ึง	-10.2411
實	-10.2413
亡	-10.2418
你還	-10.2419
ผมเห็น	-10.2421
เรายัง	-10.2421
	-10.2424
建议	-10.2424
他有	-10.2429
เจอร์	-10.243
ก็เลย	-10.2432
爆炸	-10.2435
▁am	-10.2437
lu	-10.2439
叫什么	-10.2441
电脑	-10.2444
她说	-10.2446
经历	-10.2447
de	-10.2448
新闻	-10.2449
มือถือ	-10.2451
ได้เห็น	-10.2451
น่ะเหรอ	-10.2453
展	-10.2454
ยุค	-10.2454
呼	-10.2455
อยู่ตรงนี้	-10.2455
▁只是	-10.2458
row	-10.2459
寄	-10.2461
Τ	-10.2461
独	-10.2476
อเมริกัน	-10.248
胸	-10.248
แบบว่า	-10.2484
▁dr	-10.2488
อย่าให้	-10.2489
แร	-10.249
อยู่นะ	-10.2492
To	-10.2494
▁จอห์น	-10.2494
หนา	-10.2499
สมาชิก	-10.2499
เป็นยังไง	-10.2499
ข้อตกลง	-10.2505
วู	-10.2505
活着	-10.2506
生气	-10.2511
我保证	-10.2512
red	-10.2514
我给你	-10.2518
เจ็ด	-10.2518
例	-10.2518
▁find	-10.2518
忘记	-10.2519
▁没错	-10.252
我跟	-10.2521
ว่าไงนะ	-10.2526
คุ	-10.2528
开门	-10.2528
这样做	-10.253
ห่วง	-10.253
ลอร์ด	-10.2534
还不	-10.2535
盘	-10.2535
เซีย	-10.2538
ไข	-10.2538
负	-10.2543
เปลี่ยนไป	-10.2551
也不是	-10.256
จ่า	-10.2564
ไปที่นั่น	-10.2568
动物	-10.257
幸运	-10.2576
▁先生	-10.2579
邊	-10.258
go	-10.2581
ลาก่อน	-10.2585
▁Hey	-10.2585
ฟรี	-10.259
女朋友	-10.259
能力	-10.2593
妇	-10.2594
烈	-10.2594
โธ่	-10.2596
因此	-10.2596
的车	-10.26
ลิส	-10.2601
種	-10.2603
เอามัน	-10.2605
เหรอคะ	-10.2606
นายคิดว่า	-10.2607
义	-10.2608
销	-10.2613
ph	-10.2614
▁okay	-10.2614
俩	-10.2614
▁กําลัง	-10.2615
ผมเคย	-10.2615
让人	-10.2616
แนะนํา	-10.2616
่ะ	-10.2617
กันเลย	-10.2618
ชวน	-10.262
อาจจะเป็น	-10.2624
伙计们	-10.2627
顺	-10.2629
▁Come	-10.2632
ลุย	-10.2632
今	-10.2633
เป็นตัว	-10.2638
▁sh	-10.264
side	-10.2641
ขาว	-10.2642
จะพา	-10.2646
我們的	-10.2646
一件事	-10.2649
戰	-10.2651
แหวน	-10.2653
Lo	-10.2654
สองสาม	-10.2658
เธก	-10.2658
เส้นทาง	-10.2664
创	-10.2667
戒	-10.2669
離	-10.2669
แต่มัน	-10.267
และตอนนี้	-10.2679
แล้วนี่	-10.2683
方法	-10.2683
▁De	-10.2683
act	-10.2686
这是我	-10.2687
怎么说	-10.2687
摆	-10.2689
ไปตาม	-10.2689
我只想	-10.269
上次	-10.269
ตัวเขา	-10.269
▁這	-10.2698
อีกต่อไป	-10.27
เลยเหรอ	-10.2704
ทีเดียว	-10.2705
去哪儿	-10.2708
隊	-10.2709
失踪	-10.2714
ล่อ	-10.2717
เธง	-10.2721
มากเกินไป	-10.2721
our	-10.2722
if	-10.2722
อยู่ตรงนั้น	-10.2728
ประวัติ	-10.2728
赫	-10.2728
屁股	-10.273
มันมา	-10.273
了我的	-10.2733
14\	-10.2734
人都	-10.2736
子弹	-10.2738
不是我	-10.2746
闪	-10.2746
ห้องน้ํา	-10.2747
挖	-10.2748
爽	-10.2748
08\	-10.2748
ไงล่ะ	-10.2749
▁ฟังนะ	-10.2752
▁ตอนที่	-10.2767
ในโลก	-10.2771
▁k	-10.2774
หลายปี	-10.2775
一般	-10.2775
นิ่ง	-10.2776
ner	-10.2778
16\	-10.2778
▁too	-10.2779
การ์ด	-10.2779
คนอื่นๆ	-10.278
พ้น	-10.2781
แถวนี้	-10.2789
ชัด	-10.2795
เธกเธ	-10.2798
祝	-10.28
▁work	-10.2802
變	-10.2802
經	-10.2804
บังคับ	-10.2805
埋	-10.2806
จําเป็น	-10.2809
也没有	-10.281
ไม่นาน	-10.2812
唯一的	-10.2814
酒吧	-10.2816
▁pro	-10.2819
ac	-10.2825
袭击	-10.2826
ทิศ	-10.2828
这里是	-10.2829
我儿子	-10.283
ในสิ่งที่	-10.2832
จํานวน	-10.2838
เจ้าจะ	-10.2844
▁ฉันต้อง	-10.2857
ประสาท	-10.2864
你是个	-10.2865
徒	-10.2866
ance	-10.2873
▁แซม	-10.2874
รู้ไหมว่า	-10.2875
ts	-10.288
幫	-10.2884
身体	-10.2884
追踪	-10.2884
เอามา	-10.2886
线索	-10.2887
เฉยๆ	-10.2888
▁ถ้าคุณ	-10.2892
กับมัน	-10.2895
ทํางานให้	-10.2896
▁ดร	-10.2899
求你	-10.2901
ขัด	-10.2903
现在就	-10.2905
▁对不起	-10.2905
艾米	-10.2909
ก้อน	-10.2914
แมว	-10.2914
而是	-10.2917
出来的	-10.2918
不准	-10.2921
供	-10.2922
怀疑	-10.2924
老板	-10.2928
我明白	-10.2933
๊ะ	-10.2934
ครั้งนี้	-10.2936
อ้า	-10.2938
就好	-10.2938
ห่า	-10.294
▁other	-10.2943
候	-10.2943
一份	-10.295
年轻	-10.295
วอน	-10.2951
快乐	-10.2951
消失	-10.2953
ดวง	-10.2954
誓	-10.296
ตื่นเต้น	-10.296
幾	-10.2961
症	-10.2963
Sheldon	-10.2963
กระดูก	-10.2963
的故事	-10.2964
ฉันไม่คิดว่า	-10.2965
▁doing	-10.2969
有事	-10.2972
มีลูก	-10.2974
杀了他	-10.2975
ฉันเสียใจ	-10.2978
▁มันก็	-10.2979
คิม	-10.2979
ของลูก	-10.2981
珍	-10.2982
插	-10.2983
ได้ดี	-10.2984
เดี๋ยวนะ	-10.2986
Yeah	-10.2988
首先	-10.299
ลด์	-10.2992
编	-10.3002
res	-10.3008
我看到	-10.301
Who	-10.301
ได้ผล	-10.3015
我们已经	-10.3015
你跟	-10.3016
สิทธิ	-10.3017
示	-10.3019
黄	-10.302
เกิดอะไรขึ้นกับ	-10.3021
เดวิด	-10.3022
หน่อยนะ	-10.3026
ซุ	-10.3031
สิ่งที่เกิดขึ้น	-10.3034
留在	-10.3037
你喜欢	-10.3039
拳	-10.3041
糖	-10.3042
สัมผัส	-10.3042
ในขณะที่	-10.3043
准备好了	-10.3043
她会	-10.3045
▁你好	-10.3049
มีชีวิตอยู่	-10.3055
17	-10.3056
你说的	-10.3058
ไม่สนใจ	-10.3058
ตกใจ	-10.3059
อีกคน	-10.306
內	-10.3062
ในเมือง	-10.3063
表现	-10.3064
ไม่น่า	-10.3065
识	-10.3071
ฝน	-10.3071
ผิดหวัง	-10.3075
ในตัว	-10.3077
景	-10.3082
居	-10.3082
佩	-10.3082
安静	-10.3085
ให้ข้า	-10.309
นานแค่ไหน	-10.309
确认	-10.3092
李	-10.3092
ชื่ออะไร	-10.3093
เป็นสิ่งที่	-10.3095
敌人	-10.3097
กลับไปที่	-10.3104
เธอทํา	-10.3107
尸	-10.311
待在	-10.3113
的意思	-10.3114
规	-10.312
原来	-10.3121
尿	-10.3122
滑	-10.3122
▁help	-10.3122
如果他	-10.3123
妻子	-10.3127
站在	-10.3129
เรื่องราว	-10.3131
▁ผมก็	-10.3132
ud	-10.3132
坐在	-10.3135
อะไรล่ะ	-10.3135
ในช่วง	-10.3138
ไปหมด	-10.3138
ดูดี	-10.3139
婊子	-10.3143
ย้อน	-10.3143
เชอร์	-10.3144
黑暗	-10.3144
ดับ	-10.3145
▁ไม่ต้อง	-10.3147
กันแน่	-10.3148
你又	-10.3152
คู	-10.3152
生日	-10.3153
ting	-10.3154
มีค่า	-10.3156
功	-10.3158
微	-10.3161
กาย	-10.3162
My	-10.3163
เเค่	-10.3163
公寓	-10.3163
ธิ	-10.3166
别动	-10.3167
j	-10.3168
你看到	-10.3168
不如	-10.3172
คุณอยู่	-10.3176
充	-10.3182
监视	-10.3184
是誰	-10.3185
文件	-10.3187
我应该	-10.3189
ยิ่งใหญ่	-10.319
我刚	-10.319
▁ตกลง	-10.3194
给她	-10.3194
มิส	-10.3195
มาช่วย	-10.3195
ใจเย็นๆ	-10.3199
争	-10.32
ว่านาย	-10.3201
▁ช่วย	-10.3201
電	-10.3202
หมวก	-10.3203
่ว	-10.3204
另外	-10.3204
พร	-10.3208
มาเป็น	-10.3208
sh	-10.3218
เรื่อย	-10.3222
对于	-10.3222
ไปจาก	-10.3223
良	-10.3223
丈夫	-10.3223
补	-10.3223
泡	-10.3223
逮捕	-10.3223
显然	-10.3224
อู	-10.3225
下次	-10.3228
เตียง	-10.3231
凶	-10.3237
真实	-10.3238
事实上	-10.3239
幹	-10.324
必要	-10.3242
ê	-10.3244
杜	-10.3244
幹嘛	-10.3245
งี้	-10.3248
▁มันไม่	-10.325
受到	-10.3252
ฉันคิด	-10.3255
หนาว	-10.3256
还没有	-10.3257
ฉันคง	-10.3258
จุ	-10.3259
身份	-10.326
樂	-10.3261
พิษ	-10.3262
อยู่ด้วยกัน	-10.3263
窗	-10.3264
ประเด็น	-10.3264
▁life	-10.3264
宁	-10.3264
看着我	-10.3265
แปลกๆ	-10.3267
那个人	-10.3269
▁伙计	-10.3269
公主	-10.3271
พยาน	-10.3276
ก่อนนะ	-10.3277
ผมเอง	-10.3279
ake	-10.3279
ฉันต้องไป	-10.3282
粉	-10.3284
เราน่าจะ	-10.3284
แทบ	-10.3288
安娜	-10.3289
魔法	-10.3289
來了	-10.329
我们应该	-10.3292
查理	-10.3292
▁抱歉	-10.3295
จริงๆนะ	-10.3301
方向	-10.3301
เขาต้องการ	-10.3301
der	-10.3302
纸	-10.3304
耳	-10.3305
買	-10.3305
版	-10.3305
แบ่ง	-10.3308
第一个	-10.3317
電話	-10.3321
ช่าย	-10.3325
สนับสนุน	-10.3325
村	-10.3325
rn	-10.334
▁พอ	-10.3344
ในนี้	-10.3347
▁ไม่มีใคร	-10.3348
โต้	-10.3352
▁เขาจะ	-10.3359
▁สวัสดี	-10.336
ไม่ถึง	-10.3361
你是说	-10.3362
威尔	-10.3364
他是个	-10.3365
这是个	-10.3367
无论	-10.3369
▁This	-10.337
อย่าไป	-10.3378
ผมมา	-10.3382
恐怖	-10.3387
ไร้สาระ	-10.3387
▁again	-10.3387
叔叔	-10.3387
灰	-10.3387
對不起	-10.3389
接近	-10.3391
我该	-10.3391
也許	-10.3394
และฉันก็	-10.3394
用的	-10.3394
了个	-10.3397
▁ไม่มีอะไร	-10.3401
▁怎么了	-10.3402
ทดสอบ	-10.3403
妙	-10.3406
▁ดังนั้น	-10.3406
我了	-10.3406
are	-10.3409
赶紧	-10.3409
警探	-10.3409
毁了	-10.3417
มองเห็น	-10.3418
ครั้งสุดท้าย	-10.3419
ขอโทษครับ	-10.342
你會	-10.3421
ไปให้	-10.3421
ตามล่า	-10.3423
แน่น	-10.3427
什麽	-10.3429
ต้นไม้	-10.343
警告	-10.3431
▁ยัง	-10.3437
ราว	-10.3441
เขาเป็นคน	-10.3447
ผมจะไป	-10.3448
当你	-10.3448
ฆาตกรรม	-10.345
跟她	-10.3452
都不知道	-10.3453
情报	-10.3456
ผู้นํา	-10.346
สายตา	-10.3462
เร็วๆ	-10.3463
มันเกิดขึ้น	-10.3467
200	-10.3469
掌	-10.3469
ไต	-10.347
ยักษ์	-10.347
瓶	-10.347
承认	-10.347
Dan	-10.3472
严重	-10.3472
ลาร์	-10.3473
จม	-10.3475
这些人	-10.3485
ลัก	-10.3487
มาดู	-10.3489
悲	-10.3489
▁She	-10.349
敬	-10.3491
虫	-10.3491
垃圾	-10.3491
軍	-10.3491
ร่วมกัน	-10.3491
恐怕	-10.3491
樣	-10.3492
每天	-10.3492
ผ่านไป	-10.3494
นั่นคือสิ่งที่	-10.3499
เธอมา	-10.3502
ace	-10.3504
记住	-10.3506
▁where	-10.3509
แล้วกัน	-10.351
لا	-10.3511
典	-10.3511
นาฬิกา	-10.3512
	-10.3512
▁said	-10.3512
เธฃเธ	-10.3514
酒店	-10.3515
ลงมือ	-10.3517
那不是	-10.352
干掉	-10.3521
ไม่มีเวลา	-10.3522
เปลี่ยนแปลง	-10.3522
更好	-10.3524
▁hell	-10.3525
ฟังฉัน	-10.3527
หยุดนะ	-10.3529
บางสิ่ง	-10.353
钟	-10.353
算是	-10.3531
สุภาพบุรุษ	-10.3533
คุณควร	-10.3533
เราอยู่	-10.3535
unt	-10.3536
ยกเลิก	-10.3537
การแสดง	-10.3537
ure	-10.3537
ัว	-10.3537
กับนาย	-10.354
吃了	-10.3541
คุณจะต้อง	-10.3543
你就是	-10.3543
เหมือนเดิม	-10.3547
段	-10.3552
潜	-10.3554
很快	-10.3557
ข้างใน	-10.356
เหล่า	-10.3567
▁เกี่ยวกับ	-10.3567
ครับท่าน	-10.3571
议	-10.3573
围	-10.3573
試	-10.3574
▁V	-10.3575
ค้าง	-10.3576
Come	-10.3576
ล้อ	-10.358
บ้างไหม	-10.3581
坏了	-10.3582
ว่าอะไร	-10.3582
▁car	-10.3584
太空	-10.3584
Al	-10.3593
ti	-10.3594
และคุณ	-10.3595
巨	-10.3596
可不	-10.3597
สวยงาม	-10.3597
这个人	-10.3598
ผมไม่อยาก	-10.3601
不像	-10.3603
鞋	-10.3604
ชั่น	-10.3606
为什么不	-10.3606
โว	-10.3607
在找	-10.3609
▁你在	-10.3609
▁gr	-10.3611
บริ	-10.3611
นักโทษ	-10.3612
项	-10.3612
吐	-10.3617
ในฐานะ	-10.3617
ถอน	-10.3617
มั่ง	-10.3618
就是这样	-10.3619
14	-10.3625
หล่อ	-10.3625
ผิดปกติ	-10.3627
มั่นใจว่า	-10.3629
ท้าย	-10.363
ว่าเป็น	-10.3634
把你的	-10.3636
学生	-10.3637
找个	-10.3637
อเล็กซ์	-10.3638
羅	-10.3638
วิทยุ	-10.3638
รัสเซีย	-10.3638
要我	-10.3639
ทีวี	-10.364
很大	-10.3642
▁than	-10.3644
่อง	-10.3645
这就	-10.3646
แปด	-10.3648
ba	-10.3649
我一	-10.3653
100	-10.3653
表演	-10.3654
มันอาจจะ	-10.3654
▁ตั้งแต่	-10.3655
出来了	-10.3656
拜	-10.3657
我从	-10.3658
บิล	-10.3658
容易	-10.3659
再次	-10.3659
เผื่อ	-10.3659
端	-10.3659
เจมส์	-10.3659
หุ่น	-10.3662
面对	-10.3663
คลื่น	-10.3665
คุณนาย	-10.3668
明白吗	-10.3672
๊ค	-10.3672
我们去	-10.3673
อย่าทํา	-10.3677
夏	-10.3679
อวกาศ	-10.368
韦	-10.368
意味着	-10.368
影响	-10.3681
的男人	-10.3685
我吗	-10.3689
เข้าใจไหม	-10.3689
ทุ่ม	-10.369
军队	-10.3692
แฮม	-10.3693
โชค	-10.3698
▁give	-10.3704
พวกเจ้า	-10.3704
接下来	-10.3708
ปู่	-10.3709
ยุ่งกับ	-10.3715
你把	-10.3716
เจ้าชาย	-10.3716
不去	-10.3717
我家	-10.372
ของพวก	-10.3721
爬	-10.3723
谷	-10.3723
所以你	-10.3724
สเตฟาน	-10.3724
百万	-10.3727
Jack	-10.3731
ขอโทษด้วย	-10.3734
คุณช่วย	-10.3735
第三	-10.3739
วันเกิด	-10.374
ฉันเพิ่ง	-10.3741
环	-10.3744
生物	-10.3744
▁我在	-10.3745
gg	-10.3747
▁別	-10.3747
邀请	-10.3748
天使	-10.3751
อ้าง	-10.3754
麻	-10.3755
尼克	-10.3756
ที่จริง	-10.3759
๊า	-10.3763
浪	-10.3765
ฉุกเฉิน	-10.3766
湖	-10.3766
ไม่ใช่เหรอ	-10.3766
แม่มด	-10.3766
慢慢	-10.3766
▁two	-10.3767
รูปแบบ	-10.3768
เกี่ยวกับการ	-10.3769
วัด	-10.377
สุข	-10.3775
说你	-10.378
og	-10.3781
ลี่ย์	-10.3784
征	-10.3787
	-10.3787
คุณคิด	-10.3788
并且	-10.3788
พิธี	-10.3788
每个人都	-10.3794
แผนที่	-10.3794
很重要	-10.3798
ปวด	-10.3808
條	-10.3809
•	-10.3809
稱	-10.3809
▁even	-10.3809
我需要你	-10.3813
สั้น	-10.3816
的钱	-10.3819
从未	-10.3819
ด้วยการ	-10.3829
▁call	-10.383
ดนตรี	-10.383
槍	-10.383
羊	-10.383
ขวบ	-10.383
ฉันพูด	-10.3832
hi	-10.3834
▁宝贝	-10.3835
ปลาย	-10.3835
cHF	-10.3841
500	-10.3841
我以前	-10.3843
▁拜托	-10.3844
บอกเธอ	-10.3846
แวน	-10.3851
ใต้ดิน	-10.3851
宾	-10.3852
失败	-10.3853
声音	-10.3854
ah	-10.3856
นักเรียน	-10.386
เล่ม	-10.3861
ให้พวกเขา	-10.3863
了他	-10.3865
บาดเจ็บ	-10.3866
你这个	-10.3868
你对	-10.3875
ถอยไป	-10.3878
ขอโทษที	-10.3878
ผู้ชายที่	-10.388
你没有	-10.3883
เสียเวลา	-10.3883
行为	-10.3884
都要	-10.3886
าะ	-10.3886
▁only	-10.3887
มาได้	-10.3887
ยอง	-10.3889
不一样	-10.389
จะเริ่ม	-10.389
得了	-10.3893
คี	-10.3894
ทอ	-10.3895
ฟื้น	-10.3895
	-10.3895
失望	-10.3897
把他们	-10.39
ผู้หญิงที่	-10.3906
รก	-10.3907
ลัง	-10.3912
▁我可以	-10.3913
คําว่า	-10.3913
Do	-10.3914
ช่วยคุณ	-10.3916
像你	-10.3917
应该是	-10.3921
Wh	-10.3924
สวัสดีครับ	-10.3925
的那	-10.3926
▁คนที่	-10.393
会被	-10.393
do	-10.3933
นายทํา	-10.3936
อรุณสวัสดิ์	-10.3939
仍然	-10.3939
▁much	-10.3939
เบียร์	-10.394
ถึงจะ	-10.3945
แต่ละ	-10.3948
点儿	-10.3953
见到你	-10.3955
哪个	-10.3955
▁เอาล่ะ	-10.3956
避	-10.3959
迹	-10.3959
▁เปล่า	-10.3959
余	-10.3961
带走	-10.3963
เสียชีวิต	-10.3964
เปล	-10.3965
ร้องเพลง	-10.3966
การต่อสู้	-10.3966
感覺	-10.3966
ฉันอยู่	-10.3968
几天	-10.3973
บอกมา	-10.3978
武	-10.398
镜	-10.3981
察	-10.3981
พันธุ์	-10.3982
จนกระทั่ง	-10.3983
วาย	-10.3983
พอจะ	-10.3985
โคตร	-10.3985
跟踪	-10.3986
你不知道	-10.3986
ไปเร็ว	-10.3987
ลูกรัก	-10.3993
别再	-10.3994
只是个	-10.3995
标	-10.3999
ชี้	-10.4002
ต้อนรับ	-10.4004
เสร็จแล้ว	-10.4007
เดอ	-10.401
ass	-10.4012
句	-10.4014
คุณเป็นใคร	-10.4017
เราทุกคน	-10.4018
เชื้อ	-10.4025
ทําไมคุณไม่	-10.4026
ตระกูล	-10.4026
นั้นแหละ	-10.4027
ดูซิ	-10.4027
教授	-10.4027
แม้ว่า	-10.4028
你都	-10.4028
ถ้าหาก	-10.403
▁every	-10.4031
พายุ	-10.4032
ครบ	-10.4033
后来	-10.4034
▁ขอบใจ	-10.4034
遭	-10.4035
เราจะได้	-10.4041
เคล	-10.4043
我做	-10.4043
up	-10.4043
คนไข้	-10.4043
这是我的	-10.4044
เป็นแบบนี้	-10.4047
喜	-10.4047
การณ์	-10.4048
略	-10.4048
รวย	-10.4049
▁sorry	-10.4049
立刻	-10.4049
โปร	-10.405
อีกอย่าง	-10.4051
les	-10.4052
方式	-10.4054
ฆ่าฉัน	-10.4055
จังเลย	-10.4058
脏	-10.406
ในบ้าน	-10.4065
เคยได้ยิน	-10.4066
กฏ	-10.4068
เดินไป	-10.4069
▁我只是	-10.407
แกล้ง	-10.407
ฉันหวังว่า	-10.4074
我被	-10.4076
ปฏิบัติ	-10.4076
跟我说	-10.4076
▁มานี่	-10.4078
งาม	-10.408
▁ฉันว่า	-10.4083
ฉันรัก	-10.4087
mi	-10.4087
在這	-10.4089
很有	-10.4091
▁Let	-10.4092
戈	-10.4093
挡	-10.4093
的家伙	-10.4093
有意思	-10.4099
英里	-10.41
警长	-10.4101
▁day	-10.4101
▁e	-10.4107
王子	-10.4109
น้ําแข็ง	-10.4111
ally	-10.4113
ผู้ที่	-10.4114
在這裡	-10.4116
反应	-10.4117
ตน	-10.4119
ฉลอง	-10.412
รายชื่อ	-10.4121
คุ้มกัน	-10.4122
全都	-10.4123
發現	-10.4125
▁ล้าน	-10.4126
马上就	-10.4128
我很好	-10.413
ไบ	-10.4131
งั้นหรอ	-10.4131
严	-10.4134
อังกฤษ	-10.4136
ฯ	-10.4137
ภูเขา	-10.4137
幸福	-10.414
เร่ง	-10.4147
บอกเขา	-10.4149
จากไป	-10.415
กั	-10.4151
ตูด	-10.4152
ริน	-10.4154
主人	-10.4157
打扰	-10.4157
ของพวกเรา	-10.4157
突	-10.4158
摇	-10.4159
胆	-10.4159
ไม่ใช่คน	-10.4159
เจ็บปวด	-10.4161
知道你	-10.4162
方面	-10.4163
บาย	-10.4164
▁Okay	-10.4165
ug	-10.4171
它是	-10.4171
没事了	-10.4176
朗	-10.418
我的朋友	-10.4181
X	-10.4182
ผูก	-10.4182
ภายใต้	-10.4182
扎	-10.4182
豆	-10.4182
软	-10.4182
ประวัติศาสตร์	-10.4182
明白了	-10.4182
tor	-10.4182
肯定是	-10.4183
She	-10.4184
提醒	-10.4185
แกน	-10.4185
โคล	-10.4186
ไอ้หนู	-10.4189
人员	-10.4192
ิง	-10.4193
辆	-10.4195
น้า	-10.4196
▁talk	-10.42
คม	-10.4203
	-10.4204
闹	-10.4204
คอมพิวเตอร์	-10.4204
奶奶	-10.4204
ั่น	-10.4205
แข็ง	-10.4207
นิส	-10.4208
ue	-10.4214
码	-10.4217
▁sc	-10.4218
กลับมาแล้ว	-10.4219
苏	-10.4225
默	-10.4226
裝	-10.4226
บุคคล	-10.4226
包括	-10.4226
มันคง	-10.4227
but	-10.4227
พุ	-10.4228
▁噢	-10.4228
▁เรามี	-10.423
หมอนี่	-10.4231
เรอะ	-10.4233
เซล	-10.4234
St	-10.4238
มื้อ	-10.4239
爱你	-10.424
low	-10.4244
ทุน	-10.4245
▁ไม่นะ	-10.4252
ลีน	-10.4258
头发	-10.4259
▁如果你	-10.4263
感受	-10.4266
灭	-10.4271
练	-10.4271
奈	-10.4271
尚	-10.4271
耍	-10.4271
蜜	-10.4271
录	-10.4274
พิมพ์	-10.4276
ยาง	-10.4277
จิม	-10.4282
跟你说	-10.4286
ach	-10.4286
ผมไม่เคย	-10.4286
เดียวกับ	-10.4287
针	-10.4294
陆	-10.4294
ตายไปแล้ว	-10.4296
โอเคไหม	-10.4297
แต่งงานกับ	-10.4301
ไม่ได้เป็น	-10.4301
สต	-10.4305
等待	-10.4306
梦想	-10.4308
ful	-10.4309
คุณก็รู้	-10.4309
则	-10.4316
妞	-10.4316
姓	-10.4316
载	-10.4316
希望你	-10.4317
เธซเน	-10.4321
味道	-10.4321
นิว	-10.4321
我可不	-10.4324
ทีหลัง	-10.4324
ผมเข้าใจ	-10.4325
ทู	-10.4331
一会儿	-10.4334
拿走	-10.4335
皇	-10.4336
据	-10.4336
紧张	-10.4339
的女孩	-10.4342
▁ถึง	-10.4343
婚礼	-10.4347
但我们	-10.4347
ทั้งวัน	-10.4348
抗	-10.4349
看到你	-10.4354
How	-10.4355
และผม	-10.4356
ight	-10.4357
行了	-10.4357
仍	-10.4361
art	-10.4361
Michael	-10.4362
你在说什么	-10.4362
ครัว	-10.4364
เรื่องการ	-10.4365
ด้วยเหรอ	-10.4369
เฉพาะ	-10.4381
出发	-10.4382
偶	-10.4385
惨	-10.4385
หายตัวไป	-10.4385
ยอมให้	-10.4386
ดอกไม้	-10.4386
ฉันนะ	-10.4386
ฮัน	-10.4388
Oh	-10.4388
享受	-10.4389
中国	-10.4389
找到他	-10.439
ที่สําคัญ	-10.4393
เรากําลังจะ	-10.4394
อย่าเพิ่ง	-10.4395
mm	-10.4397
有时候	-10.44
这位	-10.4401
ฝูง	-10.4408
竟然	-10.4408
gu	-10.4409
拒绝	-10.4409
是什么意思	-10.4411
▁why	-10.4412
โอเคมั้ย	-10.4415
▁มีอะไร	-10.442
คุณคือ	-10.4424
แหม	-10.4426
堡	-10.4429
ทําให้เขา	-10.443
省	-10.443
สินค้า	-10.443
ไม่ว่าจะ	-10.4431
บรร	-10.4432
มีเหตุผล	-10.4433
แล้วเจอกัน	-10.4433
เกี่ยวข้อง	-10.4434
เมื่อคุณ	-10.444
ยอดเยี่ยม	-10.4443
มันไว้	-10.4449
คุณบอกว่า	-10.445
我所	-10.445
做的事	-10.4453
Leonard	-10.4453
亞	-10.4453
鼓	-10.4453
ตะวันออก	-10.4453
จบลง	-10.4453
▁18	-10.4454
▁any	-10.4454
เหมือนที่	-10.4455
经常	-10.4457
สิง	-10.446
我是个	-10.4463
ว่าใคร	-10.4463
剩	-10.4471
แทง	-10.4472
交给	-10.4472
造成	-10.4475
章	-10.4475
สงสัยว่า	-10.4475
談	-10.4476
John	-10.4476
計	-10.4476
隆	-10.4476
แม็กซ์	-10.4477
▁years	-10.4484
ถ้ามัน	-10.4484
คิว	-10.4485
รุนแรง	-10.449
ด้วยตัวเอง	-10.4492
21	-10.4495
一张	-10.4496
▁ฉันแค่	-10.4496
Hi	-10.4498
季	-10.4499
毫	-10.45
跳舞	-10.4502
สําหรับฉัน	-10.4504
事儿	-10.4506
บริการ	-10.4511
เชล	-10.4513
▁是我	-10.4516
อะไรเหรอ	-10.4517
เขามา	-10.4518
ใช้มัน	-10.4519
▁เด	-10.4521
劲	-10.4522
้ด	-10.4522
ญาติ	-10.4523
擔心	-10.4523
ความช่วยเหลือ	-10.4524
有了	-10.4524
มีความหมาย	-10.4527
คุณอาจจะ	-10.4532
真正	-10.4535
คิดจะ	-10.4542
馆	-10.4545
讨论	-10.4546
記得	-10.4547
เราเป็น	-10.4549
ted	-10.4549
โดด	-10.4552
able	-10.4553
实在	-10.4554
不明白	-10.4555
กริ	-10.4561
สอบ	-10.4561
▁dis	-10.4564
许多	-10.4564
废	-10.4567
ขุด	-10.4569
欲	-10.4569
สรุป	-10.4569
收拾	-10.4569
▁still	-10.4569
พร้อมแล้ว	-10.4569
警官	-10.4571
▁是吧	-10.4573
同时	-10.4575
ยัย	-10.4576
ี่	-10.4577
做出	-10.4578
สตาร์ค	-10.4582
ไม่ได้นะ	-10.4588
财	-10.4592
พิจารณา	-10.4592
亿	-10.4592
ความทรงจํา	-10.4592
白痴	-10.4592
หมาป่า	-10.4594
法律	-10.4594
从没	-10.4596
認為	-10.4599
สวยมาก	-10.46
▁ฉันขอโทษ	-10.4604
不介意	-10.4605
เมืองนี้	-10.4607
เมน	-10.4614
แพทย์	-10.4615
เหี้ย	-10.4616
ยั	-10.4618
彼得	-10.4618
จนถึง	-10.4618
Don	-10.4621
下午	-10.4621
▁อี	-10.4622
Now	-10.4622
ประชุม	-10.4624
谢了	-10.4625
Bo	-10.4626
ไม่เป็นไรนะ	-10.4628
的儿子	-10.463
▁ผมไม่	-10.4633
过的	-10.4633
เข้าใจแล้ว	-10.4637
骑	-10.4637
介绍	-10.4639
มันทําให้	-10.4639
超级	-10.464
sa	-10.4643
的方式	-10.4644
แต	-10.4647
像个	-10.4651
Hey	-10.4653
旅	-10.4654
24	-10.4656
▁They	-10.4661
บังเอิญ	-10.4662
ราตรีสวัสดิ์	-10.4662
允许	-10.4662
ide	-10.4663
อยู่ในห้อง	-10.4665
เธทเน	-10.4666
เบา	-10.4667
不得	-10.4667
ผมจะไม่	-10.4667
的女儿	-10.4668
แล้วเหรอ	-10.4671
的新	-10.4673
并不是	-10.4676
我爸	-10.4677
เข้ามาใน	-10.4677
ทั่วไป	-10.468
ลองดู	-10.4684
อัด	-10.4685
▁อ	-10.4685
祖	-10.4685
零	-10.4686
撒谎	-10.4686
สังคม	-10.4686
不出	-10.4688
我说的	-10.4689
一件	-10.4691
有时	-10.4693
มาที่	-10.4696
จะรู้	-10.4698
逃跑	-10.4698
做了什么	-10.4702
ห่าง	-10.4702
จอร์จ	-10.4702
ปีก่อน	-10.4704
控	-10.4705
我就知道	-10.4707
พบกัน	-10.4707
ไฟฟ้า	-10.4708
不少	-10.4708
▁thought	-10.4709
适合	-10.471
普通	-10.4714
เข้าใจมั้ย	-10.4718
มีอยู่	-10.4718
แปลกใจ	-10.472
ile	-10.4721
病毒	-10.4722
23	-10.4722
นิก	-10.473
幕	-10.4732
ี้ย	-10.4733
▁long	-10.4733
▁*	-10.4738
吃饭	-10.4738
นั่นไง	-10.474
我沒	-10.4744
杀了我	-10.4747
วี่	-10.4748
เหตุผลที่	-10.4749
รู้สึกเหมือน	-10.4749
设计	-10.4751
จอง	-10.4753
แต่ก็	-10.4754
属	-10.4754
宣	-10.4755
讯	-10.4755
สุนัข	-10.4756
尾	-10.4756
震	-10.4756
术	-10.4758
想过	-10.4762
ที่พวกเขา	-10.4768
อยู่ในนั้น	-10.4768
แบบที่	-10.4769
จําไว้	-10.477
ที่ว่า	-10.4771
บรา	-10.4777
เบื่อ	-10.4777
แซน	-10.4778
兽	-10.4779
折	-10.478
ล้มเหลว	-10.478
ถัง	-10.478
เรื่องของ	-10.4784
นายเป็น	-10.4785
快跑	-10.4788
这一	-10.4788
▁很好	-10.479
ยังมีชีวิตอยู่	-10.4791
出生	-10.4792
ose	-10.4794
去看	-10.4797
ได้เวลา	-10.4797
把这	-10.48
อุปกรณ์	-10.4804
减	-10.4804
mon	-10.4804
的声音	-10.4806
你们俩	-10.4806
รู้แล้ว	-10.4806
เธญเน	-10.4808
隐	-10.4809
▁谁	-10.481
而你	-10.4811
จิตใจ	-10.4811
เขาอยู่	-10.4817
上班	-10.4822
ธรรม	-10.4826
กางเกง	-10.4828
卢	-10.4828
腦	-10.4828
กว้าง	-10.4828
พี่สาว	-10.4839
▁then	-10.4847
ิด	-10.4849
จิมมี่	-10.4852
而不是	-10.4854
เท่าไร	-10.4854
ไม่จริง	-10.4855
ทําให้เธอ	-10.4857
ให้ตาย	-10.4857
杀了你	-10.4858
你知道的	-10.4859
ใช่เลย	-10.4859
打了	-10.4861
มีเงิน	-10.4863
一半	-10.4863
▁你想	-10.4865
確	-10.4873
▁ไม่เอาน่า	-10.4874
韩	-10.4875
สักครู่	-10.4875
ฮีโร่	-10.4876
▁100	-10.4881
ไม่เจอ	-10.4882
有點	-10.4886
ฉันเจอ	-10.4886
สตาร์	-10.4886
ผมยัง	-10.4892
ใช่ครับ	-10.4895
ชิน	-10.4895
但是我	-10.4896
奶	-10.4898
โปรแกรม	-10.4899
擦	-10.4899
ه	-10.4899
ผลิต	-10.4899
เธอรู้	-10.4902
แต่งตัว	-10.4902
ได้พบ	-10.491
心脏	-10.491
lie	-10.491
ชก	-10.4911
看你	-10.4912
目的	-10.4919
律	-10.492
ตลอดไป	-10.492
เธอคง	-10.4921
ให้เป็น	-10.4922
ผ่าตัด	-10.4922
ประเภท	-10.4923
▁爸爸	-10.4925
ภูมิใจ	-10.4925
รับทราบ	-10.4926
测试	-10.4928
เหมาะ	-10.4929
喝酒	-10.4931
จะเกิดขึ้น	-10.4933
接着	-10.4936
ไค	-10.494
สด	-10.4944
This	-10.4945
拉斯	-10.4945
又不是	-10.4946
ไม่เป็นไรหรอก	-10.4947
占	-10.4948
纯	-10.4948
จริงจัง	-10.4948
差点	-10.4948
芬奇	-10.4949
มุ	-10.495
ระบุ	-10.4956
干了	-10.496
ริก	-10.4961
พบกับ	-10.4965
Not	-10.4967
ที่ห้อง	-10.497
แกจะ	-10.4971
เครียด	-10.4972
Where	-10.4972
เต็มไปด้วย	-10.4974
求求你	-10.4974
ทําอะไรอยู่	-10.4977
▁Mo	-10.4984
iss	-10.4985
还会	-10.4986
วาน	-10.4986
มีแค่	-10.499
นายกําลัง	-10.4993
ในอีก	-10.4994
验	-10.4994
▁那就	-10.4996
暖	-10.4996
恭喜	-10.4996
เป็นคนดี	-10.4997
..."	-10.4997
จนกว่าจะ	-10.4998
ดูด	-10.5002
รอบๆ	-10.5003
ถึงได้	-10.5008
到这里	-10.5009
เคลื่อน	-10.5012
我没事	-10.5012
ผมบอก	-10.5014
历史	-10.5017
寻找	-10.5018
ไม่สําคัญ	-10.5018
我听说	-10.5019
就得	-10.5019
杀手	-10.502
治疗	-10.502
ขณะที่	-10.502
干净	-10.5021
เอมี่	-10.5024
รีบไป	-10.5029
ชิง	-10.5029
เชียว	-10.5032
活动	-10.5036
มันเหมือน	-10.5038
เพื่อที่จะ	-10.5039
บรู	-10.504
因为他	-10.5043
厅	-10.5044
ต่อต้าน	-10.5045
ชีวิตของ	-10.5046
เสือ	-10.5047
死去	-10.5047
ข้างบน	-10.5047
เธอต้องการ	-10.5049
ประธานาธิบดี	-10.5052
他想	-10.5053
มีแผน	-10.5058
他妈	-10.5064
的世界	-10.5067
กล้าหาญ	-10.5069
─	-10.5069
试着	-10.507
เราจะไม่	-10.5071
ปั	-10.5072
ไอ้พวก	-10.5078
算了	-10.5081
จะใช้	-10.5082
มัว	-10.5086
rt	-10.509
ได้เจอ	-10.5091
敏	-10.5092
阵	-10.5093
柯	-10.5093
宇宙	-10.5093
的样子	-10.5097
ust	-10.5098
ทางการ	-10.5098
夺	-10.5099
▁นั่นมัน	-10.5099
在他	-10.51
本来	-10.5105
需	-10.5106
บ่อย	-10.5108
用来	-10.5111
และถ้า	-10.5112
สภา	-10.5116
比我	-10.5117
ประชาชน	-10.5118
虚	-10.5118
▁feel	-10.5118
美元	-10.5118
เหลือเกิน	-10.5121
ทํายังไง	-10.5121
22	-10.5122
๊อก	-10.5123
自杀	-10.5123
คุณเป็นคน	-10.5125
0,000	-10.513
▁ผู้	-10.5134
รู้สึกยังไง	-10.5136
想法	-10.5137
ฐ	-10.5138
魂	-10.5142
ต่อหน้า	-10.5146
▁away	-10.5146
สวัสดีค่ะ	-10.5152
แอล	-10.5153
ub	-10.5153
沒錯	-10.5153
一起去	-10.5156
上来	-10.5156
▁sure	-10.5156
▁hear	-10.5156
ทัพ	-10.5157
不上	-10.5157
ark	-10.516
คาร์ล	-10.5166
แฟรงค์	-10.5167
丧	-10.5167
壞	-10.5167
強	-10.5167
ทําการ	-10.5168
的眼睛	-10.5175
覺得	-10.5175
着我	-10.5175
不够	-10.5182
คุณน่าจะ	-10.5186
ยินดีต้อนรับ	-10.5192
กระโดด	-10.5193
▁แต่ว่า	-10.5194
ไม่ใช่แค่	-10.5197
的情况	-10.5197
มันจะเป็น	-10.5198
ของคน	-10.52
▁真	-10.5202
ต่างๆ	-10.5203
你是不是	-10.5205
bb	-10.5205
我又	-10.5207
โลกนี้	-10.5209
อว์	-10.5212
ทั้งหลาย	-10.5213
箭	-10.5215
把手	-10.5215
เลื่อน	-10.5217
炮	-10.5217
คุ้มครอง	-10.5217
不錯	-10.5219
Jake	-10.522
▁ทุกอย่าง	-10.522
敌	-10.5223
▁我有	-10.5223
ว่ายังไง	-10.5227
這種	-10.5229
va	-10.5229
ite	-10.5233
政	-10.5241
á	-10.5241
唐	-10.5241
晚餐	-10.5243
花了	-10.5244
都知道	-10.5244
รัง	-10.5244
แด	-10.5247
我的天	-10.5249
什么东西	-10.5254
熟	-10.5259
認	-10.5259
มากกว่านี้	-10.526
什	-10.5264
ขึ้นอยู่กับ	-10.5265
ต้องตาย	-10.5266
เว้ย	-10.5266
運	-10.5266
แล้วนาย	-10.5267
脑袋	-10.5268
都能	-10.5271
怎麼了	-10.5271
▁คง	-10.528
โจร	-10.528
ฉันจะทํา	-10.5281
องค์	-10.5282
就没	-10.5283
ข้าก็	-10.5286
OK	-10.5287
ในขณะนี้	-10.5289
aw	-10.5289
ตัวแทน	-10.529
响	-10.529
ความปลอดภัย	-10.5291
凱	-10.5291
萝	-10.5291
เปิดเผย	-10.5292
我覺得	-10.5292
แตกต่าง	-10.5293
โว้ย	-10.5293
qu	-10.5294
聽著	-10.5296
ยืม	-10.5298
我们一起	-10.53
คุณควรจะ	-10.5301
เชื่อฉัน	-10.5302
▁อย่าง	-10.5306
▁cr	-10.5309
他不	-10.531
Are	-10.531
队长	-10.5311
ยิ่งกว่า	-10.5312
禮	-10.5316
โอลิเวอร์	-10.5316
พนักงาน	-10.5316
เธตเธ	-10.5316
ฆ่าตัวตาย	-10.5317
汽车	-10.5321
ฮู	-10.5321
随时	-10.5325
อินเดีย	-10.5326
堂	-10.5326
这里的	-10.5328
มันดู	-10.5328
ปีที่แล้ว	-10.5328
ช่วงเวลา	-10.5329
ติน	-10.533
ไม่คิดว่า	-10.5332
帅	-10.5336
▁还是	-10.5337
斯基	-10.5337
是什麼	-10.5338
รับผิดชอบ	-10.5338
ชื่อของ	-10.5341
ㄓ	-10.5341
อยู่ข้าง	-10.5341
ence	-10.5342
几乎	-10.5342
ช่วยให้	-10.5343
太阳	-10.5343
▁我觉得	-10.5343
สาเหตุ	-10.5343
▁ะฐ	-10.5349
只会	-10.5349
▁หวัดดี	-10.5352
ตามมา	-10.5353
ในเวลา	-10.5353
我发誓	-10.5353
卡尔	-10.5363
长大	-10.5364
นึกถึง	-10.5364
君	-10.5366
要么	-10.5366
連	-10.5366
คว้า	-10.5369
在外面	-10.537
อะไรอีก	-10.5374
รับรอง	-10.5376
ข้อหา	-10.5379
▁อา	-10.5385
แล้วว่า	-10.5388
他不是	-10.539
เห็นอะไร	-10.5392
พบว่า	-10.5395
ความหวัง	-10.5396
ไม่อยากให้	-10.5401
妹	-10.5404
炸弹	-10.5404
我爱	-10.5405
เอาเงิน	-10.5407
กฏหมาย	-10.5409
走开	-10.541
ธี	-10.5413
▁你可以	-10.5414
那我	-10.5414
汤	-10.5414
残	-10.5416
扫	-10.5417
บ๊อบบี้	-10.5417
彼此	-10.5417
▁ex	-10.5419
พูดเรื่องอะไร	-10.5419
密码	-10.5422
ค้นพบ	-10.5423
好啦	-10.5423
一生	-10.5424
现在是	-10.5425
ขยับ	-10.5428
อยู่คนเดียว	-10.5428
อันนี้	-10.5435
坚持	-10.544
▁你会	-10.5441
與	-10.5442
记忆	-10.5442
แข็งแรง	-10.5443
เตะ	-10.5445
知道的	-10.5446
ในวัน	-10.5448
Ben	-10.5451
ail	-10.5451
好事	-10.5452
坦	-10.5454
คนแรก	-10.5455
饼	-10.5455
จอม	-10.546
▁也许	-10.5461
ผมอยากจะ	-10.5466
▁All	-10.5467
剂	-10.5467
越来越	-10.5467
句话	-10.547
靠近	-10.547
ทําสิ่งที่	-10.5471
เก็บไว้	-10.5475
แคร์	-10.5475
ช่วยอะไร	-10.5475
แคส	-10.5476
客人	-10.5476
做过	-10.5479
失去了	-10.5481
ะฐั	-10.5487
不是吗	-10.5491
做到	-10.5491
แหล่ง	-10.5493
อัยการ	-10.5493
什么吗	-10.5494
ล่ะก็	-10.5494
▁How	-10.5496
▁ดีน	-10.5498
▁เดือน	-10.5499
กี่	-10.5502
▁不是吗	-10.5504
为我	-10.5507
把我们	-10.5507
▁ฉันมี	-10.5512
สาวน้อย	-10.5513
他们都	-10.5514
利亚	-10.5515
ขอบ	-10.5516
蓝	-10.5517
ทุกข์	-10.5518
鲍	-10.5518
อดัม	-10.5518
我正在	-10.552
Damon	-10.552
数据	-10.552
ผมไม่รู้ว่า	-10.552
就不会	-10.5521
สนิท	-10.5528
ทรยศ	-10.5528
ทําให้ผม	-10.553
▁รอ	-10.553
總	-10.553
รู้ได้ยังไง	-10.5536
不应该	-10.5537
你說	-10.5537
ะตั	-10.5538
我说过	-10.5539
的父亲	-10.554
เธฐเน	-10.5542
所有人都	-10.5542
在里面	-10.5543
审	-10.5544
จะบอกว่า	-10.5544
สกปรก	-10.5544
桥	-10.5544
聲	-10.5544
飛	-10.5544
สื่อสาร	-10.5544
爵士	-10.5545
创造	-10.5548
คงเป็น	-10.5548
没想到	-10.5549
ลงทุน	-10.5549
▁他是	-10.5555
อะไรเนี่ย	-10.5557
che	-10.5565
ก่อนที่จะ	-10.5567
สังเกต	-10.557
躺	-10.557
印度	-10.5572
▁เพราะว่า	-10.5573
也要	-10.5576
ชั้นจะ	-10.5577
ลิ้น	-10.5578
人物	-10.5578
คุณชอบ	-10.5579
king	-10.5579
▁เร็ว	-10.5581
ถ้าไม่	-10.5586
ตัวเลข	-10.5586
就不	-10.5589
告诉我们	-10.559
什么都	-10.5591
要找	-10.5591
迟	-10.5592
ยุติธรรม	-10.5593
样子	-10.5595
รส	-10.5595
Stefan	-10.5595
漏	-10.5595
กี	-10.5601
ยอมแพ้	-10.5604
มัด	-10.5605
克里斯	-10.5605
▁Be	-10.5605
นายรู้	-10.5606
อนุญาต	-10.5606
▁50	-10.5607
不清楚	-10.5608
มันก็แค่	-10.5608
我告诉你	-10.5608
▁还	-10.5614
力量	-10.5615
เป็นของ	-10.5616
简	-10.5618
▁Sam	-10.5619
เศษ	-10.5619
贴	-10.5621
ลักพาตัว	-10.5621
數	-10.5621
蛋糕	-10.5621
经过	-10.5622
เขาพูด	-10.5625
ไม่ทํา	-10.5625
Go	-10.5628
发射	-10.563
私人	-10.5631
เป็นอย่างนั้น	-10.5635
▁มิ	-10.564
▁ว่าไง	-10.5641
材	-10.5647
ขออภัย	-10.5647
นักล่า	-10.5648
ไวน์	-10.5649
เราจะต้อง	-10.5651
บอกฉันว่า	-10.5654
เอาตัว	-10.5662
ที่แท้จริง	-10.5662
告訴你	-10.5665
▁我能	-10.5666
กเกอร์	-10.5668
手术	-10.567
我正	-10.5672
จินตนาการ	-10.5673
	-10.5673
ไม๊	-10.5673
เกือบจะ	-10.5675
แล้วตอนนี้	-10.5675
แย่มาก	-10.5677
by	-10.5681
责任	-10.5682
ปู	-10.5682
到处	-10.5684
ปล่อยฉัน	-10.5685
▁200	-10.5686
เลข	-10.5687
มองหา	-10.5694
他很	-10.5696
不幸	-10.5698
芬	-10.5698
ปรึกษา	-10.5699
ปลุก	-10.5699
ven	-10.5701
เอ็ด	-10.5702
的脸	-10.5705
ประธาน	-10.5708
▁可	-10.5708
คนใหม่	-10.571
ทุกสิ่ง	-10.5714
你个	-10.5714
早上好	-10.5718
บุ	-10.5718
เห็นไหม	-10.5719
และการ	-10.5721
▁对吗	-10.5721
去做	-10.5721
ริส	-10.5722
▁♪	-10.5723
租	-10.5725
究竟	-10.5725
卡特	-10.5725
▁home	-10.5726
กอ	-10.5727
晚了	-10.5727
แคลร์	-10.5727
是怎么	-10.5728
วย	-10.5728
遍	-10.573
ทําให้เรา	-10.5732
车里	-10.5736
เราเคย	-10.574
ที่สอง	-10.574
我爸爸	-10.5742
▁對	-10.5742
ดอร์	-10.5746
吃的	-10.5747
แบบไหน	-10.5749
เพราะคุณ	-10.5751
ไมล์	-10.5751
砸	-10.5751
▁friend	-10.5751
อ้วน	-10.5751
绑架	-10.5751
หมอนั่น	-10.5752
▁เธอจะ	-10.5754
基地	-10.5757
เห็นคุณ	-10.5762
พลังงาน	-10.5766
แมค	-10.5767
跟我来	-10.5767
对付	-10.5769
▁Don	-10.577
การแข่งขัน	-10.5773
ภูมิ	-10.5773
กลางวัน	-10.5776
ر	-10.5777
資	-10.5777
背叛	-10.5778
地址	-10.5778
我不明白	-10.5779
把这个	-10.578
我怎么	-10.5781
你妈	-10.5781
ga	-10.5781
我還	-10.5781
ตามที่	-10.5782
趣	-10.5782
跑了	-10.5784
ดาร์	-10.5787
玩意	-10.579
มันอยู่	-10.5793
他了	-10.5794
แล้วทําไม	-10.5795
被人	-10.5796
去哪里	-10.5796
其它	-10.5797
这种事	-10.5799
เย้	-10.5799
นั่นล่ะ	-10.5803
佬	-10.5803
齐	-10.5803
อาบน้ํา	-10.5803
而我	-10.5805
可惜	-10.5806
ยังไม่ตาย	-10.5807
สํานักงาน	-10.5808
คราว	-10.5809
▁ผมรู้	-10.581
做好	-10.5812
恶心	-10.5813
会儿	-10.5815
向你	-10.5815
งานที่	-10.5816
Get	-10.582
先生们	-10.582
เที่ยว	-10.5822
最终	-10.5823
อริ	-10.5824
ฉันได้ยิน	-10.5827
ปราสาท	-10.583
ปรากฏ	-10.583
资料	-10.583
紧急	-10.5831
ดําเนินการ	-10.5833
ฉันไม่ใช่	-10.5835
เยี่ยมเลย	-10.5836
▁เราก็	-10.5836
感情	-10.5838
เดียวที่	-10.5839
อยู่ดี	-10.5839
有多少	-10.5843
说得对	-10.5844
ran	-10.5845
开了	-10.5847
发生了	-10.5848
ไม่แน่ใจ	-10.5849
เธนเธ	-10.5849
มานาน	-10.585
的感觉	-10.5856
▁first	-10.5856
認識	-10.5856
เคลื่อนไหว	-10.5857
愉快	-10.5858
▁stop	-10.5858
成功了	-10.5858
สับสน	-10.5858
我还以为	-10.5858
แมรี่	-10.5859
ปะ	-10.586
ex	-10.5866
ไปก่อน	-10.5867
มอร์	-10.5868
จัดการกับ	-10.5872
โซ่	-10.5873
อื่นๆ	-10.5873
里有	-10.5874
อย่างมาก	-10.5878
Gr	-10.5878
不许	-10.5878
อฟ	-10.5879
咱	-10.5879
มากที่สุด	-10.588
แข็งแกร่ง	-10.5883
๊บ	-10.5884
เราควรจะ	-10.5885
ยังงั้น	-10.5888
我也不知道	-10.5892
ไม่มีการ	-10.5897
ยินดีด้วย	-10.5898
了你的	-10.59
สถาน	-10.5903
ding	-10.5906
史塔克	-10.5909
发生了什么	-10.5912
well	-10.5914
想起	-10.5914
▁พี่	-10.5915
法官	-10.5916
尽管	-10.5923
เธอยัง	-10.5925
▁ไอ	-10.5928
一块	-10.593
นอร์	-10.5934
烤	-10.5936
เข้าร่วม	-10.5936
父親	-10.5936
คอม	-10.5936
ผสม	-10.5938
ข้างหลัง	-10.5938
right	-10.5938
70	-10.5944
▁their	-10.5945
前面	-10.5946
快去	-10.5947
ปลด	-10.5948
▁ทั้ง	-10.5952
ในนั้น	-10.5953
เหล	-10.5955
我记得	-10.5957
โดยไม่	-10.5957
巧	-10.5961
35	-10.5962
辛	-10.5962
傳	-10.5962
ด้านหลัง	-10.5964
อ่อนแอ	-10.5965
英国	-10.5965
再也	-10.5966
你还是	-10.5966
現	-10.5968
▁ครั้ง	-10.5969
เวย์	-10.5969
▁Yes	-10.597
Look	-10.597
捕	-10.5971
▁谢谢你	-10.5973
mp	-10.5975
上车	-10.5979
告诉她	-10.5979
回家了	-10.598
ฉันกลัว	-10.5988
割	-10.5989
洁	-10.5989
ก็เหมือนกัน	-10.5992
他们说	-10.5993
星球	-10.5995
一把	-10.5997
真是个	-10.5997
หลายคน	-10.5999
คุณผู้หญิง	-10.5999
ี่ยว	-10.6
Or	-10.6001
赢了	-10.6001
手上	-10.6004
ด้วยความ	-10.6006
▁un	-10.6009
ฟิล	-10.6012
才会	-10.6012
能让	-10.6014
旁	-10.6015
เติม	-10.6015
หมุน	-10.6016
笨蛋	-10.6016
玛丽	-10.6018
某个	-10.6018
คุณจะไม่	-10.6021
่ํา	-10.6023
ถูกยิง	-10.6023
得好	-10.6024
▁There	-10.6027
โอเคนะ	-10.6029
ความสุข	-10.6033
多么	-10.6036
ปฏิบัติการ	-10.6036
题	-10.6037
อยู่บ้าน	-10.6037
เซน	-10.6039
da	-10.604
พอใจ	-10.6042
س	-10.6043
牺牲	-10.6043
เขาอาจจะ	-10.6043
帽子	-10.6049
▁พวกมัน	-10.6051
ข้างหน้า	-10.6056
โว้ว	-10.6056
ning	-10.6061
划	-10.6062
搜	-10.6067
เเละ	-10.607
▁before	-10.607
昂	-10.607
詹	-10.607
轉	-10.607
ตลาด	-10.607
เต้นรํา	-10.607
มาร์ค	-10.607
的电话	-10.6072
数字	-10.6073
士兵	-10.6073
确保	-10.6074
美丽	-10.6076
ลอบ	-10.6076
แผนก	-10.6077
旅行	-10.6078
คนพวกนี้	-10.608
意思是	-10.608
ชัดๆ	-10.6083
ต้องหา	-10.6084
ก้อ	-10.6085
我们来	-10.6087
你怎麼	-10.609
资	-10.6091
กัก	-10.6093
联	-10.6094
勇	-10.6094
仅	-10.6096
穦	-10.6097
冒险	-10.6097
▁real	-10.6098
คู่หู	-10.6099
ในปี	-10.6102
ลอน	-10.6102
說的	-10.6105
也很	-10.6108
命运	-10.6114
和平	-10.612
不是你	-10.612
看看你	-10.6121
志	-10.6122
细	-10.6123
Le	-10.6123
劫	-10.6123
กระจาย	-10.6124
固	-10.6124
敲	-10.6124
รายละเอียด	-10.6124
叫你	-10.6124
คาร์เตอร์	-10.6126
ออกจากที่นี่	-10.6131
ยะ	-10.6132
จํานวนมาก	-10.6133
จําไม่ได้	-10.6134
ขอเวลา	-10.6135
Me	-10.6137
▁mi	-10.614
ครั้งเดียว	-10.6142
▁q	-10.6145
败	-10.6145
不相信	-10.6145
毒品	-10.6145
那樣	-10.6145
間	-10.6146
จี้	-10.6146
介	-10.6149
單	-10.6151
เป็นไร	-10.6153
เก็ต	-10.6153
เธอคิดว่า	-10.6154
去看看	-10.6156
อย่าลืม	-10.6156
▁เขาเป็น	-10.6156
ไปให้พ้น	-10.6156
保罗	-10.6158
มาให้ฉัน	-10.6161
▁เจ	-10.6163
飞行	-10.6165
你被	-10.6165
เก้า	-10.6166
一杯	-10.6166
的想法	-10.6174
下來	-10.6177
ได้ยินว่า	-10.6177
that	-10.6178
ธุระ	-10.6178
舱	-10.6178
กระจก	-10.6178
ทําอะไรน่ะ	-10.6179
มัก	-10.618
有一天	-10.618
毁	-10.6182
ยื่น	-10.6184
下了	-10.6186
ฉันไม่ต้องการ	-10.6188
脑子	-10.6188
ปรา	-10.619
พ่อของฉัน	-10.6192
เซฟ	-10.6197
童	-10.6204
เพิ่งจะ	-10.6204
ขอบคุณนะ	-10.6205
欢	-10.6205
โช	-10.6205
คะแนน	-10.6206
สมัคร	-10.6206
舰	-10.6206
▁keep	-10.6206
说吧	-10.6206
วินาที	-10.6208
ขอบคุณพระเจ้า	-10.6209
等下	-10.6214
มากพอ	-10.6214
พาย	-10.6216
子里	-10.6216
เธฃเน	-10.622
性感	-10.6221
馬上	-10.6225
เธอบอกว่า	-10.6227
กวน	-10.6229
鼠	-10.623
เป็นเพราะ	-10.6232
เคลียร์	-10.6233
พักผ่อน	-10.6233
愚蠢	-10.6233
破坏	-10.6234
เเม่	-10.6235
一直都	-10.6236
警方	-10.6237
ไม่มีทางเลือก	-10.6238
我們要	-10.624
ไม่ใช่เรื่อง	-10.6241
▁我来	-10.6242
即	-10.6243
▁Go	-10.6246
นายไม่	-10.6248
对吗	-10.6249
นานา	-10.6249
มาเพื่อ	-10.6251
你先	-10.6252
ฟี	-10.6253
รับมือ	-10.6255
ไม่เลย	-10.6256
含	-10.626
▁name	-10.6262
表示	-10.6262
感激	-10.6263
คาล	-10.6263
เขาตาย	-10.6264
执行	-10.6267
นายอําเภอ	-10.6267
ไม่เคยเห็น	-10.627
是我们的	-10.6274
กับใคร	-10.6278
แฟ	-10.628
始	-10.6283
เธซเธก	-10.6283
fi	-10.6287
握	-10.6288
หมื่น	-10.6288
猛	-10.6288
胖	-10.6288
論	-10.6288
逊	-10.6288
นิวยอร์ค	-10.6288
เฮนรี่	-10.6288
蕾	-10.6288
状况	-10.6288
ฟินช์	-10.6288
ข้อเสนอ	-10.6291
rd	-10.6292
นั่นก็	-10.6294
时刻	-10.6296
ที่มา	-10.6298
โรคจิต	-10.6299
的方法	-10.63
แถม	-10.6304
ฟ์	-10.6308
กอด	-10.6313
คล้าย	-10.6316
乡	-10.6316
珊	-10.6316
技术	-10.6316
กู้	-10.6316
啤酒	-10.6316
还好	-10.6318
Good	-10.6321
ล่าสุด	-10.6322
เราเจอ	-10.6322
เห็นมัน	-10.6323
เป็นเพียง	-10.6323
ขอโทษค่ะ	-10.6325
ลุ	-10.6327
▁คุณก็	-10.6327
io	-10.6329
รักษาความปลอดภัย	-10.633
ld	-10.6332
好玩	-10.6333
找我	-10.6336
過去	-10.6339
担	-10.6339
的血	-10.634
เราต้องไป	-10.6342
ซะหน่อย	-10.6342
兴趣	-10.6342
荒	-10.6343
Penny	-10.6343
ระยํา	-10.6343
ขวด	-10.6343
▁part	-10.6346
还记得	-10.6348
ไม่ทราบ	-10.6351
what	-10.6351
将军	-10.6353
确	-10.6354
ten	-10.6359
เมื่อวาน	-10.6365
เพราะงั้น	-10.6366
เกี่ยวข้องกับ	-10.6367
那家伙	-10.6367
อย่างเดียว	-10.6368
ไหม้	-10.6369
เอ็ม	-10.6371
แก้แค้น	-10.6372
比你	-10.6373
วิทยาศาสตร์	-10.6374
那么多	-10.6374
out	-10.6378
ทางออก	-10.638
制造	-10.638
ไม่มีปัญหา	-10.6381
在家	-10.6381
เฉ	-10.6383
ให้หมด	-10.6384
ข้าไม่	-10.6385
งานเลี้ยง	-10.6386
ใช้ได้	-10.6386
▁来吧	-10.6387
เกินกว่า	-10.6389
▁11	-10.6397
ب	-10.6399
▁world	-10.6399
唔	-10.6399
砍	-10.6399
อาชญากรรม	-10.6399
现实	-10.6401
神经	-10.6401
เช่า	-10.6402
นี่นา	-10.6404
พูดคุย	-10.6406
ลูกๆ	-10.6409
运动	-10.641
这点	-10.6414
参	-10.6414
ough	-10.6415
动手	-10.6418
分手	-10.6422
启	-10.6423
ฉันรู้จัก	-10.6424
▁แต่มัน	-10.6426
ทําอย่างนี้	-10.6426
ฟุต	-10.6427
พัฒนา	-10.6427
胎	-10.6427
藥	-10.6427
ไส้	-10.6427
▁night	-10.6428
位置	-10.6429
▁ฉันจะไป	-10.6429
็บ	-10.643
能找到	-10.6433
在我们	-10.6433
▁มันคือ	-10.6435
เทป	-10.6436
ตอนเช้า	-10.6436
กว่านั้น	-10.6437
那我们	-10.6439
ทําทุกอย่าง	-10.6443
來的	-10.6443
พบคุณ	-10.6444
ai	-10.6445
快點	-10.6445
สมบูรณ์	-10.6446
执	-10.6449
ครั้งที่	-10.6451
เขาคง	-10.6454
遠	-10.6455
撑	-10.6455
線	-10.6455
ع	-10.6455
你们都	-10.6455
咋	-10.6455
喊	-10.6455
สะกด	-10.6456
โดยเฉพาะ	-10.6457
อรี่	-10.6458
อย่างงั้น	-10.6459
对他	-10.646
ley	-10.6462
▁เรากําลัง	-10.6462
ทําไมต้อง	-10.6467
ต้องมา	-10.6473
袋	-10.6482
乖	-10.6483
▁anything	-10.6483
ชะมัด	-10.6483
ทอมมี่	-10.6483
▁kind	-10.6485
▁wh	-10.6485
说谎	-10.6486
不记得	-10.6487
ไม่ๆ	-10.6488
▁เหรียญ	-10.6489
就好了	-10.6491
เข้าสู่	-10.6495
十年	-10.6497
历	-10.6508
他还	-10.6509
漫	-10.6511
▁through	-10.6511
习惯	-10.6511
▁put	-10.6514
怎麼樣	-10.6515
ช่วยได้	-10.652
การทํางาน	-10.6521
ทําเป็น	-10.6524
คนไหน	-10.6526
อาศัยอยู่	-10.6531
行吗	-10.6531
กาล	-10.6532
ary	-10.6532
เห็นมั้ย	-10.6535
▁你能	-10.6539
舍	-10.6539
วู้ด	-10.654
บัง	-10.6543
They	-10.6547
写的	-10.6554
不住	-10.6555
回头	-10.6555
กําลังทํา	-10.6556
คุยเรื่อง	-10.6558
好消息	-10.656
ขํา	-10.6562
险	-10.6565
绑	-10.6567
琴	-10.6568
จ้อง	-10.6568
อาณาจักร	-10.6568
สู้กับ	-10.6568
ชัค	-10.6569
▁สอง	-10.6569
เคลย์	-10.657
▁ask	-10.6573
ได้บ้าง	-10.6574
Can	-10.6576
หน่อยได้ไหม	-10.6577
รัส	-10.6578
疯子	-10.6579
กวาด	-10.6582
เต็มที่	-10.6589
对方	-10.6595
匹	-10.6596
พอที่จะ	-10.6596
荣幸	-10.6596
你在干什么	-10.6597
相当	-10.6597
▁我不是	-10.6598
回事	-10.6599
ดึก	-10.6603
就行了	-10.6605
จ่ายเงิน	-10.6605
ฟิน	-10.6611
การเดินทาง	-10.6615
世上	-10.6615
00}	-10.6615
打电话给	-10.6622
的妻子	-10.6623
柏	-10.6623
倍	-10.6625
彈	-10.6625
拼	-10.6625
葛	-10.6625
เค้ก	-10.6625
▁你有	-10.6628
倒是	-10.6629
ไพ	-10.6629
สายลับ	-10.6631
เฟอร์	-10.6632
ไม่ทัน	-10.6634
ฉันไม่เข้าใจ	-10.6637
ไม่เป็นอะไร	-10.6639
真是太	-10.6639
rr	-10.664
没办法	-10.6643
ทางเลือก	-10.6648
ตั๋ว	-10.6653
扣	-10.6653
ทําความสะอาด	-10.6653
恢复	-10.6654
กับพ่อ	-10.6656
高中	-10.6657
ving	-10.6664
ดูว่า	-10.6667
เป็นหนึ่งใน	-10.6671
尔斯	-10.6671
▁我们要	-10.6672
ไม่ทราบว่า	-10.6674
วิต	-10.6674
ช่วยเรา	-10.6677
▁หลังจาก	-10.6678
股	-10.6679
จิน	-10.668
ห่วย	-10.6681
眠	-10.6682
赖	-10.6682
ก์	-10.6682
有什麼	-10.6682
หมายถึงอะไร	-10.6683
我妈	-10.6683
城堡	-10.6683
▁last	-10.6684
机器人	-10.6684
ใครกัน	-10.6685
เวล	-10.6689
告诉他们	-10.6691
ฉันบอกว่า	-10.6695
gi	-10.6696
วอร์	-10.6696
▁Ho	-10.6697
เนี้ย	-10.6697
時候	-10.67
้า	-10.6701
บาป	-10.6703
ต่อมา	-10.6704
不及	-10.6707
坚	-10.6709
สะพาน	-10.6711
偏	-10.6711
區	-10.6711
視	-10.6711
故意	-10.6712
แลก	-10.6712
เทียบ	-10.6714
ไม่อาจ	-10.6714
有個	-10.6718
如果你想	-10.6719
ฉันพยายาม	-10.6721
อยากไป	-10.6726
要不要	-10.6727
ขอโทษที่	-10.6729
ขอตัว	-10.6734
นายได้	-10.6735
我一直在	-10.6735
แล้วฉันก็	-10.6736
ney	-10.6736
的机会	-10.6737
洋	-10.6738
技	-10.6738
圖	-10.6739
逐	-10.6739
ศึกษา	-10.6745
送你	-10.6749
เธกเธฑเธ	-10.6749
uh	-10.6749
กันนะ	-10.675
มี่	-10.675
说的是	-10.675
เดาว่า	-10.6751
เรย์	-10.6751
ลงโทษ	-10.6753
เจ้าหญิง	-10.6759
ik	-10.6761
หน้าตา	-10.6764
咒	-10.6768
额	-10.6768
恐惧	-10.6768
▁new	-10.6769
ใช่ค่ะ	-10.6769
根据	-10.6769
說什麼	-10.677
神秘	-10.677
ลาน	-10.6776
แผ่น	-10.678
最后一	-10.6783
年了	-10.6783
ไม่อยู่	-10.6784
แคน	-10.6789
▁Thank	-10.6792
還沒	-10.6795
ความสามารถ	-10.6797
奥利弗	-10.6797
拔	-10.6797
实际上	-10.6797
该怎么办	-10.6797
並	-10.6799
试图	-10.6799
堆	-10.6799
26	-10.6799
Let	-10.6799
เป็นเวลา	-10.68
你有没有	-10.68
และเมื่อ	-10.6803
▁hand	-10.6804
男朋友	-10.6805
▁Ha	-10.6807
ฝ	-10.6809
▁พร้อม	-10.6809
คราวนี้	-10.6813
快来	-10.6813
รอเดี๋ยว	-10.6813
的力量	-10.6813
คุณจะรู้ว่า	-10.6814
ใบหน้า	-10.6818
我說	-10.6819
กันอยู่	-10.6819
ถา	-10.6822
ม์	-10.6823
毫无	-10.6825
แม็ค	-10.6828
ฉาก	-10.6832
ฉันทําไม่ได้	-10.6832
手術	-10.6835
剛	-10.6837
ที่มัน	-10.6843
ฮี	-10.6844
他知道	-10.6846
ise	-10.6853
คิดว่าฉัน	-10.6853
你看起来	-10.6854
年的	-10.6855
จักรวาล	-10.6856
ถ้าไม่มี	-10.6856
卻	-10.6856
ประสบการณ์	-10.6856
ก็เพราะ	-10.6856
戒指	-10.6857
▁ไม่งั้น	-10.686
อะไรอยู่	-10.6863
说真的	-10.6864
ทั้งคืน	-10.6864
น่าจะเป็น	-10.6871
說話	-10.6873
เมื่อกี้	-10.6873
且	-10.688
谋	-10.6881
巫	-10.6883
折磨	-10.6885
เเน่	-10.6885
โกง	-10.6892
มันไม่มี	-10.6892
盯着	-10.6892
ขึ้นรถ	-10.6893
条件	-10.6893
ris	-10.6894
我的意思是	-10.6895
名单	-10.6897
▁these	-10.6899
All	-10.6906
สิ้นสุด	-10.6913
ك	-10.6914
ฉีด	-10.6914
โบสถ์	-10.6914
来看	-10.6915
▁very	-10.6915
ดูเหมือนจะ	-10.6917
▁เออ	-10.6918
ps	-10.6922
你好吗	-10.6923
Ed	-10.6923
ไปสิ	-10.6924
意见	-10.6924
มาร์ติน	-10.6928
เที่ยง	-10.6928
二十	-10.6932
ของโลก	-10.6935
แรน	-10.6935
บางส่วน	-10.6935
干吗	-10.6935
เวส	-10.6937
赶快	-10.6938
▁place	-10.6944
瞎	-10.6944
ไอ้นี่	-10.6946
那些人	-10.6946
คุณไม่สามารถ	-10.6956
ฉันควร	-10.697
ซับซ้อน	-10.6973
書	-10.6973
ดินแดน	-10.6973
好极了	-10.6973
พ่อจะ	-10.6974
▁วันนี้	-10.6976
通常	-10.6982
ถ่ายรูป	-10.6984
就會	-10.6984
เป็นเจ้าของ	-10.6985
说明	-10.6987
หนี้	-10.6988
ในวันนี้	-10.6992
เพน	-10.6994
说是	-10.6994
作用	-10.6997
狱	-10.6997
ian	-10.6998
的消息	-10.6998
กล่าวว่า	-10.7
แตะ	-10.7001
ความเจ็บปวด	-10.7001
怒	-10.7003
予	-10.7003
售	-10.7003
肥	-10.7003
ตะวันตก	-10.7003
ควีน	-10.7003
เกรงว่า	-10.7003
又是	-10.7005
ดีจัง	-10.7005
似的	-10.7007
้อย	-10.7008
ฟู	-10.7009
คุณอาจ	-10.7011
ฆ่ามัน	-10.7012
能量	-10.7013
เกมส์	-10.7014
▁things	-10.7022
เป็นเหมือน	-10.7025
วัย	-10.7027
答	-10.7027
日子	-10.703
进了	-10.703
สมบัติ	-10.7032
隨	-10.7032
▁around	-10.7032
ที่สุดใน	-10.7032
นิยาย	-10.7036
เผ่า	-10.7037
那位	-10.704
退后	-10.704
▁ever	-10.704
什么的	-10.7041
ที่ยิ่งใหญ่	-10.7045
ของแม่	-10.7045
謝謝你	-10.7046
มันถูก	-10.7046
บ้างมั้ย	-10.7048
▁我很	-10.7048
คุณรู้จัก	-10.7049
นักรบ	-10.705
ช่วยผม	-10.7051
การรักษา	-10.7051
正好	-10.7053
不能再	-10.7058
นอนกับ	-10.706
ไพ่	-10.7062
阴	-10.7062
เอฟบีไอ	-10.7062
โครงการ	-10.7062
穿着	-10.7064
之中	-10.7065
ความสนใจ	-10.7066
好多	-10.7069
心里	-10.7071
足够	-10.7073
อาชีพ	-10.7073
ger	-10.7075
丹尼	-10.7076
แหง	-10.7079
รอก่อน	-10.7079
了很多	-10.708
▁แต่ก็	-10.7082
做得	-10.7086
ตอนที่ฉัน	-10.7087
你的朋友	-10.7088
搞什么	-10.7088
恐	-10.7091
彻	-10.7091
ประกอบ	-10.7092
窃	-10.7092
关键	-10.7092
27	-10.7092
ook	-10.7094
ออกแบบ	-10.7096
กรณี	-10.7097
คือใคร	-10.7099
ไปทั่ว	-10.7099
มันยาก	-10.7101
ใครก็ได้	-10.7103
整天	-10.7106
▁ฉันต้องการ	-10.7106
คืนมา	-10.7108
▁天啊	-10.7109
ound	-10.7112
▁好了	-10.7113
พาคุณ	-10.7114
很喜欢	-10.7114
ไม่งั้น	-10.7116
心理	-10.7117
我认识	-10.7119
宫	-10.7121
彩	-10.7121
أ	-10.7121
กระดาษ	-10.7122
宗	-10.7122
永遠	-10.7122
伟大的	-10.7123
管理	-10.7123
วอลเตอร์	-10.7123
ฉี่	-10.7126
สั่งให้	-10.7131
最後	-10.7131
▁ในการ	-10.7135
ไม่คิด	-10.7137
ยังไม่รู้	-10.714
▁start	-10.714
ling	-10.7142
▁อาจจะ	-10.7142
隔	-10.7142
ไปส่ง	-10.7143
tion	-10.7143
หมายความว่ายังไง	-10.7146
送到	-10.7147
มหา	-10.7147
ให้ใคร	-10.715
误	-10.7151
还真	-10.7151
秋	-10.7152
幫我	-10.7153
แอนดี้	-10.7155
บ้าๆ	-10.7156
ทิ้งไว้	-10.7157
รู้มั้ยว่า	-10.7159
基本	-10.7162
เคยมี	-10.7166
不敢	-10.7168
ฉันคือ	-10.7171
ท่าทาง	-10.7172
ทาส	-10.7172
คุณจะได้	-10.7174
他也	-10.7174
不认识	-10.7176
28	-10.7178
ซอง	-10.718
洲	-10.7181
狄	-10.7182
魔鬼	-10.7186
打给	-10.7186
บางอย่างที่	-10.7187
ฉันควรจะ	-10.7188
自从	-10.7188
ฉันเป็นคน	-10.7188
正式	-10.719
见鬼	-10.7195
斯坦	-10.7196
คําแนะนํา	-10.7198
哈利	-10.7199
อยู่ใกล้	-10.7201
给他们	-10.7204
แม่น้ํา	-10.7205
หือ	-10.7207
กซ์	-10.7208
ที่ทํางาน	-10.721
撤	-10.7211
ฉบับ	-10.7212
泥	-10.7212
ţ	-10.7212
盡	-10.7212
蘭	-10.7212
火车	-10.7213
骑士	-10.7214
เหรอครับ	-10.7218
教堂	-10.7223
怎么样了	-10.7225
มาทําอะไร	-10.7226
ฉันชื่อ	-10.7227
救我	-10.7228
มิล	-10.723
แอนนา	-10.7231
▁guys	-10.7236
▁ผมต้อง	-10.7242
緊	-10.7242
勃	-10.7243
惠	-10.7243
▁believe	-10.7243
繼續	-10.7243
璶	-10.7243
合适	-10.7244
แล้วจะ	-10.7244
มีอํานาจ	-10.7245
▁ผมคิดว่า	-10.7249
▁guy	-10.7249
Sha	-10.725
เพราะผม	-10.7252
一大	-10.7253
▁Just	-10.7259
ey	-10.726
你打算	-10.726
ไปได้แล้ว	-10.7267
在我的	-10.7269
สกี้	-10.7269
จมูก	-10.7273
狠	-10.7273
荷	-10.7273
風	-10.7273
ผู้ต้องสงสัย	-10.7273
死定了	-10.7273
เพอร์	-10.7276
兩個	-10.7276
顺利	-10.7277
一会	-10.7284
地图	-10.7289
เจ้าของ	-10.7299
維	-10.7303
祈祷	-10.7303
สแตน	-10.7303
Alex	-10.7304
情況	-10.7304
勇敢	-10.7304
สืบสวน	-10.7304
我再	-10.7305
Your	-10.7306
คนตาย	-10.7307
▁นั่นคือ	-10.7313
相信你	-10.7314
พูดเรื่อง	-10.7315
ไปอีก	-10.7316
ผลงาน	-10.7317
az	-10.7318
你肯定	-10.732
ไม่ได้เลย	-10.7324
上床	-10.7326
Co	-10.7326
สิทธิ์	-10.7327
ก็เหมือน	-10.7331
約	-10.7334
張	-10.7334
詹姆斯	-10.7334
尘	-10.7334
估计	-10.7334
你妈妈	-10.7336
科学	-10.7339
ก็รู้ว่า	-10.7339
บบี้	-10.7344
亲自	-10.7346
想办法	-10.7347
不算	-10.735
一周	-10.735
好人	-10.7351
日本	-10.7353
▁pre	-10.7354
我有个	-10.7355
▁เดี๋ยวก่อน	-10.7355
เขาถูก	-10.736
เถอะน่า	-10.736
绿	-10.7364
▁你得	-10.7364
昏	-10.7365
献	-10.7365
มีงาน	-10.7365
ลอนดอน	-10.7365
ก็พอ	-10.7366
萨姆	-10.7368
▁God	-10.7371
我才不	-10.7375
▁你不能	-10.7377
อย่างกับ	-10.7387
มากไป	-10.7392
ทุกที่	-10.7392
ฆ่าเธอ	-10.7393
應	-10.7394
一群	-10.7395
乌	-10.7395
เดม่อน	-10.7395
	-10.7395
说实话	-10.7396
ได้โปรดเถอะ	-10.7396
ทําผิด	-10.74
十分	-10.7401
ฟอร์ด	-10.7403
见你	-10.7404
我最	-10.741
▁40	-10.7412
不起	-10.7414
ยังไงก็	-10.7414
ขณะ	-10.7415
親	-10.7417
ออร์	-10.7417
都很	-10.742
▁เยี่ยม	-10.7424
คลั่ง	-10.7426
仙	-10.7426
奉	-10.7426
泽	-10.7426
	-10.7426
邪恶	-10.7427
程序	-10.7427
คุณทําอะไร	-10.7429
แล้วถ้า	-10.7429
下一个	-10.743
เรด	-10.7431
เป็นลูก	-10.7432
สักพัก	-10.7434
这场	-10.7435
ความเป็น	-10.7438
会很	-10.744
ตัวเธอ	-10.7441
เนอะ	-10.7446
แคล	-10.7447
ฉันอาจจะ	-10.745
ตู	-10.7451
ได้อีก	-10.7452
ผมอยากให้คุณ	-10.7452
一刻	-10.7454
评	-10.7457
摔	-10.7457
คุณหมอ	-10.7459
其他的	-10.746
对我们	-10.7462
เข้าใจผิด	-10.7462
说说	-10.7464
不用了	-10.7466
ไม่ไหว	-10.7467
คือสิ่งที่	-10.7467
一边	-10.7468
less	-10.7473
▁就像	-10.7473
มันซะ	-10.7474
lin	-10.7474
ไช	-10.7477
的位置	-10.7478
▁ass	-10.748
สั	-10.7481
不会再	-10.7485
孤	-10.7486
สิ่งที่ฉัน	-10.7488
羞	-10.7488
宿	-10.7488
โรเบิร์ต	-10.7489
แจ๊ค	-10.7489
即将	-10.7491
▁我得	-10.7491
ชอว์	-10.7493
tic	-10.7493
ขอดู	-10.7502
อะไรทั้งนั้น	-10.7504
สีแดง	-10.7506
ท่านครับ	-10.7506
可真	-10.7507
=	-10.7511
的照片	-10.7511
เขายัง	-10.7513
bl	-10.7518
咯	-10.7519
องค์กร	-10.752
ไวรัส	-10.752
ก่อนหน้านี้	-10.7521
เล่าเรื่อง	-10.7522
ป้าย	-10.7524
ผมเสียใจ	-10.7525
只剩	-10.7526
空间	-10.7527
ให้คน	-10.7531
▁或者	-10.7531
เน่า	-10.7531
cu	-10.7538
Nick	-10.7539
自我	-10.7544
你一定	-10.7545
เตรียมตัว	-10.7546
弃	-10.7548
รอส	-10.7548
บอกเรา	-10.755
Serena	-10.7551
ق	-10.7551
วุ่นวาย	-10.7551
冻	-10.7551
復	-10.7551
柜	-10.7551
議	-10.7551
距离	-10.7551
▁วินาที	-10.7552
ทุกท่าน	-10.7552
你不想	-10.7555
没用	-10.7556
我懂	-10.7556
เข้าถึง	-10.7557
并没有	-10.7559
ผู้ชายคนนี้	-10.7561
买了	-10.7561
是嗎	-10.7561
ในรถ	-10.7561
的生命	-10.7564
找出	-10.7566
ในทาง	-10.7569
获得	-10.7572
ข่าวดี	-10.7575
บ้าเอ๊ย	-10.758
你一直	-10.7582
$	-10.7582
押	-10.7582
延	-10.7582
蛇	-10.7582
▁those	-10.7583
อิสระ	-10.7583
很高兴见到你	-10.7583
▁show	-10.7584
เล่นเกม	-10.759
มองไม่เห็น	-10.7592
尽力	-10.7592
问问	-10.7597
般	-10.76
ในตอนนี้	-10.76
วันนั้น	-10.7607
到达	-10.7609
银	-10.7609
从来没有	-10.761
检察官	-10.7613
講	-10.7613
บริเวณ	-10.7613
ทําไมคุณ	-10.7615
็อต	-10.7616
吉姆	-10.7617
承	-10.7617
▁ไมล์	-10.7617
for	-10.7618
你可	-10.762
祝你	-10.7622
ไม่สน	-10.7624
เสา	-10.7624
มีสิทธิ์	-10.7624
我说了	-10.7626
帝	-10.7632
公司的	-10.7634
เพราะเขา	-10.7637
換	-10.7645
Jeremy	-10.7645
บริหาร	-10.7645
拜託	-10.7645
周末	-10.7646
確定	-10.7647
去世	-10.7648
你爸爸	-10.7654
迪恩	-10.7658
ี่ยม	-10.766
也可以	-10.7661
▁ไปกันเถอะ	-10.7665
▁เวลา	-10.7665
ทําเพื่อ	-10.7669
侵	-10.7675
掩	-10.7676
นิกิต้า	-10.7677
นิวยอร์ก	-10.7677
เยอรมัน	-10.7677
春	-10.7677
潮	-10.7677
อดทน	-10.7678
▁If	-10.7678
เบลล่า	-10.7679
▁die	-10.7679
神父	-10.768
部队	-10.7687
斯先生	-10.7688
ว่าคุณจะ	-10.769
两天	-10.7694
เลส	-10.7697
布拉	-10.7707
浪费	-10.7707
贩	-10.7708
เติบโต	-10.7708
甘	-10.7708
จับกุม	-10.7709
从来没	-10.7709
停下来	-10.771
จูเลีย	-10.771
你那	-10.7713
启动	-10.7713
别想	-10.7715
▁這是	-10.7717
ให้เจ้า	-10.7717
เก่งมาก	-10.7719
是时候	-10.7719
大卫	-10.772
น้ําหนัก	-10.7721
但她	-10.7727
นายพล	-10.7729
เป็นพ่อ	-10.7734
ทุกคนที่	-10.7734
ซาก	-10.7735
เธชเธ	-10.7735
▁阿	-10.7736
คเกอร์	-10.7736
เป็นแบบนั้น	-10.7737
คุณกําลังจะ	-10.7738
秘	-10.7738
เออร์	-10.7739
แล้วเราจะ	-10.774
สะอาด	-10.774
วิจัย	-10.774
她就	-10.7741
学习	-10.7741
▁dead	-10.7744
อ้าว	-10.7749
ฉันเกลียด	-10.775
▁told	-10.7751
บุตร	-10.7751
ยี	-10.7751
幻	-10.7752
▁[	-10.7753
ก็ใช่	-10.7754
▁快走	-10.7755
会没事的	-10.7756
去拿	-10.7759
คุณรู้ไหม	-10.7759
มีปัญหาอะไร	-10.7763
永远不会	-10.7767
离开了	-10.7767
There	-10.7767
ผู้ช่วย	-10.7768
ob	-10.777
忠	-10.7772
ซิน	-10.7772
驾	-10.7772
Lisbon	-10.7772
田	-10.7772
踢	-10.7772
▁plan	-10.7773
就行	-10.7777
我女儿	-10.7779
原谅	-10.778
心情	-10.7781
พวกเขาก็	-10.7785
▁เขาก็	-10.7787
กรง	-10.7789
สํา	-10.779
รู้อะไร	-10.7792
ize	-10.7794
问我	-10.7797
要不	-10.7798
ก็ไม่รู้	-10.7801
vo	-10.7802
จนท	-10.7802
束	-10.7803
玉	-10.7804
绕	-10.7804
缩	-10.7804
裁	-10.7804
只不过	-10.7806
โมโห	-10.7807
来这	-10.7809
วิธีการที่	-10.781
天堂	-10.7812
放心	-10.7815
个小时	-10.7818
我希望你	-10.7821
เปน	-10.7827
อะไรก็ได้	-10.7827
ขวาง	-10.7831
只需要	-10.7832
马克	-10.7834
วัตถุ	-10.7836
語	-10.7836
ไปสู่	-10.7838
แห้ง	-10.7839
我感觉	-10.7842
▁own	-10.7843
聽到	-10.7844
用了	-10.7848
速度	-10.7849
ki	-10.7854
圣诞	-10.7854
เหมาะสม	-10.7855
性的	-10.7859
สิ่งนั้น	-10.7859
แพง	-10.786
社会	-10.7861
好处	-10.7863
瓜	-10.7868
เถื่อน	-10.7869
艇	-10.7869
伦敦	-10.7869
颗	-10.787
老鼠	-10.7872
关闭	-10.7873
▁14	-10.7873
รู้ตัว	-10.7873
▁听着	-10.7874
ี๊ย	-10.7874
จอดรถ	-10.7875
สตีฟ	-10.7878
มันจะไม่	-10.7878
ดารา	-10.788
ผมคง	-10.7881
几年	-10.7885
เธออยาก	-10.7885
มันแค่	-10.7885
เราจะทํา	-10.7887
มั้ยคะ	-10.7887
他们要	-10.789
เดฟ	-10.789
沒人	-10.789
我今天	-10.7893
ตเตอร์	-10.7895
บอกเขาว่า	-10.7897
เครื่องมือ	-10.7898
俄	-10.79
这么想	-10.79
48	-10.79
د	-10.79
那裡	-10.7901
ลักษณะ	-10.7901
โบราณ	-10.7901
甩	-10.7901
荡	-10.7901
費	-10.7901
辣	-10.7901
	-10.7901
汤姆	-10.7902
有机会	-10.7905
ตอบแทน	-10.7905
ลูซี่	-10.7906
เราแค่	-10.7909
▁24	-10.7915
บ้าอะไร	-10.7919
ฉันจะบอก	-10.7921
ตัวอย่าง	-10.7922
都可以	-10.7924
เชีย	-10.793
เป็นบ้า	-10.7931
触	-10.7932
อยากทํา	-10.7932
▁นี่เป็น	-10.7933
订	-10.7933
盛	-10.7934
ถั่ว	-10.7934
我马上	-10.7935
女巫	-10.7936
取消	-10.7936
那只	-10.7936
ครับผม	-10.7938
另	-10.7943
▁我们会	-10.7945
เอ้า	-10.7947
ผมเลย	-10.795
这一点	-10.7951
我本	-10.7954
ด่า	-10.7958
นุ	-10.7959
เพราะมัน	-10.7963
ที่เคย	-10.7965
际	-10.7965
เข็ม	-10.7966
策	-10.7966
ตํานาน	-10.7966
寫	-10.7966
頓	-10.7966
▁คุณนาย	-10.7966
น่าสงสาร	-10.7968
也不能	-10.7968
但如果	-10.7969
別人	-10.7975
ล้อม	-10.7976
这个世界	-10.7978
กี่คน	-10.7979
เกิดขึ้นกับ	-10.7982
ออกไปข้างนอก	-10.7986
มันกําลัง	-10.7989
ต่างกัน	-10.7989
放了	-10.7992
杀害	-10.7993
我來	-10.7994
จับตัว	-10.7997
有问题	-10.7998
账	-10.7999
Bobby	-10.7999
牵	-10.7999
融	-10.7999
复杂	-10.7999
▁made	-10.8
bi	-10.8001
หมู่	-10.8002
กินข้าว	-10.8005
สมบูรณ์แบบ	-10.8009
你认识	-10.8009
นักแสดง	-10.8012
想像	-10.8012
av	-10.8014
com	-10.8016
这地方	-10.8017
ได้ครับ	-10.8019
放手	-10.8023
พระเจ้าช่วย	-10.8024
จะให้ฉัน	-10.8026
说得	-10.8027
就不能	-10.8028
统	-10.8028
你干嘛	-10.8029
護	-10.803
叛	-10.8031
ญี่ปุ่น	-10.8032
ฝรั่งเศส	-10.8032
ออฟฟิศ	-10.8032
▁great	-10.8032
受害者	-10.8032
墨西哥	-10.8032
愈	-10.8032
เด็ดขาด	-10.8032
他不会	-10.8032
มั่นคง	-10.8033
都被	-10.8035
หมู่บ้าน	-10.8035
生存	-10.8035
au	-10.8036
ถือว่า	-10.8036
นานแล้ว	-10.8037
女士们	-10.8039
เน็ต	-10.8041
拉克	-10.8043
我不喜欢	-10.8046
道理	-10.8047
介意	-10.8048
เลยครับ	-10.8048
ฮ่า	-10.8049
ทดลอง	-10.8051
▁บาย	-10.8054
และความ	-10.8058
ชีพ	-10.8058
ขอบใจนะ	-10.8059
Jo	-10.806
ไอ้บ้า	-10.8062
เปรียบ	-10.8064
弗兰克	-10.8064
趁	-10.8064
伸	-10.8064
薄	-10.8064
Klaus	-10.8064
เป็นอิสระ	-10.8064
规矩	-10.8065
联邦	-10.8065
ไน	-10.8068
你给我	-10.807
▁17	-10.807
วันพรุ่งนี้	-10.8072
不见了	-10.8072
▁big	-10.8074
คือว่า	-10.8075
▁live	-10.8076
地点	-10.8076
มารับ	-10.8081
我先	-10.8082
ทําเรื่อง	-10.8082
给你们	-10.8084
来啊	-10.8085
▁ใช่แล้ว	-10.8086
这是你的	-10.8087
นายมี	-10.8087
ผ่า	-10.809
เป้น	-10.809
เธฅเธ	-10.8091
ผมรู้สึก	-10.8092
带你	-10.8093
豪	-10.8095
พาร์	-10.8096
โดยไม่มี	-10.8097
อยู่ข้างนอก	-10.8097
ขู่	-10.8097
涉	-10.8097
滿	-10.8097
裂	-10.8097
เช่นเดียวกับ	-10.8098
旁边	-10.8099
▁fucking	-10.8101
ร้ายแรง	-10.8102
มีเพื่อน	-10.8103
强大	-10.8104
Po	-10.8104
▁head	-10.8107
超过	-10.8107
瑞克	-10.8108
很清楚	-10.8114
更好的	-10.8116
接到	-10.8117
โส	-10.812
违	-10.813
บําบัด	-10.8131
鎮	-10.8131
สนามบิน	-10.8133
ไปจากที่นี่	-10.8136
ี่ยน	-10.8136
几个月	-10.8137
รักคุณ	-10.8138
尝试	-10.8139
หย่า	-10.8142
想让我	-10.8143
天才	-10.8148
รออยู่	-10.8149
ส่อง	-10.8149
有用	-10.815
带上	-10.8151
เอาแต่	-10.8155
ฉันเอา	-10.8156
ยินดีที่ได้	-10.8156
ที่จะทําให้	-10.8156
ขั้นตอน	-10.8157
เธอคือ	-10.816
เธฃเธฑเธ	-10.816
เล่	-10.8161
ong	-10.8162
結	-10.8163
壮	-10.8164
诱	-10.8164
Clay	-10.8164
ทารก	-10.8165
ตายไป	-10.8166
สัง	-10.8167
ที่นั่ง	-10.8167
ช่วยเธอ	-10.8169
你们两个	-10.8171
聊聊	-10.8171
你今天	-10.8175
对啊	-10.8178
你才	-10.8182
▁cha	-10.8184
รัด	-10.8185
สิ่งเดียวที่	-10.8189
ไว้แล้ว	-10.8195
赚	-10.8195
แฮร์รี่	-10.8197
⊿	-10.8197
ใช่สิ	-10.8198
เพื่ออะไร	-10.8199
辆车	-10.8201
สื่อ	-10.8203
女王	-10.8205
人家	-10.8208
某人	-10.8211
ซิล	-10.8216
มั้ยครับ	-10.8217
成员	-10.8218
อันที่จริง	-10.8218
好笑	-10.8218
ที่อื่น	-10.822
你为什么要	-10.822
ครั้งหนึ่ง	-10.8222
ยืนอยู่	-10.8226
▁happen	-10.8227
向我	-10.8227
尖	-10.8228
笨	-10.823
ล้ํา	-10.8231
价值	-10.8231
某种	-10.8232
เคารพ	-10.8235
เราอาจจะ	-10.8236
无关	-10.8236
เชน	-10.8241
ช่วยเขา	-10.8242
ผมชื่อ	-10.8243
ther	-10.8244
ตอนนี้ฉัน	-10.8245
บันได	-10.8245
你和我	-10.8245
投资	-10.8248
FFFF	-10.8252
พ่อฉัน	-10.8253
วิชา	-10.8253
演出	-10.8254
เก็บของ	-10.8255
▁after	-10.8264
抬	-10.8264
มหาวิทยาลัย	-10.8264
คุณอยากจะ	-10.8264
特殊	-10.8265
周围	-10.8266
那么做	-10.8267
็ง	-10.8267
แพร่	-10.8268
我从没	-10.8271
Max	-10.8272
注意到	-10.8282
ขยาย	-10.8285
没时间	-10.8286
我妈妈	-10.8287
错过	-10.8287
911	-10.8288
ok	-10.829
ก็ได้นะ	-10.829
ไพร	-10.8295
健	-10.8297
หิมะ	-10.8298
拆	-10.8298
Maybe	-10.8298
健康	-10.8298
โรงงาน	-10.8298
一段	-10.8301
เวียน	-10.8301
你懂	-10.8302
สเป	-10.8303
权利	-10.8305
很多人	-10.8306
ให	-10.8314
停车	-10.8316
ยังเป็น	-10.8316
尊重	-10.8316
建立	-10.8319
Did	-10.832
Be	-10.8329
任何事	-10.833
อยู่ห่าง	-10.833
สูตร	-10.8331
ใหม	-10.8332
嘉	-10.8332
寶貝	-10.8332
状态	-10.8332
มันอาจ	-10.8332
怎麼辦	-10.8332
亨利	-10.8332
จ้า	-10.8333
▁care	-10.8333
หนทาง	-10.8334
听到了	-10.8336
ชนิด	-10.8339
เชิง	-10.834
เรารู้	-10.8341
เตรียมพร้อม	-10.8342
ออน	-10.8344
池	-10.8347
รักเธอ	-10.8348
อย่าขยับ	-10.835
คิดอย่างนั้น	-10.8351
ทั้งหมดนี้	-10.8351
每天都	-10.8354
รู้จักกัน	-10.8356
恋	-10.8358
ขี่	-10.836
耐	-10.8361
育	-10.8364
ุ่น	-10.8365
冬	-10.8365
▁always	-10.8365
协议	-10.8366
显示	-10.8366
辦法	-10.8367
มุ่ง	-10.8367
很想	-10.8368
ให้แน่ใจว่า	-10.837
กับแม่	-10.8372
เดย์	-10.8378
จัดการเอง	-10.838
ตัวเล็ก	-10.8382
Just	-10.8383
你却	-10.8384
ไว้ก่อน	-10.8385
ฟอร์	-10.8386
▁won	-10.8387
我们该	-10.8392
เห็นเขา	-10.8394
ถ้าคุณไม่	-10.8394
เป็นมนุษย์	-10.8394
ลัด	-10.8397
仇	-10.8398
脉	-10.8399
裏	-10.8399
怎樣	-10.84
我无法	-10.84
暂时	-10.8402
我不會	-10.8403
ทันทีที่	-10.8405
山姆	-10.8406
เพิ่มขึ้น	-10.8407
น่าเบื่อ	-10.8411
嫌	-10.8411
ash	-10.8412
的秘密	-10.8413
就像是	-10.8414
是我的错	-10.8416
多年	-10.842
ทําหน้าที่	-10.8421
ไม่จําเป็น	-10.8424
节目	-10.8425
集中	-10.8426
ยัด	-10.8427
穿过	-10.8427
พวกเราต้อง	-10.843
去过	-10.8432
户	-10.8432
溜	-10.8434
แน่ใจนะ	-10.8435
我以为你	-10.8438
พูดคุยกับ	-10.8439
เธตเธขเธ	-10.8443
不不不	-10.8444
300	-10.8444
这里有	-10.8446
ตอ	-10.8446
ละก็	-10.8448
อะไรวะ	-10.8449
意识到	-10.8452
当然了	-10.8453
这条	-10.8453
พูดแบบนั้น	-10.8458
感觉到	-10.8459
ว่ามันจะ	-10.846
我们知道	-10.8461
เฟร	-10.8465
伏	-10.8468
惑	-10.8468
拦	-10.8468
bsp	-10.8468
翻译	-10.8468
实验	-10.8468
职业	-10.8469
ฉันกําลังจะ	-10.8469
里斯	-10.8475
โฟ	-10.8477
เป็นเกียรติ	-10.848
เราคง	-10.8486
เพราะเธอ	-10.8487
帮我们	-10.8487
这东西	-10.8491
ได้มั๊ย	-10.8493
看著	-10.8493
หอม	-10.8495
分鐘	-10.8498
责	-10.8501
仔	-10.8501
批	-10.8502
最重要的	-10.8502
ทฤษฎี	-10.8502
แฮน	-10.8502
角色	-10.8505
อยากให้ฉัน	-10.8507
只要你	-10.851
已经死了	-10.8511
互相	-10.8512
裤	-10.8512
ไปเที่ยว	-10.8513
以来	-10.8514
ทุกๆคน	-10.8517
尊	-10.8518
คุณบอก	-10.8519
ของเค้า	-10.8521
乎	-10.8523
lf	-10.8523
ไม่ต้องกังวล	-10.8525
นักข่าว	-10.8528
Okay	-10.8528
你他妈的	-10.8528
ไม่ถูก	-10.8532
พาเธอ	-10.8532
谁是	-10.8534
序	-10.8536
尺	-10.8536
振	-10.8537
แบลร์	-10.8537
勤	-10.8537
蜂	-10.8537
毕业	-10.8537
傻瓜	-10.8537
剩下的	-10.8538
警卫	-10.8538
会发生	-10.8542
จะหยุด	-10.8543
来这儿	-10.8544
最大的	-10.8548
กําลังมา	-10.8549
แหล่ะ	-10.8553
แย	-10.8555
喜欢你	-10.8556
จอน	-10.8558
แกะ	-10.8559
術	-10.8561
oh	-10.8561
一人	-10.8566
协	-10.857
ร่องรอย	-10.8571
恰	-10.8571
惡	-10.8571
绳	-10.8571
พ่อของคุณ	-10.8572
สุขภาพ	-10.8574
หน่อยได้มั้ย	-10.8575
ช์	-10.8576
อีเมล	-10.8577
准备好了吗	-10.8577
เกย์	-10.8578
จะไม่มีวัน	-10.8579
พก	-10.8582
รีด	-10.8584
是怎么回事	-10.8585
ดีไหม	-10.8587
ค่อยๆ	-10.8587
นายต้องการ	-10.8588
ลิฟ	-10.8596
และมี	-10.86
检	-10.8604
茨	-10.8606
please	-10.8606
喷	-10.8606
孔	-10.8606
桃	-10.8606
桶	-10.8606
▁turn	-10.8606
ราบ	-10.8606
เล็บ	-10.8608
เธอพูด	-10.8609
ทําได้ดี	-10.861
也能	-10.8612
▁fl	-10.8613
คาดหวัง	-10.8614
动作	-10.862
ค่ํา	-10.8621
要知道	-10.8623
這就是	-10.8624
หรือไม่ก็	-10.8626
▁In	-10.8626
期待	-10.8628
于是	-10.863
把那	-10.8631
的房子	-10.8633
เธอเป็นคน	-10.8634
瘋	-10.864
佐	-10.8641
娅	-10.8641
闲	-10.8641
Blair	-10.8641
截	-10.8641
黛	-10.8641
สปา	-10.8648
起来了	-10.8648
เอ็น	-10.865
ทรา	-10.865
เคยทํา	-10.8651
关掉	-10.8651
อาศัย	-10.8652
line	-10.8654
全世界	-10.8657
的身份	-10.8659
nn	-10.8662
ราชา	-10.8663
做个	-10.8665
ความผิดพลาด	-10.8668
很快就	-10.8669
ไปทํางาน	-10.867
ภาวะ	-10.8674
เชือก	-10.8676
▁better	-10.8676
旅馆	-10.8676
保险	-10.8677
参与	-10.8678
▁because	-10.8678
上帝啊	-10.8678
เดร	-10.8679
报警	-10.8679
จ่ายค่า	-10.8681
นอนหลับ	-10.8682
ตอนแรก	-10.8684
แตะต้อง	-10.8685
听说过	-10.8685
ดูนี่สิ	-10.8686
หมี	-10.8686
ina	-10.869
เป้า	-10.8691
แก๊ง	-10.8692
rew	-10.8694
▁Mr	-10.8695
อยากเห็น	-10.8696
เพนนี	-10.8697
ย้ายไป	-10.8703
นายไม่ได้	-10.8704
cc	-10.8708
วันหนึ่ง	-10.871
范	-10.8711
กีฬา	-10.8711
▁another	-10.8711
鹰	-10.8711
兴奋	-10.8711
▁wrong	-10.8711
ไอเดีย	-10.8712
uth	-10.8716
可怕的	-10.8718
ใกล้ๆ	-10.8718
無法	-10.8721
อ่อ	-10.8724
留下来	-10.8724
尽快	-10.8724
หลวง	-10.8724
มันบ้า	-10.8727
เทอ	-10.8734
ปีน	-10.8738
姐	-10.8739
โทรไป	-10.874
อยู่เลย	-10.8741
cle	-10.8741
ดําเนิน	-10.8742
域	-10.8744
擊	-10.8746
钢	-10.8746
艺术	-10.8746
监控	-10.8747
land	-10.8751
ห่างจาก	-10.8751
หลบหนี	-10.8752
ปั่น	-10.8755
ใครๆ	-10.8756
重要的	-10.8757
机场	-10.8759
อลิซ	-10.8761
Har	-10.8762
这是一个	-10.8762
可怜的	-10.8763
มั้ยล่ะ	-10.8764
的所有	-10.8765
ขอบคุณสําหรับ	-10.8765
็ต	-10.8771
▁让我	-10.8773
醒来	-10.8773
มันยัง	-10.8777
没见过	-10.8781
署	-10.8781
選	-10.8781
เท็ด	-10.8781
▁girl	-10.8781
▁nothing	-10.8781
สิ่งใด	-10.8782
บอนนี่	-10.8782
小心点	-10.8784
ขนม	-10.8785
แพน	-10.8786
โอ๊ย	-10.8786
เงา	-10.8801
演员	-10.8803
不要再	-10.8805
Ka	-10.8806
杀我	-10.8812
บ่าย	-10.8814
染	-10.8816
诚	-10.8816
ف	-10.8817
京	-10.8817
蛮	-10.8817
มันจบแล้ว	-10.8817
ric	-10.8818
客户	-10.8818
瞧瞧	-10.8818
国际	-10.8818
乔治	-10.8819
手指	-10.8821
无聊	-10.8823
进展	-10.8824
ถามว่า	-10.8824
我还没	-10.8826
的衣服	-10.8826
稍等	-10.8827
罗斯	-10.8829
黑人	-10.8829
เกี่ยวกับเรื่อง	-10.8829
ข้าว่า	-10.8836
หลังคา	-10.8838
很不错	-10.884
สูญ	-10.8842
ไม่พอ	-10.8842
不得不	-10.8842
ที่อยู่ใน	-10.8847
ฆ	-10.8848
cause	-10.8849
怎么可能	-10.8851
我们没有	-10.8852
你是怎么	-10.8852
คุณรู้มั้ย	-10.8853
婚姻	-10.8855
你要是	-10.8857
แค้น	-10.8859
ขนาดใหญ่	-10.8865
所以我们	-10.8866
还有什么	-10.8867
我在想	-10.8869
ร่ํา	-10.887
win	-10.8873
HR	-10.8873
听听	-10.8873
ไม่ค่ะ	-10.8875
เธฒเธขเธ	-10.8876
ซักหน่อย	-10.8886
謝	-10.8887
赏	-10.8888
นิสัย	-10.8888
俱乐部	-10.8888
吞	-10.8888
歇	-10.8888
驱	-10.8888
餐厅	-10.8889
นีย์	-10.8889
ank	-10.889
เหมาะกับ	-10.8893
血液	-10.8895
假装	-10.8896
我跟你	-10.8897
ไปพบ	-10.8902
我的名字	-10.8902
是最	-10.8904
手里	-10.8905
ทรี	-10.8907
ฉันไม่ชอบ	-10.8907
ึก	-10.8908
็อป	-10.8912
提到	-10.8912
shi	-10.8915
什么样的	-10.8916
กับลูก	-10.8916
去年	-10.8917
คบ	-10.8917
ํ	-10.8918
箱子	-10.8919
เมตร	-10.8919
light	-10.892
มีพลัง	-10.8921
ปัญญา	-10.8924
เผชิญ	-10.8924
顯	-10.8924
ตะโกน	-10.8924
贾	-10.8924
饰	-10.8924
ปารีส	-10.8924
ยาเสพติด	-10.8924
抢劫	-10.8925
โทรกลับ	-10.8926
玩具	-10.893
เด็กน้อย	-10.893
美國	-10.893
ลิลลี่	-10.893
看不到	-10.8933
叫做	-10.8935
神奇	-10.8935
มิติ	-10.894
rry	-10.8941
ผ่านมา	-10.8944
兒子	-10.8949
การศึกษา	-10.8953
อยากรู้ว่า	-10.8955
丢了	-10.8956
你有什么	-10.8957
末	-10.8959
ปีก	-10.896
สัมภาษณ์	-10.896
云	-10.896
歲	-10.896
爹	-10.896
Chappie	-10.896
晓	-10.896
滴	-10.896
窗户	-10.896
▁might	-10.8961
惊喜	-10.8961
迟到了	-10.8962
สีดํา	-10.8964
布莱	-10.8966
เธทเธญเธ	-10.8966
กําลังพูดถึง	-10.8968
เป็นแฟน	-10.8968
การทดสอบ	-10.8968
有所	-10.8969
他没	-10.8969
เจออะไร	-10.897
ใต้เท้า	-10.897
ทํางานกับ	-10.8974
อุ่น	-10.898
36	-10.8981
จบแล้ว	-10.8981
ame	-10.8982
ฉันได้รับ	-10.8984
做什麼	-10.8984
我的天啊	-10.8985
AN	-10.8985
ลูกชายของ	-10.8987
เวิร์	-10.8988
两个人	-10.8988
让开	-10.8991
很遗憾	-10.8994
盒子	-10.8996
ปอนด์	-10.8996
เบิร์ก	-10.8996
團	-10.8996
寸	-10.8996
忽	-10.8996
朱	-10.8996
仔细	-10.8996
巴黎	-10.8998
รู้สึกดี	-10.8998
เดี่ยว	-10.8999
激动	-10.9002
暴力	-10.9002
ฉันจะได้	-10.9003
สารภาพ	-10.9003
死人	-10.9004
ไม่ครับ	-10.9005
ฮุ	-10.9012
นายก็รู้	-10.9013
▁run	-10.9014
ress	-10.9021
没事吧	-10.9021
小组	-10.9024
运气	-10.9027
บอกพวกเขา	-10.9029
显	-10.9029
这只是	-10.9029
帐	-10.9032
Please	-10.9032
ปรารถนา	-10.9032
奧	-10.9032
節	-10.9032
หลายอย่าง	-10.9033
之外	-10.9033
คําสาป	-10.9034
醒醒	-10.9034
ชะตา	-10.9034
再也不	-10.9035
喝一杯	-10.9035
让它	-10.9035
เคท	-10.9035
ผมคิด	-10.9036
▁does	-10.9038
ว่าเกิดอะไรขึ้น	-10.9038
บ้าจริง	-10.904
ประหลาดใจ	-10.904
ผง	-10.9043
▁ทําให้	-10.9045
สตรี	-10.9047
นักบิน	-10.9047
เรื่องพวกนี้	-10.9055
พาเรา	-10.9056
也许是	-10.9059
จาน	-10.9063
พูดกัน	-10.9064
ติดอยู่	-10.9068
诗	-10.9069
親愛的	-10.9069
规则	-10.9069
ฮาน	-10.907
分析	-10.907
男友	-10.9072
พร้อมที่จะ	-10.9072
这位是	-10.9072
เชื่อใน	-10.9074
ใกล้ชิด	-10.9079
เอาน่า	-10.9079
นี่คือสิ่งที่	-10.9082
อยู่ด้วย	-10.9085
前进	-10.9086
ลอก	-10.9087
稍	-10.9088
ฝ่า	-10.9099
รีน	-10.91
把枪	-10.9104
债	-10.9105
诸	-10.9105
賣	-10.9105
傢伙	-10.9105
要走了	-10.9106
๊ย	-10.9109
ขเธนเน	-10.9111
理论	-10.9113
คิง	-10.9116
機會	-10.9116
มากนัก	-10.912
eck	-10.9124
สั่น	-10.9125
บ่น	-10.9126
ดิส	-10.9127
ตรงๆ	-10.913
是唯一	-10.9131
爱情	-10.9131
นู	-10.9133
เป็นผู้หญิง	-10.9134
เละ	-10.9137
สหาย	-10.9138
跟我们	-10.914
證	-10.9141
อะไรสักอย่าง	-10.9141
召	-10.9142
倫	-10.9142
庆祝	-10.9142
上尉	-10.9143
รุ่ง	-10.9146
ยังไงล่ะ	-10.9147
ซาร่า	-10.9148
对不对	-10.9148
หมดเลย	-10.9148
女友	-10.9149
สิ่งที่เรา	-10.9149
ข้าไม่ได้	-10.9151
พาเขา	-10.9153
An	-10.9155
งั้นหรือ	-10.9156
从不	-10.9157
เธดเน	-10.9158
ที่จะทํา	-10.9158
De	-10.9159
พัด	-10.9167
ix	-10.9168
我们走吧	-10.9172
得到了	-10.9174
就是个	-10.9174
会议	-10.9175
มาที่นี่เพื่อ	-10.9176
這兒	-10.9176
珀	-10.9178
ฉีก	-10.9179
捉	-10.9179
組	-10.9179
▁wait	-10.9179
พูดได้	-10.9179
เกราะ	-10.918
保護	-10.918
吸引	-10.9181
▁done	-10.9182
โถ	-10.9182
จํากัด	-10.9184
หุ้น	-10.9186
hy	-10.9187
sy	-10.9188
有人在	-10.9189
เมื่อเรา	-10.919
วิก	-10.9191
ดีกว่านี้	-10.9192
คุณต้องการอะไร	-10.9193
ไม่เลว	-10.9196
天呐	-10.9197
คุยด้วย	-10.9198
เธอร์	-10.9203
什麼事	-10.9205
鲜	-10.9206
ฉะนั้น	-10.9207
บ้าไปแล้ว	-10.9208
ล่อง	-10.9211
爷	-10.9215
酸	-10.9216
เมตตา	-10.9216
奔	-10.9216
yeah	-10.9216
彻底	-10.9216
没必要	-10.9218
ใดๆ	-10.9219
ต้องรีบ	-10.9221
ออส	-10.9222
ทําในสิ่งที่	-10.9223
สามคน	-10.9223
การกระทํา	-10.9224
Su	-10.9226
▁bad	-10.9226
ฉันอยากให้	-10.9227
ั้น	-10.923
想念	-10.9231
不容易	-10.9241
肖	-10.9251
業	-10.9253
สูบ	-10.9253
ย้ํา	-10.9253
斷	-10.9253
益	-10.9253
ซื่อสัตย์	-10.9253
辛苦	-10.9253
很漂亮	-10.9253
感染	-10.9254
你为什么不	-10.9254
เมื่อไร	-10.9254
一开始	-10.9255
搜查	-10.9255
เราไม่สามารถ	-10.9258
甜心	-10.9261
最后一次	-10.9262
德拉	-10.9264
กล่าวหา	-10.9266
วิค	-10.9266
ต้องการจะ	-10.9271
ลอส	-10.9271
还好吗	-10.9275
สูงสุด	-10.9276
让我来	-10.9278
โหด	-10.9279
趴下	-10.9279
เจอเขา	-10.9281
液	-10.9283
万一	-10.9285
บีบ	-10.9286
稳	-10.9288
汇	-10.929
带他	-10.929
你说过	-10.9291
守护	-10.9293
Ju	-10.9301
ลวง	-10.9304
กับเพื่อน	-10.9306
เท่ากับ	-10.9307
ๆๆๆ	-10.9312
มองฉัน	-10.9314
มากกว่านั้น	-10.9321
จด	-10.9324
我将	-10.9326
ฟาร์ม	-10.9326
เบื้อง	-10.9327
汁	-10.9327
輕	-10.9327
磁	-10.9327
เซนต์	-10.9328
之类的	-10.9328
ผา	-10.9329
ฉันจะฆ่า	-10.9331
一百	-10.9332
ตรวจดู	-10.9335
สักวัน	-10.9337
带到	-10.9338
จริงหรอ	-10.9341
pa	-10.9343
不同的	-10.9343
หรืออะไร	-10.9347
上校	-10.9348
可怕	-10.9351
แปร	-10.9357
เดีย	-10.9363
状	-10.9364
中情局	-10.9365
巾	-10.9365
圆	-10.9365
	-10.9365
脖子	-10.9365
卡车	-10.937
▁talking	-10.9372
冠军	-10.9373
但这	-10.9373
เขาไม่ใช่	-10.9374
คลอด	-10.9375
เรียบร้อยแล้ว	-10.9378
คืนนั้น	-10.9382
เครื่องดื่ม	-10.9383
วัว	-10.9383
ป่าว	-10.9384
ring	-10.9387
▁wanted	-10.9387
เราสองคน	-10.9387
โล่	-10.9391
เขาคือ	-10.9392
只想	-10.9394
แผนการ	-10.9397
难过	-10.9397
port	-10.9397
会死	-10.9397
แผ่นดิน	-10.9398
肯定会	-10.9399
盗	-10.94
Bonnie	-10.9402
ถ้วย	-10.9402
สโนว์	-10.9402
เก้าอี้	-10.9402
▁play	-10.9402
จับตาดู	-10.9402
กําลังมองหา	-10.9403
申请	-10.9403
ฉันน่าจะ	-10.9404
请求	-10.9406
听过	-10.9407
เพื่อจะ	-10.9409
来着	-10.9412
คอยดู	-10.9415
ไปเอง	-10.9416
ฉันจะให้	-10.942
你儿子	-10.942
ron	-10.9423
lly	-10.9424
骗子	-10.9424
不止	-10.9426
แหก	-10.9426
聚会	-10.943
ลูกสาวของ	-10.9431
正确的	-10.9432
เราทั้งคู่	-10.9435
还想	-10.9435
车上	-10.9436
min	-10.9436
ียร์	-10.9438
ตัวจริง	-10.9439
葬	-10.9439
巧克力	-10.944
โจนส์	-10.944
网络	-10.944
▁kid	-10.9442
好运	-10.9443
ความกลัว	-10.9443
ขัน	-10.9443
ไม่ได้ยิน	-10.9446
ให้ตายเถอะ	-10.945
เนท	-10.9455
เอาชนะ	-10.9457
ของชั้น	-10.9459
เร็วๆนี้	-10.9461
สัญญากับ	-10.9462
ริบ	-10.9464
ที่สุดเท่าที่	-10.9464
说的话	-10.9465
อืมม	-10.9469
oss	-10.9469
แสดงให้	-10.9474
太多了	-10.9476
尤	-10.9478
據	-10.9478
เทคนิค	-10.9478
偿	-10.9478
贷	-10.9478
骄傲	-10.9478
งดงาม	-10.9478
สอบสวน	-10.9479
桌	-10.9479
卫星	-10.9486
鼻子	-10.9486
ฉันนึกว่า	-10.9487
说服	-10.9488
ครา	-10.9489
ถ้ามี	-10.949
รู้อะไรไหม	-10.9492
小時	-10.9492
讓他	-10.9495
Ne	-10.9496
เข้าใกล้	-10.9497
不断	-10.9499
看得	-10.95
หาอะไร	-10.9505
ลืมไป	-10.9507
กันหมด	-10.9508
เอาหล่ะ	-10.9511
一辈子	-10.9516
厨房	-10.9516
实验室	-10.9517
宝宝	-10.9517
感兴趣	-10.9517
เหลือเชื่อ	-10.952
艾伦	-10.9522
ตามสบาย	-10.9527
สักนิด	-10.9529
ทุกสิ่งที่	-10.9531
一句	-10.9533
ริม	-10.9536
爱上	-10.9541
ดูนี่	-10.9544
เง	-10.9545
把我的	-10.9546
ฟังผม	-10.9547
ต้องใช้เวลา	-10.955
怎	-10.9551
仪	-10.9553
邦	-10.9554
รัม	-10.9554
สูท	-10.9554
飯	-10.9554
ศรัทธา	-10.9554
เหม็น	-10.9554
坠	-10.9554
慌	-10.9554
扭	-10.9554
耻	-10.9554
▁came	-10.9556
ซวย	-10.9557
更多的	-10.9557
最高	-10.9559
โน้น	-10.956
非常感谢	-10.9562
ผมรักคุณ	-10.9562
เพื่อนๆ	-10.9563
ปัก	-10.9569
ไหมคะ	-10.9569
รู้มั๊ย	-10.9573
เจสัน	-10.9575
ดรา	-10.9575
乐意	-10.9577
得太	-10.9578
我們會	-10.958
ความเห็น	-10.9587
กกี้	-10.9588
เป็นความลับ	-10.9588
我想知道	-10.9591
墓	-10.9592
ปฏิ	-10.9592
Chuck	-10.9592
เกาหลี	-10.9592
เสน่ห์	-10.9592
积	-10.9592
	-10.9592
สัญลักษณ์	-10.9592
	-10.9592
你真是	-10.9593
充满	-10.9594
看起來	-10.9595
เวที	-10.9596
อะไรคือ	-10.9598
ผมสามารถ	-10.9599
▁lot	-10.96
这个地方	-10.9601
ไม่อยากจะเชื่อ	-10.9603
มวย	-10.9605
ยากที่จะ	-10.9607
ฉันคิดถึง	-10.9614
诉	-10.9618
今早	-10.9618
ระวังตัว	-10.962
ต่อย	-10.9621
你爸	-10.9623
ink	-10.9625
มานานแล้ว	-10.9626
适	-10.9627
虎	-10.9628
เอามือ	-10.9628
เปลี่ยนใจ	-10.963
床上	-10.963
损	-10.963
่ย	-10.963
在此	-10.963
กําเนิด	-10.9631
ตาราง	-10.9634
Paul	-10.9634
ไฟไหม้	-10.964
战士	-10.964
เธฒเธก	-10.9641
杀掉	-10.9645
不管你	-10.9646
今年	-10.9647
แต่มันก็	-10.9648
คิดอะไร	-10.9648
เคีย	-10.965
你能不能	-10.965
ทุกครั้งที่	-10.9651
ถ้าเกิด	-10.9654
อยู	-10.9657
汽	-10.9662
手下	-10.9663
大楼	-10.9668
放开我	-10.9668
嘘	-10.9669
档案	-10.967
▁stay	-10.9671
克莱尔	-10.9672
你可能	-10.9674
压力	-10.9676
这可	-10.968
Tom	-10.968
คุณกําลังทําอะไร	-10.9683
ผมไม่คิดว่า	-10.9684
行李	-10.9689
ฉันต้องการให้คุณ	-10.9694
ทําอะไรกับ	-10.9698
内心	-10.9699
婆	-10.9699
แต่ข้า	-10.9704
磨	-10.9708
เลิศ	-10.9708
役	-10.9708
腐	-10.9708
หน้ากาก	-10.9708
▁mind	-10.9709
思考	-10.9709
事故	-10.971
ไปทําอะไร	-10.9711
คุณทําได้	-10.9713
你们要	-10.9716
亚当	-10.9718
一辆	-10.9719
เด็กผู้หญิง	-10.9723
哪兒	-10.9727
ผู้พัน	-10.9728
会让你	-10.9729
还得	-10.9733
ผอ	-10.9735
ณ์	-10.9739
非常好	-10.9744
乘	-10.9746
	-10.9747
倆	-10.9747
淡	-10.9747
焦	-10.9747
เพชร	-10.9747
อีกไหม	-10.9747
บุญ	-10.9748
偷了	-10.9748
สลาย	-10.9749
อลัน	-10.9749
有钱	-10.9749
ชั่วร้าย	-10.975
对我来说	-10.975
各种	-10.975
อันดับ	-10.975
ที่สามารถ	-10.9751
มันอยู่ใน	-10.9752
摧毁	-10.9752
救你	-10.9753
พันธ	-10.9754
变化	-10.9755
มันเป็นการ	-10.9757
年代	-10.9758
Bill	-10.9758
บางสิ่งบางอย่าง	-10.9761
ยังไงก็ตาม	-10.9761
的灵魂	-10.9771
丑	-10.9772
คุณพูดถูก	-10.9778
五分钟	-10.9779
去哪了	-10.978
บนโลก	-10.9782
来过	-10.9783
กระตุ้น	-10.9786
儡	-10.9786
琪	-10.9786
สํารวจ	-10.9786
弧	-10.9786
มินวู	-10.9787
幫助	-10.9787
单独	-10.9788
多久了	-10.9789
某些	-10.9789
ี่ย	-10.9792
等到	-10.9794
共同	-10.9794
▁whole	-10.9794
四个	-10.9796
呆在	-10.98
แคท	-10.9801
把这些	-10.9801
han	-10.9802
好吃	-10.9803
多少钱	-10.9803
不信	-10.9803
▁Da	-10.9808
พู	-10.9812
发誓	-10.9813
帮他	-10.9813
คกี้	-10.9814
เวรเอ้ย	-10.9815
เธฒเธข	-10.9816
我们将	-10.9819
มีอะไรที่	-10.9819
每一	-10.982
仁	-10.9825
郎	-10.9825
患	-10.9825
หัด	-10.9825
แอส	-10.9827
cent	-10.9827
มีความคิด	-10.9828
長官	-10.9828
ซ่อนตัว	-10.983
เรื่องทั้งหมด	-10.9835
เธอชอบ	-10.9836
讲话	-10.9837
อือ	-10.9838
只是想	-10.9838
โกะ	-10.9838
女生	-10.9839
漂亮的	-10.9839
จอห์นนี่	-10.9843
ที่ร้าน	-10.9844
เว้นแต่	-10.9845
而言	-10.9846
เป่า	-10.9849
เธอเคย	-10.9852
แปลง	-10.9856
ไปรับ	-10.9856
โง่ๆ	-10.9857
สักคน	-10.9858
穿上	-10.9858
能做到	-10.9859
一堆	-10.9862
แป๊บ	-10.9864
ศาสตร์	-10.9864
不客气	-10.9864
艺	-10.9864
晕	-10.9865
毀	-10.9865
缘	-10.9865
調	-10.9865
精彩	-10.9865
Because	-10.9867
ที่เหมาะสม	-10.9869
ติดคุก	-10.9871
จับเขา	-10.9872
ไม่เคยมี	-10.9874
ผมบอกคุณ	-10.9874
你愿意	-10.9882
移动	-10.9884
กําลังจะไป	-10.9884
อยู่ในนี้	-10.9884
好主意	-10.9887
什么都没	-10.9889
許	-10.989
下车	-10.9893
打破	-10.9893
29	-10.9895
เยอะเลย	-10.9895
ปีที่ผ่านมา	-10.9898
返	-10.9899
สบายใจ	-10.9899
每个人	-10.99
ที่สุดในโลก	-10.9901
哟	-10.9904
幅	-10.9904
渡	-10.9904
矮	-10.9904
領	-10.9904
ถ้าจะ	-10.9906
是哪	-10.9908
ib	-10.9909
发展	-10.9911
我们俩	-10.9912
艾莉	-10.9913
where	-10.9914
พร้อมจะ	-10.9917
เจ้าต้อง	-10.9918
ko	-10.9919
我得走了	-10.9922
每一个	-10.9924
คุณไม่เคย	-10.9925
的第一	-10.9929
让你们	-10.9929
ออฟ	-10.9932
千万	-10.9934
冠	-10.9935
ฉันแค่อยาก	-10.9938
谈话	-10.9938
เพื่อนบ้าน	-10.9941
ศาสตราจารย์	-10.9944
刷	-10.9944
孙	-10.9944
เช็ด	-10.9944
	-10.9944
ฟ้อง	-10.9944
หมอบลง	-10.9944
掌握	-10.9944
เดี๋ยวผม	-10.9945
ราง	-10.9947
ล้วน	-10.9948
你要我	-10.9948
ทับ	-10.9953
殿下	-10.9953
เราก็จะ	-10.9955
ทางนั้น	-10.9956
ทําบ้าอะไร	-10.9957
到底是	-10.9958
故	-10.996
被杀	-10.9969
vis	-10.997
不清	-10.9973
时代	-10.9973
來吧	-10.9973
危	-10.9973
คิดยังไง	-10.9976
我看见	-10.9978
增	-10.9982
你在这里	-10.9983
สะดวก	-10.9984
อพยพ	-10.9984
แชมป์	-10.9984
勾	-10.9984
杆	-10.9984
胃	-10.9984
舌	-10.9984
搭档	-10.9984
刺激	-10.9985
ยังเด็ก	-10.9987
เชื่อมต่อ	-10.9987
ผมเจอ	-10.9987
เรารู้ว่า	-10.9988
红色	-10.9988
เพล	-10.9995
之後	-10.9999
อย่างรวดเร็ว	-10.9999
กัส	-11.0001
过得	-11.0001
เชส	-11.0002
两年	-11.0003
的计划	-11.0003
ฉันสัญญา	-11.0007
คุณจะทําอะไร	-11.0008
没那么	-11.0008
fo	-11.0009
ถ้าเป็น	-11.0015
这就是你	-11.0017
บอกใคร	-11.0018
攻	-11.002
石头	-11.0021
絕	-11.0021
ตัวนี้	-11.0021
习	-11.0022
▁fuck	-11.0023
ลิสบอน	-11.0024
อัศวิน	-11.0024
亂	-11.0024
堪	-11.0024
崔	-11.0024
径	-11.0024
畫	-11.0024
諾	-11.0024
页	-11.0024
▁2-3	-11.0025
說過	-11.0025
承诺	-11.0025
公园	-11.0027
ตอบคําถาม	-11.0027
ตบ	-11.0029
地下	-11.0034
你只是	-11.0036
小说	-11.0037
逃走	-11.0038
船上	-11.0043
งั้นรึ	-11.0045
ลดลง	-11.0046
ขอร้องล่ะ	-11.0049
กําลังจะตาย	-11.0051
อย่างยิ่ง	-11.0052
ผู้จัดการ	-11.0055
ฉา	-11.0059
ของพระเจ้า	-11.006
天气	-11.0064
ฤ	-11.0064
犹	-11.0064
價	-11.0064
柔	-11.0064
設	-11.0064
罩	-11.0064
選擇	-11.0064
▁guess	-11.0064
gan	-11.0064
วิคเตอร์	-11.0065
主义	-11.0067
ด้วยล่ะ	-11.0069
警局	-11.007
▁doesn	-11.007
有过	-11.0071
กันหน่อย	-11.0071
ข้างนอกนั่น	-11.0072
学院	-11.0072
ous	-11.0073
เจอกับ	-11.0073
ของจริง	-11.0073
桌子	-11.0074
我本来	-11.0075
全是	-11.0075
呼叫	-11.0075
ชิ้นส่วน	-11.0075
ื่	-11.0076
ครั้งแรกที่	-11.0079
认真	-11.0081
学会	-11.0083
我已經	-11.0086
ร่วมกับ	-11.0089
กองกําลัง	-11.009
卡拉	-11.009
วันหยุด	-11.009
ไม่ได้ผล	-11.0093
จําได้ไหม	-11.0093
艘	-11.0095
伍	-11.0099
屎	-11.0101
เมื่อคืนนี้	-11.0102
คริสต์มาส	-11.0104
พระเยซู	-11.0104
倾	-11.0104
碞	-11.0104
建筑	-11.0104
ัญ	-11.0105
เลี้ยว	-11.0105
เรื่องจริง	-11.0106
เกิดเรื่อง	-11.0106
ลึกลับ	-11.0107
กันและกัน	-11.0109
จะดีกว่า	-11.0109
มั่น	-11.011
อีกเหรอ	-11.0111
ปิดประตู	-11.0113
van	-11.0113
ทั้งชีวิต	-11.0115
ลงไปใน	-11.0115
好奇	-11.0118
und	-11.0123
การเปลี่ยนแปลง	-11.0126
Then	-11.0128
没说	-11.0128
的唯一	-11.013
部门	-11.013
ได้กลิ่น	-11.0131
ซิส	-11.0134
นั่นใคร	-11.0135
后悔	-11.0135
คุณได้ยิน	-11.0136
มากกว่าที่	-11.0136
我的手	-11.0137
อย่างเช่น	-11.0143
燃	-11.0144
吊	-11.0145
夹	-11.0145
聯	-11.0145
娶	-11.0145
碼	-11.0145
粗	-11.0145
▁coming	-11.0145
世纪	-11.0145
午餐	-11.0146
กดดัน	-11.0146
接触	-11.0147
จะทําอย่างไร	-11.015
วิลล์	-11.0151
庭	-11.0154
一套	-11.0154
▁For	-11.0154
要是你	-11.0162
คุยกับคุณ	-11.0163
你还好吧	-11.0163
เขาอาจ	-11.0164
จะเกิดอะไรขึ้น	-11.0164
ผู้หญิงคนนั้น	-11.0164
ของมนุษย์	-11.017
嫌犯	-11.0171
รู้ได้ไง	-11.0172
点东西	-11.0175
bra	-11.0175
มันเกิดอะไรขึ้น	-11.0176
人民	-11.0176
賽	-11.0182
不是说	-11.0185
栋	-11.0185
เถียง	-11.0185
剪	-11.0185
扁	-11.0185
結束	-11.0186
ใครก็ตามที่	-11.0186
ถล่ม	-11.0186
กําลังทําอะไร	-11.0187
一個人	-11.0187
อยู่ใต้	-11.02
清理	-11.0203
เล่นงาน	-11.0207
หลวงพ่อ	-11.0215
atch	-11.0216
付出	-11.0222
构	-11.0224
挥	-11.0224
แขวน	-11.0225
ผมรู้ว่าคุณ	-11.0226
รวบรวม	-11.0226
แท็กซี่	-11.0226
歷	-11.0226
盒	-11.0226
ยกโทษให้	-11.0226
▁enough	-11.0226
ฝุ่น	-11.0226
คุณรีส	-11.0227
決定	-11.0227
โหดร้าย	-11.0227
ทั้งสองคน	-11.0228
แก้ปัญหา	-11.023
นางฟ้า	-11.023
ผมเพิ่ง	-11.0231
ความมืด	-11.0234
不久	-11.0236
ไม่ได้รับ	-11.0238
แดด	-11.024
ได้ข่าว	-11.024
เช่นนี้	-11.0243
สําคัญมาก	-11.0244
และผมก็	-11.0244
มีคําถาม	-11.0247
白人	-11.0251
你俩	-11.0252
小时候	-11.0252
คิดผิด	-11.0254
ในเมื่อ	-11.0254
屋子	-11.0256
เธฃเธฐเธ	-11.0261
หง	-11.0262
เธกเธฒเธ	-11.0263
问题是	-11.0266
ขนมปัง	-11.0267
ฝรั่ง	-11.0267
鹿	-11.0267
芙	-11.0267
zz	-11.0268
สีขาว	-11.0269
ฝันร้าย	-11.0272
เป็นหนี้	-11.0273
ขนาดไหน	-11.0273
我不需要	-11.0274
เริ่มจาก	-11.0279
เป็นหมอ	-11.028
โรส	-11.0282
ไก	-11.0283
ผมเป็นคน	-11.0284
ไม่ว่าอะไร	-11.0286
找到她	-11.0287
อย่างน้อยก็	-11.0288
เพื่อช่วย	-11.0288
เป็นเรื่องที่	-11.029
ไม่มีอะไรที่	-11.0292
บอกความจริง	-11.0295
day	-11.0297
jo	-11.0297
没有什么	-11.0299
怎么知道	-11.0304
เป็นสิ่ง	-11.0306
โดยการ	-11.0306
既	-11.0308
叶	-11.0308
臉	-11.0308
คุกคาม	-11.0308
▁understand	-11.0308
棋	-11.0308
意大利	-11.0308
Caroline	-11.0308
進來	-11.0309
ฟุตบอล	-11.0309
เป็นคนทํา	-11.0309
บรรยาย	-11.0309
只有一个	-11.0309
注射	-11.031
เบ็น	-11.0312
就知道	-11.0317
项目	-11.0317
เกิดมา	-11.0318
ตลอดชีวิต	-11.0321
แวะมา	-11.0332
เมอ	-11.0332
มีปืน	-11.0334
一支	-11.034
出口	-11.034
贱人	-11.0344
我当时	-11.0347
的信息	-11.0348
เข้าใจว่า	-11.0349
จังหวะ	-11.0349
培	-11.035
宰	-11.035
爷爷	-11.035
ดวงจันทร์	-11.035
เพศ	-11.0351
▁trying	-11.0353
的人都	-11.0353
เข้าไปข้างใน	-11.0353
ated	-11.0354
团队	-11.0355
มันเหมือนกับ	-11.0356
แด่	-11.0357
แดนนี่	-11.0357
尔顿	-11.0358
ลิซ่า	-11.0361
จั	-11.0367
▁fun	-11.0368
ผมไม่ใช่	-11.037
ติก	-11.0372
นัน	-11.0372
เราต้องทํา	-11.0374
วิท	-11.0374
เป็นส่วนหนึ่งของ	-11.0377
ไม่ค่อยดี	-11.0378
凭	-11.0381
ประทับใจ	-11.0383
提出	-11.0383
พวกมันจะ	-11.0386
伟	-11.039
คลุม	-11.039
เป็นครั้งแรก	-11.0391
นิยม	-11.0391
诊	-11.0391
ระเบียบ	-11.0391
纵	-11.0391
工厂	-11.0392
厕所	-11.0392
เคาะ	-11.0393
ช้าๆ	-11.0394
ซัน	-11.0401
ร็อค	-11.0403
พอได้แล้ว	-11.0404
ปปี้	-11.0407
ของเล่น	-11.0407
ชายคนนี้	-11.0408
ว่าเขาจะ	-11.0408
ฉันรักคุณ	-11.0413
得多	-11.0418
สละ	-11.0423
เขาชอบ	-11.0424
เด็กนั่น	-11.0426
ชิด	-11.0428
เวท	-11.0428
世界上	-11.0428
幫你	-11.0428
ความเร็ว	-11.0429
同事	-11.0432
El	-11.0433
ทักทาย	-11.0433
มหัศจรรย์	-11.0433
宴	-11.0433
挣	-11.0433
撕	-11.0433
踏	-11.0433
ชื่นชม	-11.0433
สาธารณะ	-11.0433
ผมไม่สามารถ	-11.0434
lan	-11.0434
印象	-11.0435
法国	-11.0435
▁getting	-11.0435
困难	-11.0438
เควิน	-11.0439
ถามอะไร	-11.0441
นายยัง	-11.0441
悔	-11.0443
ความจํา	-11.0443
根本没	-11.0446
两次	-11.0446
37	-11.0449
来找我	-11.0449
เคยเจอ	-11.045
似	-11.045
空气	-11.045
คือคนที่	-11.045
ใช้งาน	-11.0457
Mo	-11.0464
ตีน	-11.0464
▁Sa	-11.0464
就该	-11.0465
真的是	-11.0467
มีอะไรเกิดขึ้น	-11.0468
นายคง	-11.047
ร็อบ	-11.0473
舒	-11.0474
ศิลปะ	-11.0475
โสเภณี	-11.0475
挨	-11.0475
ขบวน	-11.0475
導	-11.0475
義	-11.0475
รถบรรทุก	-11.0475
邮件	-11.0475
ยืด	-11.0475
藏在	-11.0477
สีฟ้า	-11.0477
早餐	-11.0478
一小时	-11.0479
แกต้อง	-11.0479
记者	-11.0479
เชื่อผม	-11.0481
闭上	-11.0485
全球	-11.0489
ข้ารู้	-11.0491
能把	-11.0494
โผล่	-11.0495
受不了	-11.0496
我得去	-11.0497
的東西	-11.0501
对她	-11.0502
释	-11.0503
大部分	-11.0503
เอน	-11.0504
浴	-11.0516
อัจฉริยะ	-11.0517
盲	-11.0517
Chris	-11.0517
	-11.0517
ศักดิ์สิทธิ์	-11.0517
同学	-11.0517
โชคดีนะ	-11.052
การตัดสินใจ	-11.052
เดิมพัน	-11.0521
มาหาฉัน	-11.0521
▁happened	-11.0521
他死了	-11.0523
不过是	-11.0524
ละลาย	-11.0529
ler	-11.053
แค่อยาก	-11.053
บ้าเอ้ย	-11.0532
ท่านหญิง	-11.0532
不明	-11.0533
专家	-11.0533
เกีย	-11.0533
发出	-11.0534
这话	-11.0535
รับสาย	-11.0543
เหลืออยู่	-11.0543
มันแย่	-11.0545
ขอฉัน	-11.0547
保护你	-11.0548
▁men	-11.0548
qui	-11.0549
เธณ	-11.0556
เธออาจจะ	-11.0556
หลีก	-11.0558
สิ่งมีชีวิต	-11.0558
เว็บไซต์	-11.0559
จู่โจม	-11.0559
俊	-11.0559
委	-11.0559
	-11.0559
祝你好运	-11.0559
ぐ或	-11.0559
掩护	-11.056
ไทเลอร์	-11.056
你覺得	-11.0561
วิทยา	-11.0563
กับดัก	-11.0565
罪犯	-11.0566
不用担心	-11.0567
碰到	-11.0568
贝拉	-11.0571
พ่อของเธอ	-11.0574
把自己	-11.0574
谁会	-11.0578
主要	-11.0588
เซ็	-11.059
很高興	-11.0597
fr	-11.0598
ผมต้องไป	-11.0599
妓	-11.0599
中士	-11.06
植	-11.06
On	-11.06
ขีด	-11.06
奏	-11.06
â	-11.0601
珠	-11.0601
糊	-11.0601
ตอบสนอง	-11.0601
姬	-11.0601
	-11.0601
ขุน	-11.0601
联络	-11.0601
ให้อภัย	-11.0601
สุภาพสตรี	-11.0601
ตายแน่	-11.0601
复仇	-11.0602
这可是	-11.0606
大脑	-11.0607
แมท	-11.0607
มีประโยชน์	-11.0608
如果他们	-11.061
在那边	-11.061
一片	-11.0611
เธฒเธฃเธ	-11.0611
สันติ	-11.0614
หญิงสาว	-11.0616
感谢你	-11.0617
有些人	-11.0618
▁shit	-11.0619
没有任何	-11.0619
我也想	-11.0625
闭	-11.0627
在意	-11.0627
ถึงแม้	-11.0627
อะไรก็ตาม	-11.0627
被捕	-11.0629
แมลง	-11.0631
อยู่กับคุณ	-11.0633
咪	-11.0636
เอฟ	-11.0637
别碰	-11.0637
和我一起	-11.0638
放开	-11.0639
75	-11.0641
ตต์	-11.0643
讨	-11.0643
并非	-11.0643
เข้มแข็ง	-11.0644
侧	-11.0644
夸	-11.0644
泄	-11.0644
缓	-11.0644
แจ๋ว	-11.0644
ather	-11.0644
或許	-11.0645
พุ่ง	-11.0647
的日子	-11.0647
ร้านอาหาร	-11.0647
杰瑞	-11.0649
方便	-11.065
เป็นอะไรไป	-11.0651
重复	-11.0651
释放	-11.0652
ทะ	-11.0653
แฮะ	-11.0656
AR	-11.0657
你是在	-11.0659
ร่วมงาน	-11.0659
面包	-11.0663
真不敢相信	-11.0664
มันเป็นสิ่งที่	-11.0664
很有趣	-11.0665
你也是	-11.0666
แสดงว่า	-11.0667
老公	-11.0667
森林	-11.0668
ใส	-11.0669
ถ้าแก	-11.067
德国	-11.0671
丢下	-11.0672
lar	-11.0676
ครอง	-11.0679
公路	-11.0681
访	-11.0686
揭	-11.0686
權	-11.0686
诅咒	-11.0686
党	-11.0686
怀孕	-11.0687
熟悉	-11.0687
谎言	-11.0687
妓女	-11.0688
工具	-11.0689
แต่ไม่ใช่	-11.069
ไปเรื่อยๆ	-11.069
เขาเคย	-11.069
บิลลี่	-11.0691
很开心	-11.0691
ตรงข้าม	-11.0695
都行	-11.0696
看見	-11.0697
ew	-11.0698
เมย์	-11.0699
ส่งข้อความ	-11.07
ว่ายน้ํา	-11.07
ื่น	-11.0701
麦克斯	-11.0702
成為	-11.0703
不通	-11.0711
那我就	-11.0719
最好的朋友	-11.0719
ริช	-11.0719
คนละ	-11.0724
态	-11.0727
他只是	-11.0727
ทุกที	-11.0727
杂	-11.0728
附	-11.0729
酱	-11.0729
揍	-11.0729
ชดใช้	-11.073
出什么事了	-11.073
擅长	-11.0731
ธนู	-11.0731
其實	-11.0731
蓝色	-11.0731
ผนัง	-11.0732
离婚	-11.0732
เสียอีก	-11.0733
ลูกเรือ	-11.0734
试过	-11.0736
ทาย	-11.0736
留言	-11.0737
女兒	-11.0737
ทีละ	-11.074
ตัวน้อย	-11.0743
การโจมตี	-11.0748
弄到	-11.0753
rm	-11.0755
ลูกน้อง	-11.0756
เรล	-11.0762
แม่ของฉัน	-11.0762
เดี๋ยวนี้เลย	-11.0762
ช่วงเวลาที่	-11.0763
แทบจะ	-11.0766
替你	-11.0767
วันก่อน	-11.0769
不敢相信	-11.0769
มีแฟน	-11.0769
เซ็กซี่	-11.0772
浮	-11.0772
麗	-11.0772
อิจฉา	-11.0772
ทําตามที่	-11.0773
มอร์แกน	-11.0773
▁else	-11.0773
变态	-11.0774
พันธ์	-11.0774
ตลอดกาล	-11.0774
บังคับให้	-11.0775
赢得	-11.0777
กับผู้หญิง	-11.0778
录像	-11.0781
▁killed	-11.0782
เธณเน	-11.0784
見過	-11.0786
เงียบๆ	-11.0787
除非你	-11.0789
หายไปไหน	-11.0793
▁star	-11.0795
เปร	-11.0795
เธฅเธฑเธ	-11.0796
ภรรยาของ	-11.0797
ได้ยินมาว่า	-11.0798
เพียงแต่	-11.0799
一点都不	-11.08
一千	-11.0802
แวะ	-11.0802
ความหมาย	-11.0803
舒服	-11.0805
不肯	-11.0807
ja	-11.0809
美国人	-11.081
都沒	-11.0811
หาตัว	-11.0811
▁comp	-11.0813
นิดเดียว	-11.0813
ิ้ล	-11.0814
太久	-11.0815
ขอรับ	-11.0815
▁brother	-11.0816
靈	-11.0816
DNA	-11.0816
	-11.0816
耳朵	-11.0816
乖乖	-11.0816
ath	-11.0818
เซ็นต์	-11.0818
一路	-11.0819
娜娜	-11.0819
แลกเปลี่ยน	-11.0819
幹什麼	-11.082
เวีย	-11.0823
我的儿子	-11.0824
你的名字	-11.0827
กรีน	-11.0827
引起	-11.0827
它們	-11.0828
เราอาจ	-11.0834
但现在	-11.0839
รู้แล้วว่า	-11.0841
可怜	-11.0841
รวมทั้ง	-11.0845
罢了	-11.085
อ้อม	-11.085
เพียงพอ	-11.085
老头	-11.0851
肚子	-11.0851
的能力	-11.0853
Frank	-11.0859
ผึ้ง	-11.0859
▁course	-11.0859
▁everything	-11.0859
▁family	-11.0859
爱尔兰	-11.0859
	-11.0859
หืม	-11.0859
▁move	-11.086
依然	-11.086
汤米	-11.0862
คุณได้รับ	-11.0862
พันล้าน	-11.0863
AT	-11.0867
เทศ	-11.0867
pr	-11.0871
表情	-11.0872
重点	-11.0872
ทาร์	-11.0872
don	-11.0875
你以前	-11.0876
เพศสัมพันธ์	-11.0878
伙伴	-11.0879
楼上	-11.088
มานั่ง	-11.0883
▁pri	-11.0885
做事	-11.0887
伤心	-11.0888
学家	-11.0888
好多了	-11.0889
你好啊	-11.0897
มันช่าง	-11.0898
广	-11.09
เราพบ	-11.0901
一面	-11.0902
คณะ	-11.0903
級	-11.0903
ผ่อนคลาย	-11.0903
หลอกลวง	-11.0904
ได้เลยว่า	-11.0904
环境	-11.0904
奎恩	-11.0904
如果她	-11.0908
มัส	-11.0908
独自	-11.0909
聊天	-11.0911
打败	-11.0911
งู	-11.0914
ยุ่งยาก	-11.0915
Gu	-11.0916
ล็อก	-11.0917
消失了	-11.0917
ที่คุณต้องการ	-11.0917
小女孩	-11.0922
ถ้าเจ้า	-11.0923
ท่านพ่อ	-11.0931
ไม่ได้ตั้งใจ	-11.0931
บาน	-11.0934
得很好	-11.0939
สารเลว	-11.094
留着	-11.0942
都不会	-11.0942
進去	-11.0943
มีบางอย่างที่	-11.0943
那晚	-11.0946
阻	-11.0946
碍	-11.0947
仿	-11.0947
裸	-11.0947
อักษร	-11.0947
เพี้ยน	-11.0947
哀	-11.0947
钩	-11.0947
间谍	-11.0947
驾驶	-11.0947
總統	-11.0947
电梯	-11.0947
指挥	-11.0948
รึป่าว	-11.0948
设备	-11.0948
稳定	-11.0949
▁found	-11.0949
尽量	-11.0951
วิ่งหนี	-11.0953
ไวท์	-11.0954
无所谓	-11.0954
至于	-11.0955
ใช	-11.0958
为止	-11.0959
นักฆ่า	-11.0961
โย่	-11.0964
และเขาก็	-11.0964
47	-11.0966
มีเพียง	-11.0969
สาป	-11.0972
ผมเชื่อว่า	-11.0973
ที่โรงเรียน	-11.0978
แน่นอนว่า	-11.0981
เจ้าสาว	-11.0987
เฉย	-11.099
企	-11.099
会不会	-11.0991
ข่าวลือ	-11.0991
led	-11.0991
婴儿	-11.0991
左右	-11.0992
专业	-11.0992
干得好	-11.0994
装置	-11.0995
ตั้น	-11.0995
มีชื่อ	-11.0996
หลอน	-11.0998
露西	-11.1
伤害你	-11.1002
布兰	-11.1003
产生	-11.1003
เบิล	-11.1006
จะบอกให้	-11.1008
ลิ่ง	-11.1009
Cass	-11.1011
อยากให้คุณ	-11.1012
สระ	-11.1013
时光	-11.1013
怎么能	-11.1014
พูดถึงเรื่อง	-11.1014
意识	-11.1016
32	-11.1019
总之	-11.1021
ขอให้คุณ	-11.1031
เป็นเพื่อนกัน	-11.1031
事业	-11.1034
荣	-11.1034
เชื่อมโยง	-11.1035
谱	-11.1035
ตกหลุมรัก	-11.1035
練	-11.1035
搞砸了	-11.1035
แม้กระทั่ง	-11.1035
支援	-11.1036
泰勒	-11.1038
อีกต่อไปแล้ว	-11.1041
护士	-11.1041
ใครเป็นคน	-11.1042
แน่ใจนะว่า	-11.1046
maybe	-11.1046
替我	-11.1047
อัพ	-11.1048
清醒	-11.1049
用力	-11.1052
๊ง	-11.1052
เมื่อวานนี้	-11.1054
希望你能	-11.1056
ฉันไม่เห็น	-11.1059
งานแต่ง	-11.1061
是个好	-11.1062
你他妈	-11.1065
ฉันต้องการให้	-11.1065
有何	-11.1067
ใครคือ	-11.1067
再見	-11.1068
ฉันทําได้	-11.1068
ye	-11.1068
坏人	-11.107
头上	-11.1078
Jimmy	-11.108
啰	-11.108
填	-11.108
玻璃	-11.108
衛	-11.108
观察	-11.108
วิเคราะห์	-11.1081
信仰	-11.1081
งั้นสิ	-11.1081
เจมี่	-11.1083
ฉันไม่สน	-11.1086
ต่อรอง	-11.109
แห่งนี้	-11.1091
灵魂	-11.1097
ไม่เหลือ	-11.1103
แสดงความ	-11.1107
ข้าต้อง	-11.1109
จะกลายเป็น	-11.1111
ทั่วโลก	-11.1114
该走了	-11.1115
无辜	-11.1118
很忙	-11.1119
เมล	-11.1122
ka	-11.1123
年轻人	-11.1123
險	-11.1124
บัญชา	-11.1124
เจรจา	-11.1124
阁	-11.1124
ประหาร	-11.1124
邻居	-11.1124
保佑	-11.1124
分享	-11.1126
นั่นแหล่ะ	-11.1129
หักหลัง	-11.113
คุณคงไม่	-11.1131
别管	-11.1131
ทําอาหาร	-11.1138
lic	-11.114
不重要	-11.1148
美女	-11.1151
คุ้ม	-11.1156
ผมพยายาม	-11.1158
ล่ม	-11.1167
จับมือ	-11.1167
務	-11.1168
ح	-11.1169
井	-11.1169
侍	-11.1169
壓	-11.1169
極	-11.1169
樓	-11.1169
習	-11.1169
眔	-11.1169
里瑟先生	-11.1169
ภาระ	-11.117
珍妮	-11.117
看看这个	-11.1171
免费	-11.1171
三天	-11.1172
废话	-11.1173
Howard	-11.1177
คราวหน้า	-11.1178
街上	-11.1179
rk	-11.1186
加上	-11.1189
vel	-11.119
ความสงบ	-11.1197
เเก	-11.1198
你在做什么	-11.1201
发生了什么事	-11.1202
原谅我	-11.1203
ครึ่งหนึ่ง	-11.1204
承受	-11.1206
也就是	-11.1208
我是說	-11.121
的目的	-11.121
▁Th	-11.1211
อยุ่	-11.1214
มหาสมุทร	-11.1214
產	-11.1214
▁minute	-11.1214
缝	-11.1214
罐	-11.1214
▁walk	-11.1214
颜色	-11.1214
拳击	-11.1216
เอ่ย	-11.1217
ล่วงหน้า	-11.1217
ติดเชื้อ	-11.1218
เฮอร์	-11.122
保安	-11.1221
จับได้	-11.1221
變成	-11.1221
莎拉	-11.1228
เสียหาย	-11.1232
ไม่ใช่ความผิด	-11.1234
บลู	-11.1236
ฝา	-11.1239
▁being	-11.1239
อีกหน่อย	-11.1243
我可不想	-11.1246
那孩子	-11.1246
ไม่มีเหตุผล	-11.1246
跟他们	-11.1247
兴	-11.1256
渐	-11.1259
í	-11.1259
แมชชีน	-11.1259
▁blood	-11.1259
乾	-11.1259
佣	-11.1259
哼	-11.1259
Lily	-11.1259
欢迎来到	-11.1259
คุณพระช่วย	-11.126
เชลดอน	-11.126
hu	-11.126
ลาออก	-11.1261
ผู้ใหญ่	-11.1264
เราคุยกัน	-11.1265
จริงหรือ	-11.1266
▁must	-11.1268
เป็นความจริง	-11.1268
ทางเดิน	-11.1272
มากแค่ไหน	-11.1274
ชาร์	-11.1275
พี่เลี้ยง	-11.1275
如今	-11.1277
แน่ะ	-11.1278
และมันก็	-11.1284
请问	-11.1285
บนถนน	-11.1288
绝不	-11.1289
救救我	-11.129
ผมรู้จัก	-11.1292
來說	-11.1294
ER	-11.1296
活下来	-11.1297
拒	-11.1302
เเจ็ค	-11.1305
乳	-11.1305
棍	-11.1305
▁close	-11.1305
大多数	-11.1305
เบาะแส	-11.1305
หนุ่มๆ	-11.1305
โทมัส	-11.1305
展示	-11.1306
ท้องฟ้า	-11.1306
降落	-11.1308
失陪	-11.1309
指望	-11.1309
ญา	-11.131
乐队	-11.1313
มันจะต้อง	-11.1313
ward	-11.1317
没看到	-11.132
有一些	-11.132
การตายของ	-11.1321
หน้าอก	-11.1323
ปลดปล่อย	-11.1325
แตกต่างกัน	-11.1327
你在干嘛	-11.1331
เรียกมันว่า	-11.1334
ยัน	-11.1335
gra	-11.1342
มองดู	-11.1343
惜	-11.1346
of	-11.1346
把钱	-11.1347
願	-11.1349
คอล	-11.1349
ได้ยินไหม	-11.1349
农	-11.1349
熱	-11.135
	-11.135
练习	-11.1351
沒什麼	-11.1351
คุ้มค่า	-11.1351
เธอน่าจะ	-11.1352
顺便	-11.1352
จําได้ว่า	-11.1353
星星	-11.1356
ถึงแม้ว่า	-11.1357
然而	-11.1359
早安	-11.1359
อยู่กับฉัน	-11.136
谁都	-11.1362
ไม่ได้ทําอะไร	-11.1362
เข้าท่า	-11.1366
ให้โอกาส	-11.1368
那是我的	-11.1369
วาร์	-11.1374
เราต้องหา	-11.1375
ชาน	-11.1376
ใส่ใจ	-11.1377
Rick	-11.1377
过程	-11.1378
▁dad	-11.1378
如果你们	-11.1378
โทนี่	-11.1383
盯	-11.1385
รอดชีวิต	-11.139
▁god	-11.1391
เคมี	-11.1391
มาทางนี้	-11.1393
黎	-11.1394
ประสงค์	-11.1395
续	-11.1396
ة	-11.1396
ทะเบียน	-11.1396
ปัจจุบัน	-11.1396
汗	-11.1396
測	-11.1396
麥	-11.1396
ปกปิด	-11.1396
▁demon	-11.1398
เด่น	-11.1403
แล้วเราก็	-11.1404
MAN	-11.1407
อะไรซักอย่าง	-11.1411
内部	-11.1416
ใส่ชุด	-11.1417
飞船	-11.1419
จะได้เห็น	-11.142
ดูแลตัวเอง	-11.1425
此事	-11.143
当地	-11.1436
ที่จริงแล้ว	-11.1436
女性	-11.1438
已经被	-11.1438
符	-11.1441
สหรัฐ	-11.1442
สองวัน	-11.1442
นะจ๊ะ	-11.1442
น่าทึ่ง	-11.1442
มะเร็ง	-11.1442
湿	-11.1442
疫	-11.1442
瘾	-11.1442
笼	-11.1442
赐	-11.1442
計劃	-11.1442
kin	-11.1443
威廉	-11.1443
ดาวเทียม	-11.1443
遗憾	-11.1445
เสียสละ	-11.1445
谈过	-11.145
▁br	-11.1451
ถูกทําลาย	-11.1452
比利	-11.1455
รถคัน	-11.1456
精神病	-11.1463
立即	-11.1463
จับมัน	-11.1464
จะเกิด	-11.1466
เดือนก่อน	-11.147
嫁给	-11.1475
เธณเธ	-11.1475
我看到了	-11.1478
的命令	-11.1478
为此	-11.1479
一个月	-11.1479
迎	-11.1488
บริจาค	-11.1489
หญ้า	-11.1489
税	-11.1489
萊	-11.1489
เพอร์ซี่	-11.1491
奇迹	-11.1491
這不是	-11.1496
很明显	-11.1497
我丈夫	-11.1498
能看到	-11.1499
黑色	-11.1499
ชื่อว่า	-11.1501
去见	-11.1502
流血	-11.1502
เธถเธ	-11.1504
这张	-11.1506
เหน	-11.1511
姐妹	-11.1512
的母亲	-11.1512
了不起	-11.1513
โน่น	-11.1516
不愿意	-11.1518
ตอนที่คุณ	-11.1521
更加	-11.1522
他们不会	-11.1522
เทน	-11.1523
มันจะทําให้	-11.1525
真心	-11.1526
จุดจบ	-11.153
เราต้องไปแล้ว	-11.1531
从来不	-11.1531
how	-11.1533
靜	-11.1535
บรรยากาศ	-11.1535
ผลกระทบ	-11.1535
เหยียบ	-11.1535
▁leave	-11.1535
夢	-11.1535
妥	-11.1535
旋	-11.1535
	-11.1535
บุกรุก	-11.1536
ชัยชนะ	-11.1536
避免	-11.1536
สนุกกับ	-11.1537
入侵	-11.1538
大叔	-11.1538
布鲁	-11.154
ชี่	-11.1542
议员	-11.1542
ตื่นขึ้นมา	-11.1544
害死	-11.1545
迈克尔	-11.1546
打電話	-11.1547
มีอะไรเหรอ	-11.1553
คุณสองคน	-11.1555
อ่านหนังสือ	-11.1556
รวมกัน	-11.1558
贝尔	-11.156
ฎ	-11.1565
我們得	-11.1565
▁idea	-11.1566
ลเลอร์	-11.157
เราทําได้	-11.157
อยู่รอด	-11.1573
เหมือนกับว่า	-11.1581
กระต่าย	-11.1582
兰尼斯特	-11.1582
厚	-11.1582
泉	-11.1582
遥	-11.1582
เอ้อ	-11.1584
เงินสด	-11.1584
ฉันจะต้อง	-11.1586
射击	-11.1587
内容	-11.1587
短信	-11.1588
ฟิต	-11.159
保姆	-11.159
杀了她	-11.1591
开火	-11.1591
没人会	-11.1592
เพราะฉะนั้น	-11.1593
กําลังพยายาม	-11.1596
ไม่พอใจ	-11.1602
两位	-11.1603
แล้วเขาก็	-11.1606
ซึ่งเป็น	-11.1606
看见了	-11.1607
ทําใจ	-11.1608
ผู้ก่อการร้าย	-11.161
ะตะฐ	-11.1612
小镇	-11.1616
ไม่กลัว	-11.1616
เสียงดัง	-11.1617
我们正在	-11.1618
แย่ง	-11.1626
เพื่อปกป้อง	-11.1627
港	-11.1628
辈	-11.1629
侠	-11.1629
喬	-11.1629
踩	-11.1629
อีธาน	-11.1629
แบรน	-11.1629
อาคาร	-11.1629
มหาลัย	-11.1629
杂志	-11.1629
สํารอง	-11.1629
怎麼回事	-11.1631
混乱	-11.1633
มืออาชีพ	-11.1634
戴维	-11.1635
ขวัญ	-11.164
42	-11.1641
พวกเราทุกคน	-11.1641
ตั้งใจจะ	-11.1644
เราจําเป็นต้อง	-11.1646
ชาวบ้าน	-11.1648
在這兒	-11.1651
总会	-11.1652
ขณะนี้	-11.1652
尼亚	-11.1654
ควัน	-11.1655
อ่าง	-11.1664
กั้น	-11.1664
หนังสือพิมพ์	-11.1667
อยู่ข้างใน	-11.167
不能让	-11.1671
เผย	-11.1674
เคราะห์	-11.1674
查到	-11.1674
อย่างแรก	-11.1675
怨	-11.1676
竞	-11.1676
抛	-11.1676
ศาสนา	-11.1676
捐	-11.1676
旗	-11.1676
穷	-11.1676
芝加哥	-11.1676
询	-11.1676
วิถี	-11.1676
▁three	-11.1676
	-11.1676
ยุนซอง	-11.1676
怎麽	-11.1676
ทุกเรื่อง	-11.1677
เธญเธขเน	-11.1677
大声	-11.1677
Will	-11.1678
▁someone	-11.1679
远离	-11.1679
การผ่าตัด	-11.168
ว่างเปล่า	-11.1682
▁fine	-11.1683
ที่เกิดเหตุ	-11.1684
โหล	-11.1685
明星	-11.1689
交往	-11.169
ระบาย	-11.1703
จัก	-11.1704
ค่าย	-11.1705
中间	-11.171
เป็นหัวหน้า	-11.1713
哪裡	-11.1714
อะไรก็ตามที่	-11.1715
รู้เรื่องนี้	-11.1718
Yes	-11.1722
遣	-11.1723
ทะเลาะกัน	-11.1723
เซรีน่า	-11.1723
▁knew	-11.1723
铃	-11.1723
小伙子	-11.1723
สะสม	-11.1725
带你去	-11.1726
看一下	-11.1726
狗屎	-11.1727
ทะลุ	-11.1728
什么都不	-11.1728
夜晚	-11.173
结局	-11.173
คุณจะได้รับ	-11.1731
吉米	-11.1732
แปล	-11.1732
บอกผมว่า	-11.1732
ถึงเวลาที่	-11.1733
毁掉	-11.1735
จะทําลาย	-11.1736
ผู้กอง	-11.1737
覺	-11.1739
凯特	-11.174
มีสิทธิ	-11.1741
土地	-11.1742
的房间	-11.1746
รู้อะไรมั้ย	-11.1748
站起来	-11.1752
▁eye	-11.1753
การควบคุม	-11.1765
เทียม	-11.177
姑	-11.1771
脫	-11.1771
Jax	-11.1771
ปริศนา	-11.1771
ศตวรรษ	-11.1771
蹤	-11.1771
驗	-11.1771
เอียน	-11.1771
外星人	-11.1771
治癒	-11.1771
叛徒	-11.1772
อยากเจอ	-11.1772
แว่น	-11.1773
nie	-11.1774
คนพวกนั้น	-11.1776
有效	-11.1778
让我看看	-11.1779
ดวงตา	-11.1779
▁hard	-11.1782
十二	-11.1782
我不在乎	-11.1782
huh	-11.1787
เป็นความผิดของ	-11.1788
เล่นกับ	-11.1789
เชื่อม	-11.1791
Some	-11.1792
ซาร์	-11.1793
司机	-11.1799
我只能	-11.18
玩笑	-11.1801
เราได้รับ	-11.1804
ddy	-11.1808
ควรทํา	-11.1809
退出	-11.1811
พื้นฐาน	-11.1816
哎	-11.1817
รู้ไว้	-11.1818
庆	-11.1818
痕	-11.1819
币	-11.1819
敵	-11.1819
潘	-11.1819
華	-11.1819
โชคชะตา	-11.1819
อบอุ่น	-11.1819
在干什么	-11.182
礼拜	-11.182
รสชาติ	-11.182
เครื่องจักร	-11.182
做到了	-11.1821
幫忙	-11.1821
海盗	-11.1821
查尔斯	-11.1822
amp	-11.1823
เขาไม่เคย	-11.1824
以後	-11.1832
城里	-11.1833
▁looking	-11.1833
รู้วิธี	-11.1835
大约	-11.1839
คงไม่ได้	-11.184
做爱	-11.1841
事實	-11.1844
itch	-11.1845
หล่น	-11.1846
Chi	-11.1849
是指	-11.1852
绝不会	-11.1856
ไม่ต้องมา	-11.1856
ทราย	-11.1856
的身体	-11.1858
หยุดก่อน	-11.1863
陷	-11.1864
我跟你说	-11.1865
小鬼	-11.1866
链	-11.1867
ج	-11.1867
เยอะแยะ	-11.1867
洛杉矶	-11.1867
燒	-11.1867
猴	-11.1867
紅	-11.1867
衡	-11.1867
蹲	-11.1867
逗	-11.1867
วิดีโอ	-11.1867
首歌	-11.1871
永远都	-11.1871
还不知道	-11.1871
เทส	-11.1874
คุณจะไปไหน	-11.1875
实话	-11.1875
ไม่รู้เรื่อง	-11.1876
ush	-11.1878
พวกเขาต้องการ	-11.188
ไฟล์	-11.188
har	-11.188
的父母	-11.1883
说出来	-11.1884
不太好	-11.1884
一本	-11.1885
ทําให้เกิด	-11.1887
▁many	-11.1888
在场	-11.1889
ในกระเป๋า	-11.189
琼斯	-11.1891
能否	-11.1892
合法	-11.1893
ซึม	-11.1894
这才是	-11.1895
กําลังรอ	-11.1897
ที่ดิน	-11.19
เธญเธฐเน	-11.1903
份工作	-11.1906
爵	-11.1909
舞会	-11.191
ืด	-11.191
ฉันไม่อยากให้	-11.191
ปุ	-11.1912
คุณก็รู้ว่า	-11.1912
逮	-11.1915
趕	-11.1915
騙	-11.1915
à	-11.1915
園	-11.1915
筁	-11.1915
99	-11.1916
细节	-11.1916
ไนท์	-11.1918
对你来说	-11.1918
转移	-11.1919
一趟	-11.1919
警报	-11.192
รับรู้	-11.1923
ox	-11.1923
脸上	-11.1925
ไหล่	-11.1925
ious	-11.1928
误会	-11.1928
我刚刚	-11.1929
ตนเอง	-11.193
然后呢	-11.1933
狼人	-11.1933
ฉันก็จะ	-11.1939
จําได้มั้ย	-11.1942
行尸	-11.1942
ชีส	-11.1944
แบรด	-11.1945
我愿意	-11.1946
และเธอก็	-11.1948
我明白了	-11.195
享	-11.1952
ught	-11.1953
็อค	-11.1955
กลม	-11.1957
佳	-11.1959
勞	-11.1964
หุ่นยนต์	-11.1964
โฆษณา	-11.1964
僅	-11.1964
辩	-11.1964
递	-11.1964
Mike	-11.1964
范围	-11.1964
我相信你	-11.1965
願意	-11.1966
玩意儿	-11.1967
代价	-11.1967
ประทาน	-11.197
งานปาร์ตี้	-11.1972
กันดีกว่า	-11.1973
▁Se	-11.1975
艘船	-11.1975
ต้องรู้	-11.1977
สร้างความ	-11.1979
อย่างนึง	-11.198
发生什么事了	-11.1996
懂吗	-11.1996
ber	-11.2
ฉันหมายความว่า	-11.2
分钟后	-11.2
ถามคําถาม	-11.2003
สอด	-11.2005
วางไว้	-11.2005
交给我	-11.2005
ump	-11.2006
讓我們	-11.2006
醫	-11.2008
ทําธุรกิจ	-11.2009
ฉันอยากได้	-11.201
发生什么事	-11.2011
ฉันบอกคุณ	-11.2011
กรม	-11.2011
ไม่มีใครรู้	-11.2012
ตราบใดที่	-11.2013
納	-11.2013
觀	-11.2013
惩罚	-11.2013
แองเจล	-11.2013
浪漫	-11.2013
ยินดีต้อนรับสู่	-11.2014
农场	-11.2014
บรรดา	-11.2015
注定	-11.2018
别忘了	-11.2019
那时候	-11.202
-=	-11.2023
克鲁	-11.2025
เรียกร้อง	-11.2026
เก่าๆ	-11.2027
原本	-11.2028
的手机	-11.2028
Carl	-11.2029
บ่อยๆ	-11.2032
▁inter	-11.2033
抓住他	-11.2036
總是	-11.2038
รังสี	-11.2039
ดูหนัง	-11.2043
聽說	-11.2054
มานี่สิ	-11.2055
很奇怪	-11.2057
ฑ	-11.2057
该怎么做	-11.2059
欺	-11.2061
壁	-11.2061
จอร์แดน	-11.2062
不可思议	-11.2062
挤	-11.2062
磅	-11.2062
聖	-11.2062
錄	-11.2062
▁baby	-11.2062
อวด	-11.2062
持续	-11.2062
เข็มขัด	-11.2062
นิวเคลียร์	-11.2062
经验	-11.2062
หลายๆ	-11.2067
纪念	-11.2067
จรวด	-11.2067
ทําไมเธอถึง	-11.2068
网站	-11.2068
满意	-11.207
Thank	-11.2071
เดินทางไป	-11.2075
รู้จักเขา	-11.2076
嫁	-11.2076
ไม่ควรจะ	-11.2078
รวมถึง	-11.2078
传送	-11.2079
把它们	-11.2082
最后一个	-11.2082
大伙	-11.2087
แนะนําให้	-11.2087
ผู้เชี่ยวชาญ	-11.2088
可恶	-11.2089
的任务	-11.2089
การประชุม	-11.2093
จุน	-11.2094
รู้ดีว่า	-11.2097
猜猜	-11.2098
พ่อคะ	-11.2099
ทุกๆอย่าง	-11.2104
ปเปอร์	-11.2104
的一部分	-11.2104
ฉาย	-11.2108
袭	-11.211
估	-11.211
ฮิล	-11.2111
แคทเธอรีน	-11.2111
惊讶	-11.2111
革	-11.2111
毁灭	-11.2111
完毕	-11.2112
坚强	-11.2113
Steve	-11.2113
อย่างไรก็ตาม	-11.2113
勇气	-11.2114
เป็นปี	-11.2115
ครั้งสุดท้ายที่	-11.2116
เครื่องหมาย	-11.2116
正如	-11.2117
裡面	-11.2121
黑鬼	-11.2123
注意力	-11.2123
ฉันก็แค่	-11.2124
เลขที่	-11.2125
最爱	-11.2131
▁best	-11.2137
好不好	-11.214
ซัง	-11.2142
互	-11.2145
ความเคารพ	-11.2153
是认真的	-11.2157
โน่	-11.2159
一颗	-11.2159
เด็ด	-11.216
อาชญากร	-11.216
統	-11.216
ซึ้ง	-11.216
券	-11.216
沿	-11.216
滾	-11.216
聞	-11.216
ถัดไป	-11.216
เหลวไหล	-11.216
▁damn	-11.216
塊	-11.216
紀	-11.216
職	-11.216
贼	-11.216
引擎	-11.216
ภาษาอังกฤษ	-11.2161
แฟ้ม	-11.2162
区域	-11.2163
我做不到	-11.2164
นับถือ	-11.2166
ถ้าคุณต้องการ	-11.2166
加州	-11.2168
หมัด	-11.2168
ปาร์ค	-11.2169
同样的	-11.2173
ข้าต้องการ	-11.2173
ออกนอก	-11.2174
ซิตี้	-11.2174
背后	-11.2177
格雷	-11.218
เลอ	-11.2188
การเมือง	-11.2188
คนร้าย	-11.219
กําลังหา	-11.2192
我的家人	-11.2193
ทอร์	-11.2194
อํา	-11.2195
为什么会	-11.2197
เบอ	-11.2197
คาถา	-11.2201
บอร์น	-11.2208
lock	-11.2209
卓	-11.221
ดิวิชั่น	-11.221
แบล็ค	-11.221
贏	-11.221
Hello	-11.221
那種	-11.2211
แม็ก	-11.2211
แจ่ม	-11.2212
ย่อม	-11.2212
มวล	-11.2212
肖恩	-11.2213
ปกครอง	-11.2214
พูดอย่างนั้น	-11.2214
คุยกับเขา	-11.2215
克拉克	-11.2215
คดีนี้	-11.2216
▁bring	-11.2217
โรว์	-11.2218
เธฃเธนเน	-11.222
หายนะ	-11.2223
ความเป็นจริง	-11.2223
▁deal	-11.2223
大哥	-11.2225
帮会	-11.2227
โล่ง	-11.2236
แบก	-11.2239
หลายครั้ง	-11.2239
สามารถทําได้	-11.224
波特	-11.2242
活下去	-11.2242
ท่านประธาน	-11.2243
ction	-11.2244
ที่ฉันเคย	-11.225
สว่าง	-11.2252
ฉันเชื่อว่า	-11.2253
ฉันเดาว่า	-11.2259
竟	-11.2259
เป็นตํารวจ	-11.226
奋	-11.226
艦	-11.226
抛弃	-11.226
แล้วค่อย	-11.2261
ขี่ม้า	-11.2261
报仇	-11.2261
ลําดับ	-11.2262
ควรจะเป็น	-11.2262
เล็ง	-11.2263
ดวงอาทิตย์	-11.2263
好么	-11.2265
算了吧	-11.2265
กระแส	-11.2265
该怎么	-11.2266
口袋	-11.2268
ป่ะ	-11.2273
ความร้อน	-11.2276
กี่ครั้ง	-11.2278
也不知道	-11.2281
分子	-11.2282
87	-11.2286
โผล่มา	-11.2286
พาเธอไป	-11.2293
看來	-11.2293
นานมาก	-11.2293
不怕	-11.2296
เธฃเธฒเธ	-11.2302
肩	-11.231
ขี้ขลาด	-11.231
▁together	-11.231
俗	-11.231
跪	-11.231
驚	-11.231
ㄆ	-11.231
尤其是	-11.231
爱丽丝	-11.231
▁change	-11.2311
เฟล	-11.2311
职责	-11.2311
คุ้น	-11.2312
保證	-11.2312
巨大的	-11.2312
ฝันดี	-11.2312
เต็มไปหมด	-11.2313
เห็นหน้า	-11.2313
指控	-11.2314
规定	-11.2315
rick	-11.2315
之王	-11.2316
胜利	-11.2317
ชะ	-11.2318
บาล	-11.2318
อนุ	-11.2321
当然可以	-11.2323
เธฃเธฒ	-11.2326
ดัก	-11.2326
哈哈	-11.2327
ใหญ่กว่า	-11.233
性命	-11.2332
▁late	-11.2333
能听到	-11.2334
你还记得	-11.2336
เรียง	-11.2337
พ่อหนุ่ม	-11.2339
บนเตียง	-11.2343
โดม	-11.2344
อีกไม่นาน	-11.2344
เชื่อมั่น	-11.2345
道格	-11.2347
一点也不	-11.2349
ense	-11.2351
▁both	-11.2354
ฉันจะเอา	-11.2361
ตุ๊กตา	-11.2361
คณะกรรมการ	-11.2361
忧	-11.2361
炒	-11.2361
钮	-11.2361
仪式	-11.2362
队伍	-11.2362
宣布	-11.2364
สุดสัปดาห์	-11.2365
แก้ตัว	-11.2368
เบีย	-11.2369
จดจํา	-11.2372
ว่าเธอจะ	-11.2373
非法	-11.2374
科学家	-11.2374
交流	-11.2374
带我去	-11.2376
拿去	-11.2377
ให้เสร็จ	-11.2377
เร็วกว่า	-11.2381
ale	-11.2384
ึ่ง	-11.2385
ไม่รอด	-11.2387
这段	-11.2391
ไม่น่าเชื่อ	-11.2394
迈克	-11.2395
เล่าให้	-11.2395
ผมแค่อยาก	-11.2396
阿尔	-11.2397
หรือไม	-11.2397
ult	-11.24
่วง	-11.24
สิทธิทั้งหมด	-11.2401
ไปข้างหน้า	-11.2401
จะบอกคุณ	-11.2402
罚	-11.2412
刮	-11.2412
ประสบความสําเร็จ	-11.2412
说不定	-11.2412
วัยรุ่น	-11.2412
เพิ่มเติม	-11.2413
จิตวิญญาณ	-11.2413
ผลัก	-11.2414
บอกลา	-11.2415
ปิดบัง	-11.2415
一段时间	-11.2415
机密	-11.2415
บิ๊ก	-11.2416
ทําไมเราไม่	-11.2418
你母亲	-11.2421
รุก	-11.2421
ที่โรงพยาบาล	-11.2425
สํานึก	-11.2428
บนเรือ	-11.2439
生病	-11.2441
แค่อยากจะ	-11.2444
ผมหวังว่า	-11.2444
前往	-11.2447
一分钟	-11.2449
ical	-11.245
ตอนที่ผม	-11.245
เอามันไป	-11.2454
จะมาถึง	-11.2455
แล้วเธอก็	-11.2458
ยังไม่มี	-11.2461
采	-11.2461
别说了	-11.2462
寶	-11.2463
辨	-11.2463
Katherine	-11.2463
พฤติกรรม	-11.2463
เทคโนโลยี	-11.2463
庄	-11.2463
抚	-11.2463
拘	-11.2463
辑	-11.2463
情绪	-11.2465
报纸	-11.2465
唱歌	-11.2465
法庭	-11.2466
處理	-11.2467
客气	-11.2475
ได้ยินมั้ย	-11.2478
哇哦	-11.2483
才行	-11.2486
看起来像	-11.2488
สองครั้ง	-11.249
到时候	-11.2493
幻想	-11.2495
裤子	-11.25
斯汀	-11.2505
แทนที่จะ	-11.2506
รับโทรศัพท์	-11.2506
now	-11.2508
โทษนะ	-11.2509
援	-11.2511
แค่ต้องการ	-11.2512
盟	-11.2514
กลืน	-11.2514
ข่มขืน	-11.2514
เชลด้อน	-11.2514
嚴	-11.2514
枚	-11.2514
西班牙	-11.2514
难以置信	-11.2514
เอมิลี่	-11.2514
愤怒	-11.2514
สวด	-11.2514
▁open	-11.2514
ปัญญาอ่อน	-11.2515
▁job	-11.2515
感謝	-11.2515
搜索	-11.2516
地球上	-11.2516
โชคร้าย	-11.2516
实现	-11.2517
ฟิลด์	-11.2517
晚饭	-11.2518
夏天	-11.2518
ถนัด	-11.2519
语言	-11.252
ฉันสบายดี	-11.252
บอกแล้วไง	-11.2526
很危险	-11.2527
▁Dr	-11.2529
เรียบ	-11.2532
เจ๊	-11.254
瞭解	-11.2543
迷人	-11.2545
น่ารักมาก	-11.2546
ุ้ง	-11.2547
และคุณก็	-11.2548
นัย	-11.255
▁war	-11.255
ON	-11.2553
เธกเธตเธ	-11.2564
ชื่อเสียง	-11.2565
ทรัพย์	-11.2565
เจเรมี่	-11.2565
เปื้อน	-11.2565
屈	-11.2565
薪	-11.2565
ฮัด	-11.2566
俄罗斯	-11.2566
สุสาน	-11.2566
คุกเข่า	-11.2566
视频	-11.2566
去那里	-11.2566
导致	-11.2567
สถานะ	-11.2569
吓到	-11.2569
มีผล	-11.2569
มัย	-11.257
难以	-11.2572
One	-11.2576
ขอขอบคุณ	-11.2576
โอ๊ะ	-11.2578
ที่ฉันพูด	-11.2578
ทางเดียว	-11.2579
นักเขียน	-11.258
ปอด	-11.2583
报复	-11.2591
▁str	-11.2592
เร็วสิ	-11.2593
แอร์	-11.2595
▁Sp	-11.2596
รัน	-11.2598
ต่อเนื่อง	-11.261
กอน	-11.2612
一定很	-11.2612
钻	-11.2613
ฮัม	-11.2614
否	-11.2616
奴	-11.2617
ประเมิน	-11.2617
▁yourself	-11.2617
慕	-11.2617
腔	-11.2617
茜	-11.2617
▁left	-11.2617
Wan	-11.2617
ฟัก	-11.2618
談談	-11.2618
ชั่วคราว	-11.2618
出色	-11.262
ไอ้โง่	-11.2622
角度	-11.2622
ผู้ชายคนนั้น	-11.2625
ung	-11.2625
皇后	-11.2625
能理解	-11.2627
整個	-11.2628
后果	-11.263
那条	-11.2631
死掉	-11.2633
บ๊อบ	-11.264
การความช่วยเหลือ	-11.2649
偷走	-11.265
โตขึ้น	-11.2652
我不得不	-11.2653
โร่	-11.266
หึ	-11.2662
公开	-11.2662
เฝ้าดู	-11.2665
▁miss	-11.2665
เมื่อก่อน	-11.2666
ทุบ	-11.2667
岸	-11.2667
มันไม่ใช่เรื่อง	-11.2668
督	-11.2668
丟	-11.2669
劇	-11.2669
湾	-11.2669
ขืน	-11.2669
ถ้ํา	-11.2669
▁remember	-11.2669
叉	-11.2669
預	-11.2669
歡迎	-11.2669
ท้องถิ่น	-11.267
พรสวรรค์	-11.267
ฝากข้อความ	-11.2671
房间里	-11.2672
สัตว์ประหลาด	-11.2672
ร่วง	-11.2674
สเปน	-11.2675
发明	-11.2676
اي	-11.2676
耐心	-11.2676
เกรย์	-11.2676
ฉันสาบาน	-11.2676
ทําอะไรลงไป	-11.2684
ความเสี่ยง	-11.2685
很容易	-11.2688
เข้าคุก	-11.2688
เป็นปัญหา	-11.2692
ไม่รู้เหมือนกัน	-11.2694
维克	-11.2695
รู้สึกผิด	-11.27
就好像	-11.2702
ไม่ต้องกลัว	-11.2705
ตัวประกัน	-11.2709
更糟	-11.2719
Tra	-11.272
辞	-11.2721
障	-11.2721
述	-11.2722
ด็อกเตอร์	-11.2722
ปิศาจ	-11.2722
ภาษี	-11.2722
หวาดกลัว	-11.2722
▁wife	-11.2722
丫	-11.2722
搅	-11.2722
紫	-11.2722
龄	-11.2722
หลีกเลี่ยง	-11.2722
สีเขียว	-11.2723
送给	-11.2723
เป็นโรค	-11.2723
希望能	-11.2724
ไม่ไหวแล้ว	-11.2731
无所	-11.2732
不公平	-11.2733
ไรอัน	-11.2736
น่าเศร้า	-11.2737
IN	-11.2738
โหลด	-11.2738
站住	-11.2744
还需要	-11.2746
底下	-11.2748
แลว	-11.2751
มีเพศสัมพันธ์	-11.2752
ทช์	-11.2756
很简单	-11.2761
เห็นได้ชัดว่า	-11.2762
อนุญาตให้	-11.2763
谎	-11.2768
他的名字	-11.277
三十	-11.277
灾	-11.2771
จันทร์	-11.2772
堅	-11.2774
沃尔特	-11.2774
肠	-11.2774
養	-11.2774
塑	-11.2774
獨	-11.2774
篇	-11.2774
荣誉	-11.2774
โซล	-11.2775
เป็นไงมั่ง	-11.2776
▁few	-11.2777
ตามลําพัง	-11.2777
火箭	-11.2779
经理	-11.2779
真希望	-11.2782
马丁	-11.2783
Any	-11.2784
莉莉	-11.2786
新鲜	-11.2788
ี้ยว	-11.2788
ทุกครั้ง	-11.2789
Right	-11.2791
何时	-11.2793
ille	-11.2794
เตา	-11.2797
老朋友	-11.2802
对抗	-11.2803
ก็น่าจะ	-11.2806
รู้สึกดีขึ้น	-11.2808
แน่ใจเหรอ	-11.281
地区	-11.2812
มันเป็นยังไง	-11.2819
墨	-11.2827
傲	-11.2827
缠	-11.2827
จ๋า	-11.2827
ภาวนา	-11.2827
▁question	-11.2827
厄	-11.2827
契	-11.2827
毙	-11.2827
耗	-11.2827
覆	-11.2827
Like	-11.2827
เม็ด	-11.2827
械	-11.2827
犬	-11.2827
希腊	-11.2827
เที่ยวบิน	-11.2829
น่าเสียดาย	-11.283
商量	-11.283
เพลิง	-11.2831
0)}	-11.2831
Ho	-11.2832
最棒的	-11.2833
兔子	-11.2834
Sorry	-11.2834
你怎么能	-11.2837
满足	-11.284
伤口	-11.2842
vin	-11.2843
有办法	-11.2847
相处	-11.2847
ใหน	-11.285
干活	-11.2852
แต่งงานกัน	-11.2858
จัดการเรื่องนี้	-11.2861
在说什么	-11.2865
Mel	-11.2869
的丈夫	-11.2871
วิว	-11.2871
อ่าว	-11.2872
wn	-11.2872
這次	-11.2874
มันต้องมี	-11.2874
นักวิทยาศาสตร์	-11.2876
小狗	-11.2876
เซลล์	-11.2877
那次	-11.2879
我妻子	-11.2879
邮	-11.288
ตั้งชื่อ	-11.288
Nikita	-11.288
ภายนอก	-11.288
弓	-11.288
癸	-11.288
回忆	-11.2881
พาเขาไป	-11.2882
有什么事	-11.2882
改變	-11.2882
领导	-11.2883
摩托	-11.2884
同志	-11.2884
▁fight	-11.2884
抓紧	-11.2885
ชนิดของ	-11.2885
เปียก	-11.2886
เมื่อเช้านี้	-11.2889
ทูต	-11.2892
ติดต่อกับ	-11.2892
滚开	-11.2895
一点点	-11.2899
帮帮我	-11.29
สักที	-11.2904
เกรด	-11.2911
踪	-11.2912
戴尔	-11.2913
พาฉันไป	-11.2913
谁知道	-11.2917
我什么都	-11.2923
เบท	-11.2924
นั่นเป็นสิ่งที่	-11.2932
เขียว	-11.2933
น้ําตา	-11.2934
作家	-11.2934
▁pretty	-11.2934
▁wanna	-11.2934
傑	-11.2934
敗	-11.2934
无线电	-11.2934
陌生人	-11.2934
氏	-11.2934
信用卡	-11.2934
这辈子	-11.2934
สมาธิ	-11.2934
僵尸	-11.2934
一晚	-11.2934
▁most	-11.2934
政治	-11.2935
暴露	-11.2936
摩根	-11.2937
มารยาท	-11.2938
现金	-11.2939
เด็กสาว	-11.2939
也一样	-11.2942
大量	-11.2942
电子	-11.2945
ห้องนอน	-11.2946
เป็นทหาร	-11.2946
way	-11.2948
อยู่ข้างหลัง	-11.2949
交通	-11.2952
ใครซักคน	-11.2952
安迪	-11.2958
43	-11.2959
被抓	-11.2961
อยู่ในมือ	-11.2961
วันนึง	-11.2965
ไม่กล้า	-11.2965
Vi	-11.297
报道	-11.297
殿	-11.2975
眼前	-11.2979
อาหารเช้า	-11.2979
▁gone	-11.298
กําลังตามหา	-11.2981
31	-11.2981
ray	-11.2984
抵	-11.2986
轻松	-11.2986
兜	-11.2988
囊	-11.2988
Charlie	-11.2988
แคโรไลน์	-11.2988
拨	-11.2988
翼	-11.2988
李润成	-11.2988
ลิฟท์	-11.299
眼镜	-11.2991
坚持住	-11.2993
保密	-11.2996
贝利	-11.2999
lor	-11.3
95	-11.3005
见见	-11.3006
โดยไม่ต้อง	-11.3007
ทําเอง	-11.3014
ะพั	-11.3017
老妈	-11.3018
เธนเน	-11.3018
ฉันรู้ว่าเธอ	-11.3021
เด็กชาย	-11.3027
ตามรอย	-11.3032
ชําระ	-11.3037
Tell	-11.3038
巨人	-11.3038
เอาปืน	-11.304
ออกจากบ้าน	-11.3041
慈	-11.3041
尬	-11.3042
晟敏宇	-11.3042
粹	-11.3042
規	-11.3042
饶	-11.3042
ตระหนัก	-11.3042
พิซซ่า	-11.3042
เครื่องยนต์	-11.3042
储	-11.3042
นาธาน	-11.3042
โดดเดี่ยว	-11.3042
คนแปลกหน้า	-11.3042
▁save	-11.3043
เบิ้ล	-11.3043
陷入	-11.3044
忍受	-11.3044
ฆาตรกร	-11.3044
▁saw	-11.3045
▁bitch	-11.3045
的手下	-11.3049
当初	-11.3055
ทําไมนายไม่	-11.3064
▁wouldn	-11.3067
冷静点	-11.3068
หวังว่าจะ	-11.307
对待	-11.307
ผู้หญิงคนนี้	-11.3081
频	-11.3093
เนลลี่	-11.3094
ละเอียด	-11.3095
備	-11.3096
▁break	-11.3096
▁myself	-11.3096
夏洛克	-11.3096
岩	-11.3096
ซีไอเอ	-11.3096
欣赏	-11.3096
نأ	-11.3097
撤退	-11.3097
ื่อง	-11.3097
▁lead	-11.3097
รั่ว	-11.3097
อัตรา	-11.3098
▁father	-11.3098
น้ําตาล	-11.3099
ย่อย	-11.3103
กลางคืน	-11.3107
OR	-11.3108
มันเป็นแค่	-11.3109
正确	-11.3111
▁went	-11.3111
ในอนาคต	-11.3113
มีความสามารถ	-11.3118
แย่ๆ	-11.3118
ก่อการร้าย	-11.3118
▁ago	-11.3121
หน่วยงาน	-11.3124
ไข้	-11.3125
ฮึ	-11.3128
ผมไม่เข้าใจ	-11.3129
帽	-11.3139
邀	-11.3142
从哪	-11.3143
น้อยกว่า	-11.3144
行事	-11.3149
卧	-11.315
仓	-11.315
愧	-11.3151
疏	-11.3151
舉	-11.3151
ยิว	-11.3151
魔术	-11.3152
态度	-11.3153
闪电	-11.3154
เธฃเธดเธ	-11.3158
程度	-11.3159
干杯	-11.3159
西蒙	-11.3161
สัมพันธ์	-11.3161
仅仅	-11.3165
98	-11.3165
▁Bar	-11.3185
หมายความ	-11.3186
▁seen	-11.3198
分开	-11.3199
นานมาแล้ว	-11.32
ครั้งนึง	-11.3201
ธง	-11.3203
污	-11.3206
弯	-11.3206
狮	-11.3206
筹	-11.3206
缉	-11.3206
ذ	-11.3206
จูเนียร์	-11.3206
ผู้โดยสาร	-11.3206
專	-11.3206
沟	-11.3206
瘦	-11.3206
祭	-11.3206
穆	-11.3206
บ็อบบี้	-11.3206
仓库	-11.3206
มุ่งหน้าไป	-11.3206
孤独	-11.3206
เซ็กซ์	-11.3207
风暴	-11.321
หนอน	-11.321
挑战	-11.321
ขอถาม	-11.3212
反对	-11.3213
表达	-11.3216
几次	-11.3218
ทําไมฉันถึง	-11.3221
▁took	-11.3225
大街	-11.3236
พลา	-11.3243
当成	-11.3247
案件	-11.325
时机	-11.3254
เธงเธข	-11.3255
เราจะทํายังไง	-11.3256
口气	-11.326
貌	-11.326
耀	-11.3261
抹	-11.3261
เถิด	-11.3261
泪	-11.3261
窝	-11.3261
腳	-11.3261
	-11.3261
雖然	-11.3261
毕竟	-11.3261
继承	-11.3261
夥計	-11.3261
เหงา	-11.3261
基督	-11.3262
▁watch	-11.3262
พระราชา	-11.3263
เว็บ	-11.3263
麻煩	-11.3264
ก่อนอื่น	-11.3264
正义	-11.3267
ปั้น	-11.3271
恋爱	-11.3272
เฮย์	-11.3273
สัม	-11.3276
觉得自己	-11.3279
平安	-11.3281
保重	-11.3281
由于	-11.3284
ทําสําเร็จ	-11.3288
บรี	-11.329
มีวิธี	-11.3295
ผิดกฎหมาย	-11.3297
艾德	-11.3297
对象	-11.3301
มนต์	-11.3303
เลือกที่จะ	-11.3307
สนทนา	-11.3307
38	-11.3307
妻	-11.3308
คิดแบบนั้น	-11.3312
绪	-11.3314
军事	-11.3315
กระแทก	-11.3317
懷	-11.3317
狀	-11.3317
番	-11.3317
直升机	-11.3317
虐	-11.3317
หน่อยซิ	-11.3318
追捕	-11.3318
俄国	-11.3318
ก็แล้วกัน	-11.3328
不舒服	-11.3332
▁meet	-11.3335
什么都没有	-11.3338
การทดลอง	-11.3339
ห่อ	-11.3342
ร้านขาย	-11.3343
iv	-11.3347
สายเลือด	-11.3348
员工	-11.3358
บนพื้น	-11.3361
ไม่รู้หรอกว่า	-11.3362
เป็นคนเดียวที่	-11.3364
กิล	-11.3365
男子	-11.3366
我不想再	-11.3367
หมั้น	-11.3371
ทักษะ	-11.3372
劝	-11.3372
尋	-11.3372
滋	-11.3372
熬	-11.3372
联邦调查局	-11.3372
วางปืนลง	-11.3372
เหมือง	-11.3372
同性恋	-11.3372
ไอ้ลูกหมา	-11.3372
棒极了	-11.3372
แก๊ส	-11.3372
▁hurt	-11.3373
藝恩	-11.3374
独立	-11.3374
คุ้นเคย	-11.3375
โฉ	-11.3377
琳达	-11.3377
แครอล	-11.3377
伍德	-11.3378
凯文	-11.3379
贱	-11.338
ผู้พิพากษา	-11.338
名叫	-11.3381
บนโต๊ะ	-11.3385
卖给	-11.3386
小队	-11.3387
หลงทาง	-11.3389
สิ่งที่คุณทํา	-11.339
form	-11.3396
อย่างหนัก	-11.3402
思想	-11.3407
สกี	-11.3408
ต้องทําอะไร	-11.3416
兔	-11.3421
เท่	-11.3425
宽	-11.3428
册	-11.3429
悬	-11.3429
捡	-11.3429
穴	-11.3429
鉴	-11.3429
陷阱	-11.3429
伞	-11.3429
盔	-11.3429
Adam	-11.3429
ham	-11.3429
ลอเรล	-11.3429
广告	-11.343
ING	-11.343
พีท	-11.343
还真是	-11.343
จะเป็นยังไง	-11.3431
คิดอะไรอยู่	-11.3431
月亮	-11.3431
ลมหายใจ	-11.3431
學校	-11.3431
坦白	-11.3432
▁gun	-11.3433
ยินดีที่ได้พบ	-11.3435
ความรับผิดชอบ	-11.3435
ยาพิษ	-11.3436
ตอนไหน	-11.3441
เฟรด	-11.3443
战场	-11.3444
ขนส่ง	-11.3446
ปราบ	-11.3449
面具	-11.3452
18\	-11.3453
轮到	-11.3453
น่าเกลียด	-11.3457
เธซเธฃเธญ	-11.3457
มุข	-11.3459
เคยบอก	-11.346
不是真的	-11.3462
สิ่งสําคัญ	-11.3464
ude	-11.3468
เชียวนะ	-11.3468
在想什么	-11.347
开玩笑吧	-11.3473
ย่อ	-11.3475
บอย	-11.3475
興	-11.3478
总部	-11.3479
ชอน	-11.3481
ขว้าง	-11.3485
扶	-11.3485
ใกล้เคียง	-11.3485
励	-11.3485
謊	-11.3485
谜	-11.3485
Wait	-11.3485
联盟	-11.3485
协助	-11.3486
傷害	-11.3487
องศา	-11.3488
模式	-11.3488
简体	-11.3488
联合	-11.3488
▁face	-11.349
不论	-11.3491
ราเชล	-11.3491
คับ	-11.3495
เย่	-11.3496
อย่างงี้	-11.3499
起诉	-11.3503
เพื่อนรัก	-11.3506
作战	-11.3506
ible	-11.3511
得不错	-11.3513
事物	-11.3513
เธฒเธฃ	-11.3513
tain	-11.3525
จะช่วยให้	-11.3527
มีบางคน	-11.3535
祸	-11.3536
动机	-11.3538
邪	-11.3541
匿	-11.3542
爪	-11.3542
辱	-11.3542
笵	-11.3542
▁safe	-11.3542
▁mother	-11.3542
▁money	-11.3542
ท้าทาย	-11.3542
笑话	-11.3542
抱怨	-11.3542
▁alone	-11.3543
ชิคาโก	-11.3543
大麻	-11.3543
损失	-11.3543
指示	-11.3546
人類	-11.3547
แฟร์	-11.3547
ซื่อ	-11.3548
เวิร์ด	-11.3554
อยู่ที่บ้าน	-11.3557
后退	-11.3558
这是怎么回事	-11.3559
下班	-11.3565
传说	-11.3569
เทีย	-11.3571
แคบ	-11.3574
ชู้	-11.3578
time	-11.3581
ยาวนาน	-11.3591
每年	-11.3592
明明	-11.3593
开口	-11.3594
听到了吗	-11.3597
购	-11.3598
克莱	-11.3598
วีรบุรุษ	-11.3599
巢	-11.3599
扳	-11.3599
胳膊	-11.3599
腰	-11.3599
ตาบอด	-11.3599
ยกมือขึ้น	-11.3599
ネ	-11.3599
筒	-11.3599
▁word	-11.3599
敏宇	-11.3599
ไซลัส	-11.3599
เห็นแก่ตัว	-11.3601
科技	-11.3601
มีทางเลือก	-11.3602
นํ้า	-11.3602
ฮันท์	-11.3603
市场	-11.3608
วูด	-11.3609
接电话	-11.3611
▁Pa	-11.3612
บอกคุณว่า	-11.3616
手段	-11.3618
หนิ	-11.3619
พรม	-11.362
ฉันรักเธอ	-11.3626
最新	-11.3626
斯顿	-11.3628
▁hit	-11.363
同样	-11.3654
ฉันอยากให้เธอ	-11.3656
谅	-11.3656
瞒	-11.3656
อุโมงค์	-11.3656
寒	-11.3656
扬	-11.3656
肺	-11.3656
臣	-11.3656
勝	-11.3656
搏	-11.3656
	-11.3657
สก็อต	-11.3657
ดีใจที่ได้เจอ	-11.3658
แกะรอย	-11.3658
逃避	-11.3659
聽我說	-11.3661
▁hold	-11.3661
提起	-11.3662
第二次	-11.3662
没人能	-11.3662
毛病	-11.3662
按照	-11.3663
獵人	-11.3668
สิ้นดี	-11.3675
Mor	-11.3676
▁saying	-11.3677
马利	-11.3679
王国	-11.3682
▁wr	-11.3683
我不认为	-11.3686
▁คุณนักสืบ	-11.3688
得先	-11.369
著名	-11.3691
จะยอม	-11.3697
เธขเน	-11.3698
行動	-11.3709
唤	-11.3714
เจริญ	-11.3714
骂	-11.3714
ä	-11.3714
เสิร์ฟ	-11.3714
▁second	-11.3714
堵	-11.3714
扩	-11.3714
กรุง	-11.3714
便宜	-11.3715
การฆาตกรรม	-11.3715
牛奶	-11.3716
回报	-11.3716
假如	-11.3719
艾玛	-11.3721
ภา	-11.3722
กระหาย	-11.3724
▁bit	-11.3726
在哪裡	-11.3727
รู้สึกถึง	-11.3729
แคร	-11.3729
一座	-11.3731
克雷	-11.3736
ส่งสัญญาณ	-11.3738
mber	-11.374
▁try	-11.3741
真漂亮	-11.3742
วันแรก	-11.3747
戴着	-11.3749
เหลืออีก	-11.3752
開心	-11.3756
รู้เกี่ยวกับ	-11.3766
明智	-11.3766
明显	-11.3766
跟我一起	-11.3766
類	-11.3767
矛	-11.3772
กระบวนการ	-11.3772
เทวดา	-11.3772
催	-11.3772
CIA	-11.3773
ค่าใช้จ่าย	-11.3773
恐怖分子	-11.3773
สหรัฐอเมริกา	-11.3773
ade	-11.3773
ปรากฎ	-11.3773
เย็บ	-11.3774
โคลน	-11.3774
摆脱	-11.3774
▁under	-11.3775
机构	-11.3775
เอ็ดดี้	-11.3775
เรียกฉันว่า	-11.3775
▁nice	-11.3775
เยี่ยมไปเลย	-11.3777
ฉันก็ไม่รู้	-11.3777
到处都是	-11.3778
肯尼	-11.3779
ไม่ถูกต้อง	-11.3781
妈咪	-11.3783
เบย์	-11.3788
จิง	-11.3792
类似	-11.3797
ไม่น่าจะ	-11.38
ส่วนที่เหลือ	-11.3803
อวัยวะ	-11.3804
从哪里	-11.3809
เพื่อนสนิท	-11.3809
科尔	-11.381
ไอ้เวร	-11.3814
对此	-11.3816
▁mu	-11.382
慢点	-11.3823
暂	-11.3827
關係	-11.3829
終	-11.383
厌	-11.3831
菌	-11.3831
กระทรวง	-11.3831
รปภ	-11.3831
ไบรอัน	-11.3831
▁problem	-11.3831
淹	-11.3831
膝	-11.3831
衰	-11.3831
ออนไลน์	-11.3831
统治	-11.3832
囚犯	-11.3832
ถ่วง	-11.3832
ซูซาน	-11.3833
蠢货	-11.3834
我可没	-11.3834
เยอร์	-11.3835
บทเรียน	-11.384
ไม่อยากเชื่อเลย	-11.3841
自私	-11.3843
ble	-11.3846
兄弟们	-11.3851
จะให้ผม	-11.3854
ความรุนแรง	-11.3854
ผู้ชนะ	-11.3866
鞋子	-11.3867
สมุด	-11.3867
เพื่อนเก่า	-11.3869
ทุกคืน	-11.3883
ห่าอะไร	-11.3886
档	-11.3888
麽	-11.3889
方正黑体	-11.389
เสื่อม	-11.389
แถบ	-11.389
▁supposed	-11.389
妄	-11.389
循	-11.389
遲	-11.389
铐	-11.389
陈	-11.389
▁matter	-11.389
หลอด	-11.389
พราก	-11.389
醫院	-11.3891
เอ็มม่า	-11.3891
真棒	-11.3892
投降	-11.3892
▁same	-11.3892
进攻	-11.3893
""."	-11.3893
无论如何	-11.3894
ความยุติธรรม	-11.3896
椅子	-11.3897
กระบอก	-11.3899
โป๊	-11.3904
Qu	-11.3907
火星	-11.3911
今天早上	-11.3916
提前	-11.3918
Take	-11.3923
มองไปที่	-11.3925
อู้	-11.3928
真高兴	-11.3934
夺走	-11.3935
之内	-11.3936
ต่อสู้กับ	-11.3938
ย่าง	-11.3939
ไม่เหมาะ	-11.3945
หยาบคาย	-11.3949
ฬ	-11.3949
熙	-11.3949
奴隶	-11.3949
樹	-11.3949
週	-11.3949
▁person	-11.3949
危險	-11.3949
แม็กกี้	-11.395
牛仔	-11.395
采取	-11.395
指纹	-11.395
參加	-11.395
观众	-11.3951
สังเกตุ	-11.3951
集团	-11.3952
เข่า	-11.3953
▁soul	-11.3954
尖叫	-11.3954
โรเจอร์	-11.3954
ปล่าว	-11.3956
主任	-11.3957
這麼做	-11.3958
小家伙	-11.3961
▁may	-11.3962
ขุม	-11.3962
还不错	-11.3968
อยากคุยกับ	-11.397
รู้สึกแย่	-11.3979
สกาย	-11.3983
โวล	-11.3985
除掉	-11.3986
เพียงคนเดียว	-11.3986
门口	-11.3987
unch	-11.4005
บล็อก	-11.4006
你不觉得	-11.4008
บุหรี่	-11.4008
巡	-11.4008
บรรยายไทยโดย	-11.4008
เงื่อนไข	-11.4008
妖	-11.4008
屏	-11.4008
赎	-11.4008
ลัม	-11.4009
英尺	-11.401
Martin	-11.401
阳光	-11.401
传统	-11.401
精灵	-11.4012
เสริม	-11.4012
通讯	-11.4012
请坐	-11.4013
左边	-11.4013
浪费时间	-11.4013
异常	-11.4014
关注	-11.4015
美味	-11.402
▁sir	-11.4021
计算	-11.4023
母親	-11.4027
ฉันอยากให้คุณ	-11.4035
起飞	-11.4046
Fuck	-11.4051
海军	-11.4053
隐藏	-11.4054
楼下	-11.4054
那邊	-11.406
วิทยาลัย	-11.4068
串	-11.4068
ลักษณ์	-11.4068
壳	-11.4068
畏	-11.4068
福尔摩斯	-11.4068
衫	-11.4068
轰	-11.4068
順	-11.4068
ผัก	-11.4069
广播	-11.4069
結果	-11.4069
野兽	-11.407
风险	-11.4071
เล็ต	-11.4071
车祸	-11.4075
平静	-11.4077
มีอาการ	-11.4079
看不见	-11.408
น่าตื่นเต้น	-11.4082
เสพ	-11.4084
ระวังหน่อย	-11.4085
说了什么	-11.4095
什麼時候	-11.4097
ขอบใจมาก	-11.4098
ยังกะ	-11.4101
เจอรี่	-11.4111
是个好人	-11.4115
คนเลว	-11.4115
要去哪里	-11.4119
▁Pe	-11.4121
บอกเธอว่า	-11.4124
兄	-11.4125
監	-11.4128
ซาบซึ้ง	-11.4129
พันธมิตร	-11.4129
讀	-11.4129
雕	-11.4129
Silas	-11.4129
มัธยม	-11.4129
หมวด	-11.4129
เลนเนิร์ด	-11.4129
創	-11.4129
嚇	-11.4129
委员会	-11.4129
浑	-11.4129
เคิร์	-11.4129
อ้วก	-11.4129
屠	-11.4129
账户	-11.4129
媒体	-11.4129
生日快乐	-11.413
กล่อม	-11.413
中央	-11.413
ห่วยแตก	-11.413
封锁	-11.4131
ชาร์ลส์	-11.4132
商店	-11.4132
楼梯	-11.4132
打扮	-11.4134
朋友们	-11.4135
สแกน	-11.4136
ปากกา	-11.4142
เฮล	-11.4144
白色	-11.4145
พ่น	-11.4148
合理	-11.415
นี่มันอะไรกัน	-11.4153
跟他说	-11.4158
รุ้	-11.4162
遵命	-11.4163
็กซ์	-11.4168
ตามฉันมา	-11.4178
ท่าเรือ	-11.4181
กรอก	-11.4182
▁exp	-11.4185
年纪	-11.4185
夥	-11.4189
研	-11.4189
ครอบครอง	-11.4189
挽	-11.4189
臨	-11.4189
ซอมบี้	-11.4189
เพียบ	-11.4189
纠	-11.4189
闷	-11.4189
史密斯	-11.4189
สูด	-11.4189
เจสซี่	-11.4189
เอ็ดเวิร์ด	-11.4189
摄影	-11.419
字幕	-11.4191
去死吧	-11.4191
退休	-11.4191
搞清楚	-11.42
เกิล	-11.4201
十分钟	-11.4201
ให้ฉันช่วย	-11.4202
搞笑	-11.4202
付钱	-11.4204
全国	-11.4208
ition	-11.4211
ในเมืองนี้	-11.4215
▁used	-11.4218
รู้อะไรเกี่ยวกับ	-11.422
แสดงให้เห็น	-11.422
ฟาด	-11.4221
สัญญาว่าจะ	-11.4221
和你一起	-11.4229
ื้	-11.423
ท่านประธานาธิบดี	-11.4233
我不会让	-11.424
很快就会	-11.4242
阳	-11.4244
พื้นดิน	-11.4246
การ์ตูน	-11.425
อุณหภูมิ	-11.425
∮	-11.425
凉	-11.425
歐	-11.425
煮	-11.425
鬥	-11.425
ก๊าซ	-11.425
อวยพร	-11.425
โหวต	-11.425
▁next	-11.425
吼	-11.425
誤	-11.425
逛	-11.425
哈罗德	-11.425
	-11.425
โอปี้	-11.425
วิกฤต	-11.425
โจรสลัด	-11.425
นั่นเป็นเหตุผล	-11.4251
遇见	-11.4251
审判	-11.4251
ถุ	-11.4252
别紧张	-11.4254
期望	-11.4254
thank	-11.4255
ครั้งใหญ่	-11.4257
制服	-11.4257
เนื่องจาก	-11.4259
穿越	-11.4261
出現	-11.4266
小丑	-11.4272
ขอความช่วยเหลือ	-11.4273
ทํางานหนัก	-11.4278
Nate	-11.4279
还不够	-11.4281
โดนจับ	-11.4288
มีใครบางคน	-11.4292
จะปลอดภัย	-11.4293
全身	-11.4296
扮	-11.4305
รู้อยู่แล้ว	-11.4309
貝	-11.4311
ดอลล่าร์	-11.4311
ฮิโระ	-11.4311
旺	-11.4311
腾	-11.4311
ปราศจาก	-11.4311
แคมป์	-11.4311
柴	-11.4311
竭	-11.4311
蜘蛛	-11.4311
诈	-11.4311
别无选择	-11.4311
▁shot	-11.4312
With	-11.4312
ป๋า	-11.4312
▁angel	-11.4312
▁point	-11.4312
สดใส	-11.4312
艰难	-11.4312
阿姨	-11.4313
วินเซนต์	-11.4313
ล่วง	-11.4314
柏林	-11.4314
增加	-11.4314
▁yet	-11.4316
หน้าที่ของ	-11.4317
จู๋	-11.4317
▁gotta	-11.4317
确信	-11.432
相关	-11.432
不管怎样	-11.4321
▁called	-11.4322
外套	-11.4324
อาหารเย็น	-11.4327
留在这里	-11.4344
Mark	-11.4344
为啥	-11.4347
遭遇	-11.4348
อ๊า	-11.4357
ทางเหนือ	-11.4362
เอามาให้	-11.4364
Ra	-11.4367
辦	-11.4369
奎	-11.4371
封信	-11.4372
มีนัด	-11.4373
府	-11.4373
識	-11.4373
ท่องเที่ยว	-11.4373
ท่ามกลาง	-11.4373
ปลื้ม	-11.4373
พืช	-11.4373
▁already	-11.4373
悄	-11.4373
擁	-11.4373
毯	-11.4373
貨	-11.4373
อื้ม	-11.4373
ture	-11.4373
洗澡	-11.4374
狗屁	-11.4374
地下室	-11.4375
ท้า	-11.4375
反抗	-11.4376
ชายฝั่ง	-11.4378
弗雷	-11.438
Peter	-11.4381
ครั้งที่สอง	-11.4381
被困在	-11.4384
卫生	-11.4385
起床	-11.4387
到底是什么	-11.4406
波比	-11.4407
效果	-11.441
解釋	-11.4412
key	-11.4416
ล้า	-11.4417
胡说	-11.4417
所谓的	-11.4425
ให้ผมช่วย	-11.4426
教徒	-11.4428
况	-11.4433
狗狗	-11.4433
扇	-11.4433
渴	-11.4435
漂	-11.4435
บัลลังก์	-11.4435
▁Earth	-11.4435
▁happy	-11.4435
宅	-11.4435
安德鲁	-11.4435
庫	-11.4435
晶	-11.4435
雾	-11.4435
頂	-11.4435
魚	-11.4435
龍	-11.4435
老实说	-11.4435
เวทมนตร์	-11.4435
渴望	-11.4436
เธงเธฒเธก	-11.4436
ฆาต	-11.4436
คูเปอร์	-11.4437
招呼	-11.4437
xcuse	-11.444
贝丝	-11.444
致命	-11.4442
เฮเลน	-11.4443
ชาร์ล	-11.4445
听上去	-11.4447
最喜欢的	-11.445
See	-11.4455
สลัด	-11.4456
าา	-11.4457
很害怕	-11.4461
▁far	-11.4478
我也不想	-11.4479
完整	-11.448
Lee	-11.4486
丹尼尔	-11.4488
▁sk	-11.4489
还有很多	-11.4489
▁Du	-11.4496
okay	-11.4496
ในแง่	-11.4498
横	-11.4498
稀	-11.4498
細	-11.4498
適	-11.4498
แลนนิสเตอร์	-11.4498
繁	-11.4498
跨	-11.4498
描述	-11.4498
ช่างมันเถอะ	-11.4499
▁sea	-11.4499
มื้อค่ํา	-11.4499
教训	-11.4499
เกิ้ล	-11.4499
ญาณ	-11.4499
守卫	-11.45
果然	-11.45
ดวงดาว	-11.4501
ดั่ง	-11.4504
ทางเดียวที่จะ	-11.4504
莉莎	-11.4505
5%	-11.451
ผู้ป่วย	-11.451
使命	-11.4513
ยังงี้	-11.4516
國王	-11.4521
风格	-11.4522
เธฒเธขเน	-11.4525
话题	-11.4527
▁ตกลงไหม	-11.4529
เด็กคนนั้น	-11.453
▁rec	-11.4541
AM	-11.4541
มีเซ็กส์	-11.4545
เป็นเรื่องจริง	-11.4546
椅	-11.4553
ฉันอยากให้นาย	-11.456
คืบหน้า	-11.4561
เครือข่าย	-11.4561
疚	-11.4561
	-11.4561
▁check	-11.4561
海豚	-11.4561
ความสําเร็จ	-11.4561
演奏	-11.4562
ดึงดูด	-11.4563
ลัย	-11.4566
คบกับ	-11.457
ไอ้สารเลว	-11.4572
น่าประทับใจ	-11.4573
หาทางออก	-11.4574
การแข่ง	-11.4574
权力	-11.4575
这么久	-11.4575
凭什么	-11.4576
ด้วยความยินดี	-11.4576
王后	-11.4581
นานเท่าไหร่	-11.4584
รอคอย	-11.4584
游泳	-11.4591
才不会	-11.46
本来就	-11.461
ทําเช่นนี้	-11.4614
北方	-11.4615
รังเกียจ	-11.462
奸	-11.4623
摄	-11.4623
迦	-11.4624
ยุทธ	-11.4624
ยุโรป	-11.4624
สารวัตร	-11.4624
เท็กซัส	-11.4624
แดเนียล	-11.4624
威士忌	-11.4624
嫉妒	-11.4624
尼基塔	-11.4624
摄像头	-11.4624
皆	-11.4624
郁	-11.4624
隻	-11.4624
鹅	-11.4624
ชายหาด	-11.4624
▁death	-11.4625
คู่หมั้น	-11.4625
โซฟี	-11.4626
รัฐบาลกลาง	-11.4627
布莱恩	-11.4627
โธ	-11.4628
裙子	-11.4628
英语	-11.4628
剛才	-11.4629
當時	-11.4631
จะไปที่ไหน	-11.4632
ได้รับบาดเจ็บ	-11.4645
Well	-11.4648
入口	-11.4653
骨头	-11.4655
ลุค	-11.4656
同情	-11.4658
เทียน	-11.4658
ความแตกต่าง	-11.466
พรรคพวก	-11.4666
เพื่อนร่วมงาน	-11.4668
定位	-11.4678
微笑	-11.468
必须要	-11.4686
净	-11.4686
厂	-11.4687
ลําพัง	-11.4687
ประสบ	-11.4687
คลาวส์	-11.4688
เยอึน	-11.4688
ぱ	-11.4688
前情提要	-11.4688
懒	-11.4688
炉	-11.4688
矿	-11.4688
饥	-11.4688
อยู่เบื้องหลัง	-11.4688
網	-11.4688
经济	-11.4688
痕迹	-11.4688
Wood	-11.4688
掌控	-11.4689
確實	-11.4689
▁col	-11.4689
杂种	-11.4689
咒语	-11.4689
คอนเนอร์	-11.469
突破	-11.469
พ่อมด	-11.4691
留给	-11.4691
走廊	-11.4691
น่ารังเกียจ	-11.4692
โลกใบนี้	-11.4692
最佳	-11.4694
收集	-11.4696
复活	-11.4697
南方	-11.4701
สํานัก	-11.4702
高级	-11.4705
มิสเตอร์	-11.4711
谋杀案	-11.4713
解決	-11.4742
▁sit	-11.475
นิรภัย	-11.4752
หงุดหงิด	-11.4752
เฮงซวย	-11.4752
แคลิฟอร์เนีย	-11.4752
鎖	-11.4752
勺	-11.4752
恼	-11.4752
薇	-11.4752
魅力	-11.4752
医疗	-11.4752
ทะเลทราย	-11.4753
善良	-11.4753
司令	-11.4754
ตอนกลางคืน	-11.4756
เร็ต	-11.4756
逃脱	-11.4757
▁town	-11.4762
คบกัน	-11.4763
▁working	-11.4766
什么情况	-11.4766
主教	-11.4768
อะไรกันเนี่ย	-11.4769
▁cut	-11.4773
range	-11.4777
ดื้อ	-11.4788
this	-11.4796
ใช่ไม๊	-11.4798
袋子	-11.4804
数学	-11.4804
彼	-11.4807
並不	-11.4813
敦	-11.4815
虑	-11.4816
祈	-11.4816
髮	-11.4816
鲸	-11.4816
Percy	-11.4816
`	-11.4816
field	-11.4816
กรีดร้อง	-11.4816
簽	-11.4816
胶	-11.4816
เอ๋ย	-11.4816
ผู้บัญชาการ	-11.4816
Peterson	-11.4817
润成	-11.4818
ขึ้นไปบน	-11.4818
禁止	-11.4818
房間	-11.4819
判断	-11.4819
吉尔	-11.4822
公爵	-11.4822
▁stand	-11.4823
同伴	-11.4824
化学	-11.4825
ลินดา	-11.4826
กิ้ง	-11.4829
ยอน	-11.4832
泰德	-11.4834
ห้องสมุด	-11.4841
ทัวร์	-11.4843
几分钟	-11.4844
เธกเธต	-11.4844
400	-11.4855
รู้ได้ไงว่า	-11.4858
桌上	-11.4862
197	-11.4866
什麼意思	-11.4869
功夫	-11.4869
เธญเธฒเธ	-11.4878
ชัน	-11.488
孕	-11.4881
ผจญภัย	-11.4881
佢	-11.4881
赤	-11.4881
锅	-11.4881
喘	-11.4881
幼	-11.4881
態	-11.4881
晃	-11.4881
苗	-11.4881
負責	-11.4881
ยี่สิบ	-11.4881
保险箱	-11.4882
公平	-11.4882
屋顶	-11.4884
商业	-11.4884
导弹	-11.4885
海洋	-11.4886
ต้องทํายังไง	-11.4886
谈论	-11.4887
โกดัง	-11.4887
แฮรี่	-11.4887
เชียร์	-11.4888
把他带	-11.489
ใบ้	-11.4891
哪去了	-11.4893
เร็ค	-11.4895
สิ้นหวัง	-11.4895
伊森	-11.4897
主管	-11.4906
วะเนี่ย	-11.4907
อยู่ในคุก	-11.4912
资金	-11.492
ห้องพัก	-11.4922
年级	-11.4924
เป็นมิตร	-11.4937
บางทีอาจจะ	-11.494
มีชื่อเสียง	-11.4946
วุฒิ	-11.4947
แอนดรู	-11.4947
坎	-11.4947
挪	-11.4947
王八蛋	-11.4947
逝	-11.4947
ฉลาม	-11.4947
眉	-11.4947
ยั่ว	-11.4948
▁each	-11.4948
จนกว่าเราจะ	-11.4949
绿色	-11.4949
打仗	-11.4952
迈	-11.4952
อุ้ม	-11.4953
ทําอะไรสักอย่าง	-11.4954
期间	-11.4955
ต่างประเทศ	-11.4956
天赋	-11.4956
Raj	-11.4962
也就是说	-11.4964
▁heard	-11.4965
มุก	-11.4972
ลื่น	-11.4974
宝贝儿	-11.4975
Hol	-11.4981
快速	-11.4985
整晚	-11.4986
oke	-11.4988
根本就不	-11.5002
标准	-11.5003
เรียล	-11.5006
毕	-11.5011
ฝืน	-11.5012
วิลเลี่ยม	-11.5012
สถาบัน	-11.5012
丰	-11.5012
凑	-11.5012
橡	-11.5012
疤	-11.5012
茄	-11.5012
Patrick	-11.5012
วิศวกร	-11.5012
สมมติ	-11.5012
	-11.5012
เเบบ	-11.5013
ผลักดัน	-11.5013
▁alive	-11.5013
結婚	-11.5013
乘客	-11.5014
กําไร	-11.5017
赚钱	-11.5017
证实	-11.5019
เก็บมันไว้	-11.5019
จุดเริ่มต้น	-11.5021
我们得走了	-11.5026
表明	-11.5026
药物	-11.5027
อืมมม	-11.5027
เคลื่อนย้าย	-11.5033
打架	-11.504
Dad	-11.504
หันหลัง	-11.5044
▁comm	-11.5046
จะทําไง	-11.5052
สโตน	-11.5069
รีย์	-11.5076
囚	-11.5078
ทุ่ง	-11.5079
腹	-11.5079
▁actually	-11.5079
均	-11.5079
抖	-11.5079
灌	-11.5079
详	-11.5079
谢天谢地	-11.5079
	-11.5079
考慮	-11.5079
ขัดขวาง	-11.5079
เธญเธฃเน	-11.508
秒钟	-11.508
祖父	-11.5081
關於	-11.5081
失控	-11.5081
教育	-11.5082
悲伤	-11.5082
▁hope	-11.5083
นําไปสู่	-11.5083
ไลน์	-11.5083
凯蒂	-11.5084
美妙	-11.5086
主角	-11.5086
指令	-11.5086
สับ	-11.5087
返回	-11.5088
งัย	-11.5089
安妮	-11.5091
ร่ม	-11.5091
ตั้งแต่แรก	-11.51
กิโล	-11.51
这么认为	-11.5102
進行	-11.5105
制作	-11.5106
สักครั้ง	-11.5108
เร็วๆเข้า	-11.5109
琼	-11.5112
▁arm	-11.5117
เบี้ย	-11.5142
แกร่ง	-11.5145
枝	-11.5145
Victor	-11.5145
ระมัดระวัง	-11.5145
瑪	-11.5145
筋	-11.5145
粒	-11.5145
鞭	-11.5145
▁week	-11.5145
打个电话	-11.5145
ครีม	-11.5145
噩梦	-11.5145
牙齿	-11.5146
ไปตายซะ	-11.5146
中尉	-11.5146
欺骗	-11.5146
ทําไมนายถึง	-11.5148
总有一天	-11.5148
ซูเปอร์	-11.5148
放轻松	-11.5149
很久以前	-11.5149
种族	-11.515
假设	-11.515
角落	-11.515
บิดา	-11.5153
黄金	-11.5153
尝	-11.5153
配合	-11.5154
打扰一下	-11.5154
整理	-11.5158
钱包	-11.5162
解除	-11.5163
เมื่อเช้า	-11.5166
四处	-11.5167
更重要	-11.517
Joe	-11.5176
藏起来	-11.518
清除	-11.5184
หนุ่มน้อย	-11.5189
轨	-11.521
牆	-11.5212
匪	-11.5212
妨	-11.5212
姿	-11.5212
血手约翰	-11.5212
铺	-11.5212
隐瞒	-11.5213
บวก	-11.5213
陷害	-11.5213
ดาวเคราะห์	-11.5214
罪行	-11.5214
สิบปี	-11.5214
แหลม	-11.5215
ชัวร์	-11.5216
林肯	-11.5218
到底是谁	-11.5218
เธซเธฅ	-11.5218
เป็นความคิดที่ดี	-11.5218
赌场	-11.5219
物质	-11.522
▁today	-11.5225
交换	-11.5225
第四	-11.523
▁once	-11.5231
แย่กว่า	-11.5239
รํา	-11.5242
ตอง	-11.5246
คนทรยศ	-11.5254
หุ้นส่วน	-11.5266
東	-11.5278
ภักดี	-11.528
เศรษฐี	-11.528
三明治	-11.528
浓	-11.528
钉	-11.528
เจตนา	-11.528
เผชิญหน้ากับ	-11.528
Tara	-11.528
癌症	-11.528
餐馆	-11.5281
适应	-11.5281
代码	-11.5283
争取	-11.5284
文章	-11.5284
ภูมิใจในตัว	-11.5284
儿童	-11.5285
รูปร่าง	-11.5288
哪怕	-11.5289
ไลท์	-11.529
快樂	-11.5291
追杀	-11.5293
พ่อกับแม่	-11.5297
理查	-11.5305
▁fire	-11.531
沒問題	-11.5317
Have	-11.5325
必须得	-11.5327
นิโกร	-11.5333
หวังว่าคุณจะ	-11.5335
ผู้ปกครอง	-11.5343
雄	-11.5347
อแมนด้า	-11.5348
曹	-11.5348
添	-11.5348
遺	-11.5348
響	-11.5348
魯	-11.5348
Tyler	-11.5348
กบฏ	-11.5348
ดาดฟ้า	-11.5348
獲	-11.5348
訊	-11.5348
วันเสาร์	-11.5348
瞄准	-11.5348
เวทมนต์	-11.5348
คนแคระ	-11.5348
檢查	-11.5349
เขี้ยว	-11.5349
任務	-11.5349
明早	-11.5349
海滩	-11.5349
แมกซ์	-11.5349
ซาร่าห์	-11.535
開玩笑	-11.535
巧合	-11.5352
เคิล	-11.5352
迷失	-11.5355
贝克	-11.5358
ทองคํา	-11.5359
日记	-11.536
沙发	-11.5364
杰西	-11.5366
操作	-11.5366
ทางซ้าย	-11.5367
ขอโทษนะคะ	-11.5368
偷偷	-11.5368
49	-11.5369
闯进	-11.541
疗	-11.5416
รัฐมนตรี	-11.5416
เอเลี่ยน	-11.5416
喉咙	-11.5416
扑	-11.5416
昆	-11.5416
沾	-11.5416
輛	-11.5416
รถยนต์	-11.5417
อย่างเป็นทางการ	-11.5417
เชื้อเพลิง	-11.5417
ขัดจังหวะ	-11.5417
燃料	-11.5418
强奸	-11.5418
Johnny	-11.5418
เชอร์ล็อค	-11.5418
悲剧	-11.5418
轨道	-11.5419
帝国	-11.5419
แป๊บนึง	-11.5419
เมฆ	-11.5419
มาร์ลีย์	-11.5419
▁ready	-11.5421
右边	-11.5421
工程	-11.5423
室友	-11.5423
แต้ม	-11.5424
決	-11.5425
動物	-11.5427
ห้านาที	-11.5427
我也爱你	-11.5429
ผู้คุม	-11.5433
ลอรี่	-11.5433
บอกแล้วว่า	-11.5436
很難	-11.5437
足以	-11.546
Q	-11.5466
ฉิ	-11.5467
ette	-11.5471
ก่อนที่เราจะ	-11.5475
just	-11.548
從沒	-11.548
เครดิต	-11.5485
ปรุง	-11.5485
	-11.5485
獸	-11.5485
Opie	-11.5485
กระป๋อง	-11.5485
อึดอัด	-11.5485
乏	-11.5485
仆	-11.5485
輸	-11.5485
George	-11.5485
เปลือก	-11.5485
狗娘养的	-11.5485
穹顶	-11.5485
ทรัพย์สิน	-11.5485
spect	-11.5485
ฑูต	-11.5486
ที่ไหนสักแห่ง	-11.5486
450)}	-11.5486
早晨	-11.5486
รอยสัก	-11.5487
ตัวคุณเอง	-11.5488
沒關係	-11.5488
เป๊ะ	-11.5488
六个月	-11.5489
มันได้หรือไม่	-11.5497
ตั้งแต่เมื่อไหร่	-11.5504
趴	-11.5505
ผู้พิทักษ์	-11.5508
两周	-11.551
ทุกสิ่งทุกอย่าง	-11.5515
举行	-11.5523
▁yes	-11.5529
uff	-11.554
趟	-11.5549
纪	-11.555
较	-11.5551
披	-11.5554
侣	-11.5555
俱	-11.5555
缸	-11.5555
ฟิลลิป	-11.5555
สไตล์	-11.5555
▁power	-11.5555
	-11.5555
มายากล	-11.5555
ในไม่ช้า	-11.5555
尊敬	-11.5556
拜拜	-11.5556
มหาศาล	-11.5556
海岸	-11.5557
汉娜	-11.5559
เอ็กซ์	-11.556
形象	-11.5561
资格	-11.5561
เธถเน	-11.5562
树林	-11.5562
ทางเพศ	-11.5563
休息一下	-11.5567
เล่าให้ฟัง	-11.5571
พีช	-11.5574
成熟	-11.5574
基因	-11.5578
新娘	-11.5583
แถมยัง	-11.5585
所说的	-11.5586
鼻	-11.561
งั้นคุณก็	-11.5616
文森	-11.5617
榮	-11.5625
膏	-11.5625
葡萄	-11.5625
贪	-11.5625
นิตยสาร	-11.5625
ละเมิด	-11.5625
兆	-11.5625
悠	-11.5625
懦	-11.5625
出租车	-11.5625
疾病	-11.5626
墨菲	-11.5626
พลิก	-11.5626
วันศุกร์	-11.5626
ลองคิดดู	-11.5628
ประกาย	-11.5629
坐牢	-11.563
็อกซ์	-11.563
幾個	-11.5631
เซ่น	-11.5631
航空	-11.5633
สุภาพ	-11.5634
笔钱	-11.5635
作业	-11.5636
Matt	-11.5642
ห่างไกล	-11.5643
需要帮助	-11.5656
โดยที่ไม่	-11.5668
เราต้องคุยกัน	-11.567
ตับ	-11.5676
ว้า	-11.5683
199	-11.5685
仗	-11.569
己	-11.5693
侦	-11.5695
กระจอก	-11.5695
กุหลาบ	-11.5695
เปลือย	-11.5695
劣	-11.5695
噶	-11.5695
Wayne	-11.5695
เจมม่า	-11.5695
討厭	-11.5695
สูบบุหรี่	-11.5695
指揮	-11.5696
เวกัส	-11.5697
ความเสียหาย	-11.5697
ดินเนอร์	-11.5697
ถอดรหัส	-11.5697
扇门	-11.5698
แท่น	-11.5698
北境	-11.5699
蛋蛋	-11.5701
มีส่วนร่วม	-11.5703
ไล่ล่า	-11.5706
几周	-11.5712
บ้าบอ	-11.5721
手臂	-11.5729
ัวร์	-11.5751
▁rest	-11.5753
參	-11.5764
歧	-11.5766
ประโยค	-11.5766
▁murder	-11.5766
华盛顿	-11.5766
帕特里克	-11.5766
質	-11.5766
ท่วม	-11.5766
川	-11.5766
细胞	-11.5766
鲨鱼	-11.5766
抵抗	-11.5767
皮肤	-11.5767
閉嘴	-11.5767
很高兴认识你	-11.5767
指挥官	-11.5767
จัดฉาก	-11.5769
字母	-11.577
คูณ	-11.577
维持	-11.5771
坏蛋	-11.5772
เบาะ	-11.5775
แวร์	-11.5775
สิ่งที่ดีที่สุด	-11.5776
เบลล์	-11.5777
忘掉	-11.5782
Dave	-11.579
臂	-11.5803
這邊	-11.5826
楚	-11.5836
ชัย	-11.5837
匠	-11.5838
屬	-11.5838
绩	-11.5838
กล้วย	-11.5838
ราตรี	-11.5838
ศีรษะ	-11.5838
屍	-11.5838
莲	-11.5838
蔽	-11.5838
跌	-11.5838
钓	-11.5838
救护车	-11.5838
นอนไม่หลับ	-11.5838
เป็นอย่างไรบ้าง	-11.5838
追查	-11.5839
消灭	-11.5839
不对劲	-11.5839
诚实	-11.5839
เคี้ยว	-11.5839
กระซิบ	-11.5839
亨特	-11.584
แฝด	-11.5841
敏感	-11.5841
เกลือ	-11.5841
พิกัด	-11.5842
ติดหนี้	-11.5842
借口	-11.5847
稍微	-11.5851
剛剛	-11.5858
บอร์ด	-11.5876
อย่าห่วง	-11.5878
เห้	-11.5882
นิดนึง	-11.59
千万别	-11.5906
纽	-11.5908
Gemma	-11.591
พิพิธภัณฑ์	-11.591
▁different	-11.591
圍	-11.591
斐	-11.591
篮	-11.591
翁	-11.591
มูลค่า	-11.591
垂	-11.591
盐	-11.591
雀	-11.591
沙漠	-11.591
忠诚	-11.591
饮料	-11.591
扮演	-11.5911
倒霉	-11.5911
放棄	-11.5912
撤离	-11.5912
cross	-11.5913
แล่น	-11.5914
โซฟา	-11.5915
ยุติ	-11.5915
具体	-11.5916
嘴巴	-11.5922
Stop	-11.5944
▁year	-11.596
que	-11.5963
ã	-11.5976
กําลังเสริม	-11.5979
贺	-11.5982
摘	-11.5982
碗	-11.5982
製	-11.5982
กัญชา	-11.5982
ทุเรศ	-11.5982
เหงื่อ	-11.5982
▁million	-11.5982
唇	-11.5982
柱	-11.5982
栏	-11.5982
筆	-11.5982
р	-11.5982
幽灵	-11.5982
措施	-11.5982
▁00;	-11.5982
脾气	-11.5983
▁which	-11.5983
咱俩	-11.5983
Really	-11.5983
卧室	-11.5983
แบงค์	-11.5985
碎片	-11.5987
我愛你	-11.5987
起码	-11.5989
破解	-11.5993
滚出去	-11.5994
ซุป	-11.5999
世界上最	-11.6005
圣诞节	-11.6015
บนเกาะ	-11.6017
เที่ยงคืน	-11.6021
โว้	-11.6028
概	-11.6046
梯	-11.605
สวัสด	-11.6054
弥	-11.6055
涂	-11.6055
崩	-11.6055
捅	-11.6055
捣	-11.6055
鬆	-11.6055
ทํานองนั้น	-11.6055
ริชาร์ด	-11.6055
丸	-11.6055
茱莉亚	-11.6055
課	-11.6055
龟	-11.6055
ประสาน	-11.6055
受害人	-11.6055
貌似	-11.6055
ชันสูตร	-11.6055
พับ	-11.6055
冷靜	-11.6056
宠物	-11.6056
暗示	-11.6057
君临	-11.6057
安慰	-11.6057
แขวนคอ	-11.6057
植物	-11.6057
傻逼	-11.6058
หยด	-11.6059
老虎	-11.6061
เราตกลงกัน	-11.6063
之間	-11.6063
ค้ายา	-11.6068
hich	-11.6082
ยังไม่พร้อม	-11.6095
距	-11.6127
阶	-11.6128
ข่มขู่	-11.6129
―	-11.6129
侄	-11.6129
搶	-11.6129
ผืน	-11.6129
หมึก	-11.6129
唬	-11.6129
垮	-11.6129
江	-11.6129
波士顿	-11.6129
渣	-11.6129
焰	-11.6129
疲	-11.6129
稿	-11.6129
纱	-11.6129
翴	-11.6129
ร้ายกาจ	-11.6129
智慧	-11.6129
▁woman	-11.6129
簡單	-11.6129
故障	-11.6129
目標	-11.6129
拜访	-11.6129
企业	-11.6129
▁trust	-11.613
违反	-11.613
หนวด	-11.6132
航班	-11.6132
灾难	-11.6133
几个小时	-11.6137
签名	-11.6138
ด้านนอก	-11.614
ทําไมเขาถึง	-11.6143
ฟาร์	-11.6144
高興	-11.6145
ริดจ์	-11.6168
开除	-11.6169
เธฅเธข	-11.617
มพ์	-11.618
閉	-11.6202
雙	-11.6203
อับอาย	-11.6203
博物馆	-11.6203
爱德华	-11.6203
薩	-11.6203
ไว้วางใจ	-11.6203
娃娃	-11.6203
完蛋了	-11.6203
嘲笑	-11.6203
干扰	-11.6204
▁anyone	-11.6205
符合	-11.6205
สิ่งต่างๆ	-11.6207
พิลึก	-11.6209
▁until	-11.6211
万美元	-11.6213
肚	-11.6217
帅哥	-11.6217
求婚	-11.6221
เธขเธฑเธ	-11.6223
หนังโป๊	-11.6224
隔离	-11.6227
见识	-11.6229
ค่ําคืน	-11.6263
อนุญาติ	-11.6269
擅	-11.6274
屠杀	-11.6277
碑	-11.6277
อนุมัติ	-11.6277
促	-11.6277
瑰	-11.6277
靴	-11.6277
พฤหัส	-11.6277
CBI	-11.6277
伪装	-11.6278
——	-11.6279
即便	-11.6279
广场	-11.628
芭比	-11.628
Pete	-11.6281
絕對	-11.6282
杀人犯	-11.6283
应付	-11.6284
比賽	-11.6284
ไซด์	-11.6284
มิลเลอร์	-11.6284
ไร้ค่า	-11.6286
▁free	-11.6288
危机	-11.6296
เอ็ก	-11.6303
追求	-11.6309
ขอแนะนํา	-11.6335
Ru	-11.6339
炎	-11.6352
อิทธิพล	-11.6352
เซอร์ไพรส์	-11.6352
โรแมนติก	-11.6352
峰	-11.6352
帆	-11.6352
帥	-11.6352
斑	-11.6352
洗手间	-11.6352
漆	-11.6352
碟	-11.6352
翠	-11.6352
餓	-11.6352
é	-11.6352
เอิ่ม	-11.6352
聰明	-11.6352
พล่าม	-11.6353
เผลอ	-11.6353
มุ่งมั่น	-11.6353
▁lost	-11.6353
照顧	-11.6353
葬礼	-11.6353
抵达	-11.6354
▁count	-11.6355
吵架	-11.6355
支票	-11.6355
ทัศน	-11.6357
布朗	-11.6358
เกิดเหตุ	-11.6365
กรีก	-11.637
นัท	-11.6374
真他妈	-11.6375
เธซเธฒ	-11.6388
小小的	-11.6425
เลี่ยง	-11.6428
責	-11.6428
หยั่ง	-11.6428
เฒ่า	-11.6428
哩	-11.6428
脊	-11.6428
ทะเลสาบ	-11.6428
ลูซิเฟอร์	-11.6428
หลุยส์	-11.6428
ไถ่	-11.6428
▁crazy	-11.6428
▁reason	-11.6428
坑	-11.6428
宮	-11.6428
絲	-11.6428
โศก	-11.6428
幽默	-11.6428
阶段	-11.6429
อึ๊บ	-11.643
纹身	-11.6431
ไอริช	-11.6431
限制	-11.6431
迟早	-11.6432
ช็อค	-11.6434
杰森	-11.6437
till	-11.6445
▁set	-11.6447
cept	-11.6456
ator	-11.6486
朵	-11.6504
戲	-11.6504
ประดิษฐ์	-11.6505
วอชิงตัน	-11.6505
▁morning	-11.6505
喽	-11.6505
嘗	-11.6505
郡	-11.6505
Amelia	-11.6505
บัดซบ	-11.6505
扫描	-11.6505
保镖	-11.6505
戰爭	-11.6505
辞职	-11.6505
香港	-11.6505
กี่โมง	-11.6506
Sarah	-11.6506
不会有事的	-11.6506
องค์หญิง	-11.6507
董事	-11.6507
ซิลล่า	-11.6508
粉丝	-11.6508
饭店	-11.6508
เมอร์ลิน	-11.651
自豪	-11.651
จักร	-11.6512
多亏	-11.6514
集合	-11.6515
的看法	-11.6539
ผลประโยชน์	-11.6576
纹	-11.6577
衝	-11.6581
บอสตัน	-11.6581
สะท้อน	-11.6581
โน้มน้าว	-11.6581
ไอ้งั่ง	-11.6581
拐	-11.6581
衬	-11.6581
衷	-11.6581
歸	-11.6581
稲	-11.6581
～	-11.6581
申	-11.6656
慎	-11.6659
淋	-11.6659
爺	-11.6659
哨	-11.6659
痷	-11.6659
盤	-11.6659
秨	-11.6659
肿	-11.6659
蘇	-11.6659
谊	-11.6659
貓	-11.6659
館	-11.6659
騎	-11.6659
闯	-11.6664
辜	-11.6734
獄	-11.6737
戮	-11.6737
凝	-11.6737
庞	-11.6737
廢	-11.6737
擾	-11.6737
療	-11.6737
轴	-11.6737
汀	-11.675
训	-11.6814
饮	-11.6815
【	-11.6816
丛	-11.6816
唉	-11.6816
妆	-11.6816
拟	-11.6816
瀑	-11.6816
藤	-11.6816
瞷	-11.6816
恒	-11.6885
槽	-11.6895
逆	-11.6895
畜	-11.6895
藉	-11.6895
隱	-11.6895
御	-11.6974
則	-11.6975
兼	-11.6975
庇	-11.6975
亦	-11.6975
呗	-11.6975
羽	-11.6975
塌	-11.6975
铅	-11.6975
罢	-11.6992
宇	-11.7055
恕	-11.7056
睹	-11.7056
輪	-11.7056
宙	-11.7137
募	-11.7137
煎	-11.7137
爛	-11.7137
睁	-11.7137
翔	-11.7137
棵	-11.7219
瘤	-11.7219
】	-11.7219
剥	-11.7219
歪	-11.7219
淫	-11.7219
苍	-11.7219
訓	-11.7219
銀	-11.7219
狐	-11.7219
锡	-11.7219
	-11.7219
簡	-11.7302
骚	-11.7302
捷	-11.7302
涯	-11.7302
丘	-11.7302
燈	-11.7302
镑	-11.7302
饱	-11.7302
	-11.7302
標	-11.7385
牲	-11.7385
芝	-11.7385
跡	-11.7385
删	-11.7385
映	-11.7385
	-11.7385
е	-11.7385
藝	-11.7467
姨	-11.7467
抑	-11.7469
肝	-11.7469
賭	-11.7469
弊	-11.7469
忌	-11.7469
氛	-11.7469
琵	-11.7469
薯	-11.7469
霸	-11.7469
继	-11.7554
煙	-11.7554
勁	-11.7554
叹	-11.7554
履	-11.7554
徽	-11.7554
腥	-11.7554
膜	-11.7554
赔	-11.7554
锋	-11.7554
掛	-11.7554
烹	-11.7554
霉	-11.7638
疾	-11.7638
恭	-11.7639
準	-11.7639
憶	-11.7639
洪	-11.7639
漢	-11.7639
脈	-11.7639
討	-11.7726
營	-11.7726
謀	-11.7726
躁	-11.7726
俘	-11.7726
傅	-11.7726
穩	-11.7726
谣	-11.7726
旦	-11.7801
仰	-11.781
拷	-11.7812
肢	-11.7812
蒸	-11.7812
垒	-11.7812
杖	-11.7812
枕	-11.7812
砰	-11.7812
雜	-11.7812
杠	-11.7813
慰	-11.7898
澡	-11.7899
環	-11.79
览	-11.79
酬	-11.79
ط	-11.79
兮	-11.79
贡	-11.79
陶	-11.79
	-11.79
厨	-11.7987
爭	-11.7988
煤	-11.7989
罕	-11.7989
蜡	-11.7989
	-11.7989
摧	-11.8066
谓	-11.8078
魁	-11.8078
ش	-11.8078
啟	-11.8078
嬸	-11.8078
岗	-11.8078
朴	-11.8078
滅	-11.8078
癬	-11.8078
盆	-11.8078
勢	-11.8078
哄	-11.8078
携	-11.8078
莓	-11.8078
惧	-11.8168
驶	-11.8168
ᵽ	-11.8168
柄	-11.8168
脂	-11.8168
劍	-11.8168
咩	-11.8168
寿	-11.8168
弘	-11.8168
狸	-11.8168
笛	-11.8168
遮	-11.8168
陽	-11.8168
煩	-11.8254
润	-11.8256
況	-11.8257
戚	-11.8259
橱	-11.8259
舔	-11.8259
跃	-11.8259
較	-11.8259
鑽	-11.8259
痒	-11.8259
芯	-11.8259
胞	-11.835
戶	-11.8351
棕	-11.8351
浆	-11.8351
藍	-11.8351
証	-11.8351
冥	-11.8351
堕	-11.8351
邓	-11.8351
痴	-11.8442
優	-11.8443
溫	-11.8443
贫	-11.8443
咧	-11.8443
挚	-11.8443
敞	-11.8443
獎	-11.8443
耽	-11.8443
詞	-11.8443
赴	-11.8443
孩	-11.8511
诞	-11.8536
虽	-11.8536
齿	-11.8536
炼	-11.8537
冇	-11.8537
悦	-11.8537
淘	-11.8537
渔	-11.8537
烫	-11.8537
袜	-11.8537
補	-11.8537
複	-11.8537
豫	-11.8537
輩	-11.8537
遵	-11.8577
滩	-11.8629
憎	-11.8631
摊	-11.8631
斤	-11.8631
鳥	-11.8631
خ	-11.8631
哲	-11.8726
黃	-11.8726
	-11.8726
叨	-11.8726
呈	-11.8726
巷	-11.8726
廳	-11.8726
抄	-11.8726
菇	-11.8726
鐵	-11.8726
項	-11.8726
驴	-11.8726
浩	-11.8726
腕	-11.8726
卑	-11.8822
إ	-11.8823
县	-11.8823
掘	-11.8823
擺	-11.8823
浅	-11.8823
宠	-11.8918
殖	-11.892
飘	-11.892
刘	-11.892
娱	-11.892
崽	-11.892
炫	-11.892
膽	-11.892
酋	-11.892
饵	-11.892
唯	-11.8977
氧	-11.9016
洒	-11.9018
辉	-11.9018
鸭	-11.9018
削	-11.9018
嗑	-11.9018
豬	-11.9018
ǐ	-11.9018
呐	-11.9068
亏	-11.9104
驻	-11.9117
叮	-11.9117
夕	-11.9117
異	-11.9117
绅	-11.9117
ㄇ	-11.9117
袖	-11.9216
惕	-11.9217
苔	-11.9217
蝴	-11.9217
骸	-11.9217
	-11.9217
授	-11.9314
措	-11.9317
弦	-11.9318
沮	-11.9318
眨	-11.9318
畅	-11.9318
茱	-11.9318
辅	-11.9318
	-11.9318
	-11.9318
	-11.9318
蓄	-11.942
	-11.942
み	-11.942
嚼	-11.942
圓	-11.942
執	-11.942
廣	-11.942
盧	-11.942
蓋	-11.942
諒	-11.942
吾	-11.942
泣	-11.942
棄	-11.952
牧	-11.9522
济	-11.9522
究	-11.9523
眾	-11.9523
卸	-11.9523
喻	-11.9523
孟	-11.9523
晒	-11.9523
癫	-11.9523
贤	-11.9523
垫	-11.9523
駕	-11.9523
	-11.9523
	-11.9523
顧	-11.9626
译	-11.9627
描	-11.9627
誉	-11.9627
噪	-11.9627
島	-11.9627
萧	-11.9627
勉	-11.9627
寡	-11.9627
慘	-11.9627
戀	-11.9627
掏	-11.9627
掠	-11.9627
烛	-11.9627
玄	-11.9627
袍	-11.9627
邸	-11.9627
锐	-11.9627
赠	-11.9627
伪	-11.9722
亨	-11.9726
畢	-11.9732
伽	-11.9732
ṃ	-11.9732
棘	-11.9732
粘	-11.9732
膛	-11.9732
莽	-11.9732
褲	-11.9732
賺	-11.9732
偉	-11.9732
卜	-11.9732
宏	-11.9732
绞	-11.9732
蝶	-11.9732
赣	-11.9732
┮	-11.9732
ฃ	-11.9811
芭	-11.9835
歉	-11.9836
届	-11.9839
層	-11.9839
盼	-11.9839
菊	-11.9839
逞	-11.9839
閃	-11.9839
撬	-11.9839
籍	-11.9839
蛤	-11.9839
怜	-11.9939
祷	-11.9946
凌	-11.9946
刊	-11.9946
貴	-11.9946
鏡	-11.9946
	-11.9946
攝	-11.9946
梁	-11.9946
椒	-11.9946
舟	-11.9946
诀	-11.9946
逢	-11.9946
钞	-11.9946
	-11.9946
紋	-12.0055
刹	-12.0055
坡	-12.0055
殘	-12.0055
铲	-12.0055
鬧	-12.0055
焊	-12.0055
	-12.0055
择	-12.0164
贿	-12.0165
針	-12.0165
剖	-12.0165
崖	-12.0165
悼	-12.0165
掰	-12.0165
熏	-12.0165
茉	-12.0165
阔	-12.0165
陰	-12.0165
鮮	-12.0165
斧	-12.0165
肌	-12.0275
娃	-12.0276
負	-12.0276
協	-12.0276
卦	-12.0276
縫	-12.0276
誠	-12.0276
勋	-12.0276
沫	-12.0276
泊	-12.0276
蝠	-12.0276
匆	-12.0276
祇	-12.0276
董	-12.0384
颠	-12.0388
帳	-12.0388
編	-12.0388
顽	-12.0388
叭	-12.0388
悟	-12.0388
暫	-12.0388
栗	-12.0388
祥	-12.0388
雞	-12.0388
{	-12.0494
甚	-12.0499
晨	-12.05
矩	-12.0501
哋	-12.0502
函	-12.0502
挫	-12.0502
窥	-12.0502
茫	-12.0502
謂	-12.0502
阅	-12.0502
熄	-12.0502
酗	-12.0502
媒	-12.0615
惯	-12.0617
際	-12.0617
損	-12.0617
斥	-12.0617
棉	-12.0617
颈	-12.0617
旨	-12.0617
汪	-12.0617
粪	-12.0617
绊	-12.0617
翘	-12.0617
拥	-12.0666
廊	-12.0727
宜	-12.0732
讽	-12.0733
冈	-12.0733
戳	-12.0733
株	-12.0733
孽	-12.0733
潔	-12.0733
宵	-12.0851
徐	-12.0851
耿	-12.0851
舊	-12.0851
觸	-12.0851
訪	-12.0851
锯	-12.0851
Ω	-12.0851
吶	-12.0851
姊	-12.0851
曝	-12.0851
趾	-12.0851
郊	-12.0851
醋	-12.0851
鳄	-12.0851
憾	-12.0969
嚷	-12.097
澳	-12.097
؟	-12.097
坪	-12.097
娇	-12.097
婶	-12.097
織	-12.097
ǎ	-12.097
嗜	-12.097
裙	-12.1083
肤	-12.1089
遊	-12.109
暑	-12.109
顆	-12.109
呕	-12.109
喇	-12.109
屌	-12.109
桩	-12.109
甸	-12.109
蚁	-12.109
邁	-12.109
昧	-12.109
歹	-12.109
	-12.109
び	-12.109
	-12.109
键	-12.121
廉	-12.1211
勿	-12.1212
咁	-12.1212
愁	-12.1212
纷	-12.1212
虾	-12.1212
黏	-12.1212
+	-12.1212
伐	-12.1212
厲	-12.1212
奪	-12.1212
恤	-12.1212
捏	-12.1212
橋	-12.1212
锤	-12.1212
欣	-12.1335
續	-12.1336
碧	-12.1336
陣	-12.1336
驼	-12.1336
–	-12.1336
厢	-12.1336
喉	-12.1336
昔	-12.1336
稽	-12.1336
窍	-12.1336
肆	-12.1336
螺	-12.1336
框	-12.1336
譯	-12.1336
	-12.1336
■	-12.1461
憐	-12.1461
焚	-12.1461
狩	-12.1461
蛙	-12.1461
陋	-12.1461
獵	-12.1561
恢	-12.1585
伎	-12.1587
橘	-12.1587
臀	-12.1587
芒	-12.1587
诶	-12.1587
緒	-12.1587
農	-12.1587
	-12.1587
ฌ	-12.1715
棚	-12.1715
匣	-12.1715
唷	-12.1715
灿	-12.1715
犀	-12.1715
豹	-12.1715
銷	-12.1715
麵	-12.1715
咳	-12.1715
檬	-12.1715
聘	-12.1715
裔	-12.1715
礛	-12.1715
ى	-12.1845
婪	-12.1845
溺	-12.1845
铜	-12.1845
陌	-12.1845
喚	-12.1845
滥	-12.1845
贯	-12.1845
织	-12.1976
允	-12.1976
咐	-12.1977
غ	-12.1977
栽	-12.1977
粮	-12.1977
赃	-12.1977
姜	-12.1977
狦	-12.1977
呵	-12.211
咨	-12.211
〝	-12.211
ウ	-12.211
慨	-12.211
涌	-12.211
禱	-12.211
絡	-12.211
聋	-12.211
躯	-12.211
∼	-12.211
〞	-12.211
嘱	-12.211
柑	-12.211
须	-12.2245
儘	-12.2245
秃	-12.2245
凤	-12.2245
坤	-12.2245
婦	-12.2245
寧	-12.2245
峡	-12.2245
掃	-12.2245
柳	-12.2245
淨	-12.2245
紙	-12.2245
艳	-12.2245
迁	-12.2245
霜	-12.2245
叠	-12.2245
壯	-12.2245
梳	-12.2245
飙	-12.2245
	-12.2245
碳	-12.2245
紈	-12.2245
扰	-12.2375
檢	-12.2381
懼	-12.2382
掐	-12.2382
橙	-12.2382
沦	-12.2382
財	-12.2382
鸽	-12.2382
悯	-12.2382
獻	-12.2382
肋	-12.2382
薛	-12.2382
闸	-12.2382
靶	-12.2382
〕	-12.2382
儀	-12.2521
ص	-12.2521
坞	-12.2521
幺	-12.2521
拋	-12.2521
朽	-12.2521
芮	-12.2521
載	-12.2521
奮	-12.2521
綠	-12.2521
賓	-12.2521
т	-12.2521
慶	-12.2662
癡	-12.2662
贊	-12.2662
颤	-12.2662
侯	-12.2662
稚	-12.2662
綁	-12.2662
绘	-12.2662
茲	-12.2662
ú	-12.2662
浸	-12.2662
	-12.2662
鐘	-12.268
艰	-12.2804
颜	-12.2804
題	-12.2804
鸦	-12.2805
咖	-12.2805
乞	-12.2805
億	-12.2805
曦	-12.2805
檔	-12.2805
绒	-12.2805
虛	-12.2805
谐	-12.2805
餘	-12.2805
鸣	-12.2805
卒	-12.2805
彭	-12.2805
柠	-12.2805
禦	-12.2805
颁	-12.2805
眖	-12.2805
擔	-12.2946
ぐ	-12.2949
僵	-12.295
癌	-12.295
餅	-12.295
拌	-12.295
浦	-12.295
竖	-12.295
賤	-12.295
醇	-12.295
搁	-12.295
斜	-12.295
瓣	-12.295
筝	-12.295
飾	-12.295
	-12.295
ฏ	-12.3008
叔	-12.3087
篷	-12.3097
赂	-12.3097
咻	-12.3097
泛	-12.3097
祟	-12.3097
評	-12.3097
貼	-12.3097
馅	-12.3097
ㄠ	-12.3097
咽	-12.3097
採	-12.3097
辖	-12.3097
鍵	-12.3097
湯	-12.3246
蔼	-12.3246
赦	-12.3246
ز	-12.3246
亥	-12.3246
刃	-12.3246
剃	-12.3246
哮	-12.3246
噬	-12.3246
妍	-12.3246
彪	-12.3246
捞	-12.3246
杉	-12.3246
沼	-12.3246
涨	-12.3246
診	-12.3246
陀	-12.3246
骆	-12.3246
	-12.3246
奢	-12.3246
谭	-12.3246
	-12.3246
蹈	-12.3397
锦	-12.3398
伺	-12.3398
庸	-12.3398
廚	-12.3398
廷	-12.3398
榴	-12.3398
軟	-12.3398
㗎	-12.3398
郝	-12.3398
吩	-12.3552
嫩	-12.3552
础	-12.3552
蔓	-12.3552
違	-12.3552
闺	-12.3552
倦	-12.3552
掷	-12.3552
朮	-12.3552
陸	-12.3552
ฅ	-12.368
址	-12.3703
嗅	-12.3708
宪	-12.3708
撐	-12.3708
榜	-12.3708
煞	-12.3708
皂	-12.3708
罰	-12.3708
舵	-12.3708
蔬	-12.3708
郵	-12.3708
锻	-12.3708
賞	-12.3708
佈	-12.3708
駛	-12.3708
糕	-12.3829
漠	-12.3866
瞄	-12.3866
愤	-12.3866
繼	-12.3866
ï	-12.3867
い	-12.3867
噁	-12.3867
壶	-12.3867
津	-12.3867
涅	-12.3867
潛	-12.3867
砖	-12.3867
竒	-12.3867
缴	-12.3867
芳	-12.3867
訂	-12.3867
審	-12.3867
屑	-12.3867
憤	-12.3867
撇	-12.3867
窖	-12.3867
蝇	-12.3867
ノ	-12.3867
扒	-12.4028
窟	-12.4028
聆	-12.4028
轿	-12.4028
哑	-12.4028
樱	-12.4028
瞪	-12.4028
稻	-12.4028
绷	-12.4028
羔	-12.4028
髓	-12.4028
誕	-12.4028
谦	-12.4028
芥	-12.4028
幽	-12.4191
劃	-12.4191
逻	-12.4192
佔	-12.4192
侏	-12.4192
芽	-12.4192
冤	-12.4192
悍	-12.4192
拽	-12.4192
硫	-12.4192
逸	-12.4192
倉	-12.4192
減	-12.4192
癖	-12.4192
	-12.4192
噴	-12.4192
徹	-12.4192
橄	-12.4192
愚	-12.4358
	-12.4358
儒	-12.4358
幢	-12.4358
斩	-12.4358
蹦	-12.4358
も	-12.4358
劑	-12.4358
浇	-12.4358
绵	-12.4358
虏	-12.4358
驳	-12.4358
獺	-12.4358
腊	-12.4527
凰	-12.4528
渺	-12.4528
煌	-12.4528
竹	-12.4528
	-12.4528
慣	-12.4528
抉	-12.4528
純	-12.4528
	-12.4528
捍	-12.4528
杨	-12.4528
焉	-12.4528
疭	-12.4528
裘	-12.4528
鄉	-12.4528
钝	-12.4528
稰	-12.4528
ō	-12.4528
歡	-12.47
谨	-12.47
茸	-12.47
ฺ	-12.47
喪	-12.47
垢	-12.47
腺	-12.47
蕉	-12.47
憑	-12.47
枯	-12.47
炖	-12.47
瘟	-12.47
蘿	-12.47
構	-12.47
狭	-12.47
葱	-12.47
劉	-12.47
	-12.47
釋	-12.4764
脆	-12.4874
捆	-12.4876
狙	-12.4876
瘫	-12.4876
虔	-12.4876
額	-12.4876
兑	-12.4876
晴	-12.4876
碌	-12.4876
缚	-12.4876
骤	-12.4876
ô	-12.4876
乃	-12.4876
乜	-12.4876
恳	-12.4876
禽	-12.4876
Θ	-12.4876
ゴ	-12.4876
猧	-12.4876
玡	-12.4876
综	-12.4876
冕	-12.5054
猶	-12.5054
咕	-12.5054
坊	-12.5054
椎	-12.5054
牠	-12.5054
豁	-12.5054
贸	-12.5054
辰	-12.5054
飲	-12.5054
	-12.5054
	-12.5054
┬	-12.5054
	-12.5054
厉	-12.5235
崇	-12.5236
渊	-12.5236
瑕	-12.5236
窒	-12.5236
竊	-12.5236
範	-12.5236
绰	-12.5236
肪	-12.5236
腸	-12.5236
[...]
