{"<unk>": 0, "<s>": 1, "</s>": 2, "<pad>": 3, "\u2581": 4, "?": 5, "-": 6, ",": 7, "\u7684": 8, ".": 9, "!": 10, "\u4e86": 11, "...": 12, "\u6211": 13, "\u4f60": 14, "\u0e17\u0e35\u0e48": 15, "\u0e04\u0e38\u0e13": 16, "\u0e09\u0e31\u0e19": 17, "\u0e41\u0e25\u0e49\u0e27": 18, "\u4ed6": 19, "\u662f": 20, "cH": 21, "s": 22, "\u0e44\u0e14\u0e49": 23, "\u4e0d": 24, "\u0e19\u0e30": 25, "\u0e21\u0e31\u0e19": 26, "'": 27, "\u0e21\u0e32": 28, "\u5728": 29, "\u2581-": 30, "\u0e44\u0e1b": 31, "\u0e1c\u0e21": 32, "\u5417": 33, "\u0e40\u0e02\u0e32": 34, "\u0e02\u0e2d\u0e07": 35, "\u0e40\u0e18\u0e2d": 36, "\u6211\u4eec": 37, "\u0e41\u0e25\u0e30": 38, "\u0e44\u0e21\u0e48": 39, "\u0e43\u0e2b\u0e49": 40, "\u6709": 41, "\u5979": 42, "\u0e40\u0e1b\u0e47\u0e19": 43, "\u4eba": 44, "\u0e43\u0e19": 45, "\u0e40\u0e25\u0e22": 46, "2": 47, "\u0e40\u0e23\u0e32": 48, "\u0e19\u0e32\u0e22": 49, "\u0e19\u0e35\u0e48": 50, "\u0e40\u0e18": 51, "\u3002": 52, "\"": 53, "\u0e27\u0e48\u0e32": 54, "\u597d": 55, "\u0e08\u0e30": 56, "\u0e21\u0e35": 57, "\u0e19": 58, "\u5427": 59, "\u8fd9": 60, "F": 61, "\u0e01\u0e31\u0e1a": 62, "111111}": 63, "\u4e0a": 64, "\u4e00": 65, "\u0e2d\u0e22\u0e39\u0e48": 66, "\u0e2a": 67, "\u0e41\u0e15\u0e48": 68, "\u8981": 69, "\u90a3": 70, "\u554a": 71, "\u6765": 72, "\u0e19\u0e35\u0e49": 73, "\"\"": 74, "t": 75, "\u548c": 76, "\u0e01\u0e32\u0e23": 77, "\u2581{\\": 78, "\u0e14\u0e49\u0e27\u0e22": 79, "\u0e01\u0e47": 80, "\u0e2d\u0e30\u0e44\u0e23": 81, "\"\"\"": 82, "\u5c31": 83, "\u53bb": 84, "cHFFFFFF": 85, "\u0e14\u0e35": 86, "\u0e01\u0e31\u0e19": 87, "\u4ed6\u4eec": 88, "\u5230": 89, "}{\\3": 90, "\u0e40\u0e19": 91, "\u2581you": 92, "\u0e46": 93, "\u4ec0\u4e48": 94, "\u0e40\u0e2b\u0e23\u0e2d": 95, "\u0e04\u0e19": 96, "..": 97, "\u0e44\u0e21\u0e48\u0e44\u0e14\u0e49": 98, "\u4f1a": 99, "\u2581\u6211": 100, "\u0e04\u0e23\u0e31\u0e1a": 101, "\u0e01": 102, "\u2581the": 103, "\u5462": 104, "\u0e43\u0e0a\u0e48": 105, "\u8bf4": 106, "\u5927": 107, "\u0e07": 108, "\u4f60\u7684": 109, "\u60f3": 110, "\u0e02\u0e49\u0e32": 111, "\u0e08\u0e32\u0e01": 112, "\u0e14": 113, "\u0e17\u0e4d\u0e32": 114, "\u0e15\u0e31\u0e27": 115, "\u2581I": 116, "\u0e21": 117, "\u0e19\u0e31\u0e48\u0e19": 118, "\u0e14\u0e39": 119, "\u90fd": 120, "\u0e25\u0e48\u0e30": 121, "\u2581to": 122, "\u0e21\u0e32\u0e01": 123, "\u6211\u7684": 124, "\u2581\u4f60": 125, "\u4e00\u4e2a": 126, "\u0e2d\u0e35\u0e01": 127, "\u0e2a\u0e34": 128, "\u0e40\u0e23\u0e37\u0e48\u0e2d\u0e07": 129, "\u4f60\u4eec": 130, "\u0e40\u0e08\u0e49\u0e32": 131, "\u0e1e\u0e27\u0e01\u0e40\u0e02\u0e32": 132, "\u8fc7": 133, "\u80fd": 134, "\u0e41\u0e21\u0e48": 135, "\u5f88": 136, "\u5b50": 137, "\u0e1e\u0e48\u0e2d": 138, "\u5f97": 139, "\u91cc": 140, "\u4e0b": 141, "\u2581a": 142, "\u0e19\u0e48\u0e30": 143, "\u8fd9\u4e2a": 144, "\u770b": 145, "\u0e44\u0e27\u0e49": 146, "\u0e25\u0e39\u0e01": 147, "\u2581\u0e41\u0e25\u0e30": 148, "\u88ab": 149, "\u628a": 150, "\u0e04": 151, "\u0e04\u0e27\u0e32\u0e21": 152, "\\": 153, "\u5c0f": 154, "\u0e41\u0e01": 155, "{\\4": 156, "\u2581\u0e04\u0e38\u0e13": 157, "\u51fa": 158, "\u8d70": 159, "\u0e1a": 160, "\u2581\u0e09\u0e31\u0e19": 161, "\u5bf9": 162, "\u505a": 163, "c": 164, "\u0e02\u0e2d\u0e07\u0e04\u0e38\u0e13": 165, "\u0e2b\u0e23\u0e37\u0e2d": 166, "\u0e04\u0e48\u0e30": 167, "\u0e40\u0e2d\u0e32": 168, "\u65af": 169, "\u0e16\u0e39\u0e01": 170, "\u7528": 171, "\u0e15\u0e49\u0e2d\u0e07": 172, "\u0e25": 173, "\u70b9": 174, "\u4e0d\u662f": 175, "\u0e19\u0e31\u0e49\u0e19": 176, "\u6ca1\u6709": 177, "\u2581\u0e41\u0e15\u0e48": 178, "\u0e17": 179, "\u0e22": 180, "\u4e5f": 181, "\u73b0\u5728": 182, "I": 183, "\u0e27": 184, "\u0e2b\u0e23\u0e2d\u0e01": 185, "m": 186, "n": 187, "\u6ca1": 188, "\u0e1e\u0e27\u0e01": 189, "\u522b": 190, "\u0e2b\u0e32": 191, "\u624b": 192, ")": 193, "\u0e02\u0e2d\u0e07\u0e09\u0e31\u0e19": 194, "re": 195, "\u5b83": 196, "\u4f46": 197, "y": 198, "\u6253": 199, "\u0e1a\u0e2d\u0e01": 200, "\u7740": 201, "\u0e40": 202, "\u0e04\u0e37\u0e2d": 203, "\u0e40\u0e2d\u0e07": 204, "\u7684\u4eba": 205, "\u0e1e\u0e39\u0e14": 206, "\u0e42\u0e2d\u0e40\u0e04": 207, "\u0e17\u0e48\u0e32\u0e19": 208, "\u5730": 209, "\u0e01\u0e48\u0e2d\u0e19": 210, "1": 211, "\u0e43\u0e0a\u0e49": 212, "\u0e16\u0e36\u0e07": 213, "\u0e41\u0e04\u0e48": 214, "\u4e2d": 215, "\u0e1b": 216, "\u0e44\u0e2b\u0e21": 217, "\u0088": 218, "\u2581\u0e44\u0e21\u0e48": 219, "\u0e15\u0e2d\u0e19\u0e19\u0e35\u0e49": 220, "\u0099": 221, "\u518d": 222, "\u0e31": 223, "\u6b7b": 224, "\u0e15": 225, "\u53ef\u4ee5": 226, "\u0e16\u0e49\u0e32": 227, "\u5feb": 228, "\u4e2a": 229, "\u77e5\u9053": 230, "\u0e2d\u0e22\u0e48\u0e32\u0e07": 231, "\u5c31\u662f": 232, "\u0e44\u0e21\u0e48\u0e21\u0e35": 233, "000000}": 234, "\u0e23": 235, "\u0e15\u0e32\u0e22": 236, "\u4ece": 237, "\u0e08\u0e23\u0e34\u0e07\u0e46": 238, "\u0e40\u0e2b\u0e47\u0e19": 239, "\u0e21\u0e31\u0e49\u0e22": 240, "\u0e17\u0e32\u0e07": 241, "\u6211\u5011": 242, "\u0e02\u0e36\u0e49\u0e19": 243, "\u0e17\u0e35\u0e48\u0e08\u0e30": 244, "\u0e17\u0e4d\u0e32\u0e44\u0e21": 245, "\u0e2d\u0e2d\u0e01": 246, "\u0e43\u0e04\u0e23": 247, "\u0e0a\u0e31\u0e49\u0e19": 248, "\u2581it": 249, "d": 250, "\u591a": 251, "\u0e42\u0e2d\u0e49": 252, "\u0e40\u0e02\u0e49\u0e32": 253, "\u2581\u0e1c\u0e21": 254, "\u4e8b": 255, "\u0e19\u0e48\u0e32": 256, "\u0e07\u0e32\u0e19": 257, "\u0e40\u0e1e\u0e37\u0e48\u0e2d": 258, "\u592a": 259, "\u53ef": 260, "\u2581of": 261, "\u5148\u751f": 262, "\u0e44\u0e21\u0e48\u0e43\u0e0a\u0e48": 263, "\u0e17\u0e35\u0e48\u0e19\u0e35\u0e48": 264, "ing": 265, "\u0e0a\u0e48\u0e27\u0e22": 266, "a": 267, "\u90a3\u4e2a": 268, "\u5bb6": 269, "\u6211\u60f3": 270, "\u5fc3": 271, "\u0081": 272, "\u0e2b": 273, "\u7279": 274, "\u0e15\u0e48\u0e2d": 275, "\u0e2b\u0e19\u0e49\u0e32": 276, ":": 277, "\u8fd9\u662f": 278, "\u81ea\u5df1": 279, "\u5934": 280, "\u0e08\u0e23\u0e34\u0e07": 281, "\u0e25\u0e07": 282, "\u0e09\u0e31\u0e19\u0e08\u0e30": 283, "\u5929": 284, "\u0e2b\u0e19\u0e39": 285, "\u0e1e\u0e27\u0e01\u0e40\u0e23\u0e32": 286, "\u65f6": 287, "\u54e6": 288, "\u2581\u0e46": 289, "\u0e40\u0e14\u0e47\u0e01": 290, "\u597d\u5427": 291, "{\\3": 292, "\u0e2a\u0e48\u0e07": 293, "\u2581\u0e17\u0e35\u0e48": 294, "\u771f": 295, "\u8fd8": 296, "\u4e3a": 297, "\u0e22\u0e31\u0e07": 298, "\u0e2d": 299, "\u0e43\u0e08": 300, "\u0e23\u0e39\u0e49": 301, "\u0e2b\u0e19\u0e36\u0e48\u0e07": 302, "\u0e04\u0e34\u0e14\u0e27\u0e48\u0e32": 303, "\u0e04\u0e34\u0e14": 304, "ed": 305, "\u5fb7": 306, "\u8fd9\u6837": 307, "\u8ddf": 308, "\u2581\"\"": 309, "\u0e0a": 310, "\u0e40\u0e2b\u0e21\u0e37\u0e2d\u0e19": 311, "\u524d": 312, "\u55ce": 313, "\u0e1c\u0e39\u0e49": 314, "\u2581that": 315, "\u0e2d\u0e22\u0e48\u0e32": 316, "\u0e40\u0e07\u0e34\u0e19": 317, "\u0e02\u0e2d\u0e07\u0e40\u0e23\u0e32": 318, "\u5c14": 319, "\u0e48": 320, "\u0e40\u0e1e\u0e23\u0e32\u0e30": 321, "\u2581in": 322, "\u0e2a\u0e4d\u0e32\u0e2b\u0e23\u0e31\u0e1a": 323, "\u0e40\u0e04\u0e49\u0e32": 324, "(": 325, "\u0e40\u0e2e\u0e49": 326, "\u0e15\u0e32\u0e21": 327, "\u5982\u679c": 328, "202020}": 329, "\u0e44\u0e07": 330, "\u5f00": 331, "\u6bd4": 332, "\u0084": 333, "\u5f53": 334, "\u0e43\u0e2b\u0e21\u0e48": 335, "\u0e1a\u0e49\u0e32\u0e19": 336, "\u0e2b\u0e19\u0e48\u0e2d\u0e22": 337, "\u751f": 338, "\u514b": 339, "\u0e2d\u0e22\u0e39\u0e48\u0e43\u0e19": 340, "\u9019": 341, "\u0080": 342, "\u0e01\u0e4d\u0e32\u0e25\u0e31\u0e07": 343, "\u00b7": 344, "\u540e": 345, "\u0e06\u0e48\u0e32": 346, "{\\": 347, "\u0e49": 348, "\u8fd8\u6709": 349, "\u0e07\u0e31\u0e49\u0e19": 350, "\u4ed6\u7684": 351, "\u7ed9\u6211": 352, "\u6703": 353, "\u6211\u662f": 354, "\u2581me": 355, "\u662f\u7684": 356, "\u0e02\u0e2d": 357, "\u8fd9\u4e9b": 358, "\u0e23\u0e16": 359, "\u4e0d\u8981": 360, "\u0e40\u0e21\u0e37\u0e48\u0e2d": 361, "\u62c9": 362, "}{\\4": 363, "r": 364, "\u0e2a\u0e34\u0e48\u0e07\u0e17\u0e35\u0e48": 365, "\u0e40\u0e25\u0e48\u0e19": 366, "\u0089": 367, "er": 368, "\u56de": 369, "\u0e2d\u0e2d\u0e01\u0e44\u0e1b": 370, "\u0e17\u0e38\u0e01\u0e04\u0e19": 371, "\u0e0b\u0e30": 372, "\u800c": 373, "\u53c8": 374, "\u627e": 375, "\u5e74": 376, "\u6211\u8981": 377, "\u0e15\u0e32": 378, "\u0e01\u0e25\u0e31\u0e1a\u0e21\u0e32": 379, "\u5403": 380, "_": 381, "\u0e17\u0e31\u0e49\u0e07\u0e2b\u0e21\u0e14": 382, "\u0e01\u0e34\u0e19": 383, "\u0e40\u0e08\u0e2d": 384, "\u0e2a\u0e4c": 385, "\u0e23\u0e31\u0e1a": 386, "\u0e1f\u0e31\u0e07": 387, "\u0e23\u0e2d": 388, "\u5df2\u7ecf": 389, "\u4f86": 390, "\u0e2b\u0e23\u0e2d": 391, "\u597d\u4e86": 392, "\u0e21\u0e31\u0e19\u0e40\u0e1b\u0e47\u0e19": 393, "\u2581\u0e21\u0e31\u0e19": 394, "\u4e4b": 395, "\u0e41\u0e19\u0e48": 396, "\u0e2b\u0e22\u0e38\u0e14": 397, "\u884c": 398, "\u0e40\u0e27\u0e25\u0e32": 399, "\u2581\u6211\u4eec": 400, "\u8f66": 401, "\u0e25\u0e30": 402, "\u53d1": 403, "\u6211\u77e5\u9053": 404, "\u62ff": 405, "\u957f": 406, "\u542c": 407, "\u0087": 408, "\u0e40\u0e1e\u0e37\u0e48\u0e2d\u0e19": 409, "\u0e17\u0e4d\u0e32\u0e07\u0e32\u0e19": 410, "\u53eb": 411, "\u65e0": 412, "\u2581\u0e40\u0e18\u0e2d": 413, "\u0e1a\u0e2d\u0e01\u0e27\u0e48\u0e32": 414, "\u0e2d\u0e22\u0e32\u0e01": 415, "\u0e0a\u0e37\u0e48\u0e2d": 416, "\u7ed9": 417, "\u0e42\u0e2d": 418, "\u8001": 419, "\u597d\u7684": 420, "\u0e15\u0e31\u0e27\u0e40\u0e2d\u0e07": 421, "\u4e00\u4e0b": 422, "\u50cf": 423, "\u0e19\u0e49\u0e4d\u0e32": 424, "\u8aaa": 425, "\u0e21\u0e37\u0e2d": 426, "\u0e40\u0e23\u0e32\u0e08\u0e30": 427, "\u0e01\u0e47\u0e44\u0e14\u0e49": 428, "\u0e2b\u0e31\u0e27": 429, "\u0e17\u0e4d\u0e32\u0e43\u0e2b\u0e49": 430, "\u0e02\u0e2d\u0e07\u0e40\u0e02\u0e32": 431, "\u2581\u0e40\u0e23\u0e32": 432, "\u2581\u0e43\u0e0a\u0e48": 433, "\u5e26": 434, "\u0e0a\u0e35\u0e27\u0e34\u0e15": 435, "\u0e1f": 436, "\u6210": 437, "e": 438, "\u0e22\u0e32": 439, "\u0e23\u0e31\u0e01": 440, "\u8c01": 441, "\u2581and": 442, "\u653e": 443, "i": 444, "\u0e43\u0e0a\u0e48\u0e44\u0e2b\u0e21": 445, "\u0e04\u0e30": 446, "\u2581is": 447, "\u4e3a\u4ec0\u4e48": 448, "\u5f00\u59cb": 449, "\u8005": 450, "\u5b69\u5b50": 451, "\u0e43\u0e0a\u0e48\u0e21\u0e31\u0e49\u0e22": 452, "\u2581\u0e40\u0e02\u0e32": 453, "\u600e\u4e48": 454, "\u6700": 455, "\u6c34": 456, "\u4e00\u6837": 457, "\u0e40\u0e01\u0e35\u0e48\u0e22\u0e27\u0e01\u0e31\u0e1a": 458, "\u563f": 459, "in": 460, "\u0e43\u0e2a\u0e48": 461, "A": 462, "\u0e0b\u0e34": 463, "\u8eab": 464, "\u6240\u4ee5": 465, "\u7231": 466, "\u8bf7": 467, "\u0e1e": 468, "\u0e15\u0e2d\u0e19": 469, "\u6211\u4f1a": 470, "\u0e1e\u0e32": 471, "\u0e01\u0e25\u0e31\u0e1a": 472, "\u8ba9": 473, "C": 474, "\u4f46\u662f": 475, "\u9700\u8981": 476, "\u66f4": 477, "\u2581\u0e41\u0e25\u0e49\u0e27": 478, "\u2581\u4ed6": 479, "\u2581\u0e19\u0e32\u0e22": 480, "\u90a3\u4e48": 481, "\u0e40\u0e23\u0e34\u0e48\u0e21": 482, "\u0e04\u0e19\u0e17\u0e35\u0e48": 483, "\u0e41\u0e1a\u0e1a": 484, "\u90a3\u4e9b": 485, "\u4e0d\u4f1a": 486, "\u56e0\u4e3a": 487, "\u0e17\u0e35": 488, "\u0e23\u0e39\u0e49\u0e27\u0e48\u0e32": 489, "\u0e0a\u0e2d\u0e1a": 490, "6": 491, "\u53ef\u80fd": 492, "\u7684\u4e8b": 493, "\u627e\u5230": 494, "\u5de5\u4f5c": 495, "\u624d": 496, "\u5148": 497, "\u4f4f": 498, "\u60a8": 499, "\u4e86\u5417": 500, "\u0e40\u0e2a\u0e35\u0e22": 501, "/": 502, "\u0e2d\u0e2d\u0e01\u0e21\u0e32": 503, "\u0e02\u0e2d\u0e07\u0e40\u0e18\u0e2d": 504, "\u7b49": 505, "\u9762": 506, "\u8def": 507, "\u529b": 508, "\u6240": 509, "3": 510, "\u8ba9\u6211": 511, "\u0e40\u0e16\u0e2d\u0e30": 512, "\u8fd9\u91cc": 513, "\u0e22\u0e34\u0e07": 514, "\u2581on": 515, "\u81ea": 516, "\u0e25\u0e32": 517, "\u0e1e\u0e2d": 518, "\u0e19\u0e32": 519, "\u0e27\u0e31\u0e19": 520, "\u0e1a\u0e19": 521, "\u95e8": 522, "\u5229": 523, "\u0e17\u0e38\u0e01\u0e2d\u0e22\u0e48\u0e32\u0e07": 524, "S": 525, "\u897f": 526, "\u0e22\u0e31\u0e07\u0e44\u0e07": 527, "\u2581be": 528, "\u6709\u4eba": 529, "\u5361": 530, "\u0e19\u0e31\u0e01": 531, "\u4e09": 532, "fs": 533, "al": 534, "\u0e01\u0e27\u0e48\u0e32": 535, "\u2581we": 536, "\u0e04\u0e38\u0e13\u0e08\u0e30": 537, "\u53ea\u662f": 538, "\u0e44\u0e2d\u0e49": 539, "\u6cd5": 540, "\u4f60\u662f": 541, "\u7684\u65f6\u5019": 542, "\u0e23\u0e4c": 543, "\u4e0d\u80fd": 544, "\u9ad8": 545, "\u8c22\u8c22": 546, "\u8fd8\u662f": 547, "\u0e15\u0e49\u0e2d\u0e07\u0e01\u0e32\u0e23": 548, "\u8fd9\u4e48": 549, "\u4ed6\u5011": 550, "\u0e43\u0e2b\u0e0d\u0e48": 551, "\u0e2a\u0e2d\u0e07": 552, "\u0e17\u0e38\u0e01": 553, "\u5c0d": 554, "\u0095": 555, "\u0e1a\u0e49\u0e32\u0e07": 556, "\u0e08": 557, "\u94b1": 558, "\u91d1": 559, "\u0e42\u0e25\u0e01": 560, "\u0e17\u0e34\u0e49\u0e07": 561, "\u7ed9\u4f60": 562, "\u0e40\u0e23\u0e37\u0e48\u0e2d\u0e07\u0e19\u0e35\u0e49": 563, "l": 564, "\u540d": 565, "\u90fd\u662f": 566, "\u65f6\u95f4": 567, "\u8fc7\u6765": 568, "\u0e1e\u0e27\u0e01\u0e21\u0e31\u0e19": 569, "\u0e41\u0e1a\u0e1a\u0e19\u0e35\u0e49": 570, "\u0e1b\u0e35": 571, "\u52a8": 572, "\u5206": 573, "\u2581for": 574, "\u770b\u770b": 575, "\u672c": 576, "\u5f88\u597d": 577, "\u0e40\u0e02\u0e49\u0e32\u0e21\u0e32": 578, "\u89c1": 579, "\u0e44\u0e2b\u0e19": 580, "\u7684\u8bdd": 581, "\u2581/": 582, "\u0e40\u0e19\u0e35\u0e48\u0e22": 583, "\u0e23\u0e32": 584, "\u65b0": 585, "\u683c": 586, "\u0e2b\u0e23\u0e37\u0e2d\u0e40\u0e1b\u0e25\u0e48\u0e32": 587, "\u0e21\u0e2d\u0e07": 588, "\u0e1c\u0e21\u0e08\u0e30": 589, "5": 590, "\u8d77": 591, "\u9053": 592, "\u0e02\u0e2d\u0e1a\u0e04\u0e38\u0e13": 593, "\u0e17\u0e35\u0e48\u0e2a\u0e38\u0e14": 594, "\u4ee5": 595, "ll": 596, "\u771f\u7684": 597, "\u0e40\u0e23\u0e35\u0e22\u0e01": 598, "\u5916": 599, "\u56de\u6765": 600, "\u7f8e": 601, "\u0e17\u0e31\u0e49\u0e07": 602, "\u53ea": 603, "\u2581your": 604, "\u5411": 605, "\u0e40\u0e1b\u0e34\u0e14": 606, "\u0e15\u0e31\u0e49\u0e07": 607, "\u9a6c": 608, "\u0e2a\u0e32\u0e22": 609, "\u0e04\u0e4d\u0e32": 610, "\u4e1c\u897f": 611, "\u0e0b": 612, "\u4f60\u77e5\u9053": 613, "\u0e08\u0e31\u0e1a": 614, "\u0e17\u0e4d\u0e32\u0e2d\u0e30\u0e44\u0e23": 615, "\u4ec0\u9ebc": 616, "\u4e8e": 617, "\u0e40\u0e14\u0e34\u0e19": 618, "\u0e1e\u0e1a": 619, "\u4eca\u5929": 620, "\u8fdb": 621, "\u0e44\u0e21\u0e48\u0e40\u0e04\u0e22": 622, "\u2581know": 623, "\u6211\u4e0d\u77e5\u9053": 624, "\u6211\u4eec\u7684": 625, "\u53f7": 626, "an": 627, "\u5c06": 628, "\u0e2d\u0e32": 629, "\u670b\u53cb": 630, "\u0e2b\u0e49\u0e2d\u0e07": 631, "bg": 632, "transparent": 633, "\u0e2b\u0e25\u0e31\u0e07": 634, "\u67aa": 635, "\u5b89": 636, "\u0e25\u0e2d\u0e07": 637, "\u4f60\u8981": 638, "\u2581\u4e0d": 639, "\u544a\u8bc9\u6211": 640, "\u0e40\u0e2a\u0e35\u0e22\u0e07": 641, "\u0e19\u0e4d\u0e32": 642, "\u2581\u4f46": 643, "\u0e30\u0e15": 644, "\u2581do": 645, "\u91cd": 646, "\u51fa\u53bb": 647, "\u7136\u540e": 648, "\u0e42\u0e14\u0e22": 649, "\u2581this": 650, "or": 651, "\u0e1c\u0e34\u0e14": 652, "\u0e2a\u0e23\u0e49\u0e32\u0e07": 653, "\u0e23\u0e36\u0e40\u0e1b\u0e25\u0e48\u0e32": 654, "\u60c5": 655, "\u2581was": 656, "u": 657, "en": 658, "\u73a9": 659, "\u0096": 660, "\u0e41\u0e2b\u0e48\u0e07": 661, "\u7f57": 662, "\u0e44\u0e1b\u0e41\u0e25\u0e49\u0e27": 663, "\u0e40\u0e04\u0e23\u0e37\u0e48\u0e2d\u0e07": 664, "\u51fa\u6765": 665, "\u0e40\u0e2d": 666, "\u0e04\u0e37\u0e19": 667, "\u0e40\u0e23": 668, "\u0e21\u0e34": 669, "fn": 670, "\u5566": 671, "\u6b63": 672, "\u6389": 673, "\u4e4b\u524d": 674, "\u4e0d\u77e5\u9053": 675, "\u0e40\u0e02\u0e49\u0e32\u0e43\u0e08": 676, "\u0e1e\u0e35\u0e48": 677, "le": 678, "\u0e02\u0e2d\u0e07\u0e1c\u0e21": 679, "\u0e04\u0e23\u0e2d\u0e1a\u0e04\u0e23\u0e31\u0e27": 680, "\u2581\u0e16\u0e49\u0e32": 681, "h": 682, "\u0e40\u0e23\u0e37\u0e2d": 683, "\u706b": 684, "\u0e16\u0e32\u0e21": 685, "\u95ee": 686, "\u0e1a\u0e49\u0e32": 687, "\u0e20\u0e32\u0e1e": 688, "\u904e": 689, "\u0e04\u0e07": 690, "\u0e1e\u0e22\u0e32\u0e22\u0e32\u0e21": 691, "\u0e44\u0e14\u0e49\u0e23\u0e31\u0e1a": 692, "B": 693, "T": 694, "\u0e1e\u0e27\u0e01\u0e19\u0e31\u0e49\u0e19": 695, "\u6069": 696, "\u0e15\u0e34\u0e14": 697, "\u2581have": 698, "\u0e40\u0e2d\u0e32\u0e25\u0e48\u0e30": 699, "\u4f5c": 700, "\u0e40\u0e02\u0e49\u0e32\u0e44\u0e1b": 701, "\u0e15\u0e4d\u0e32\u0e23\u0e27\u0e08": 702, "\u0e40\u0e23\u0e47\u0e27": 703, "\u0e40\u0e04\u0e22": 704, "\u0e1c\u0e48\u0e32\u0e19": 705, "\u0e0b\u0e35": 706, "\u0e1e\u0e23\u0e30\u0e40\u0e08\u0e49\u0e32": 707, "\u0e1b\u0e25\u0e48\u0e2d\u0e22": 708, "\u8bdd": 709, "\u0e40\u0e2b\u0e21\u0e37\u0e2d\u0e19\u0e01\u0e31\u0e19": 710, "\u4eec": 711, "\u662f\u554a": 712, "\u770b\u5230": 713, "\u6d77": 714, "\u5728\u8fd9\u91cc": 715, "\u0e23\u0e34": 716, "\u90a3\u662f": 717, "\u0e01\u0e25\u0e31\u0e1a\u0e44\u0e1b": 718, "\u4e00\u8d77": 719, "\u0e2d\u0e22\u0e39\u0e48\u0e17\u0e35\u0e48\u0e19\u0e35\u0e48": 720, "\u53ea\u6709": 721, "ar": 722, "\u79bb\u5f00": 723, "\u0e40\u0e01\u0e47\u0e1a": 724, "\u4e5f\u8bb8": 725, "\u0e43\u0e2b\u0e49\u0e09\u0e31\u0e19": 726, "\u4e48": 727, "\u4e24": 728, "\u0e40\u0e18\u0e0d\u0e40\u0e18": 729, "\u95ee\u9898": 730, "\u5149": 731, "\u0e2a\u0e48\u0e27\u0e19": 732, "\u4fe1": 733, "\u795e": 734, "\u5b89\u5168": 735, "\u0e44\u0e21\u0e48\u0e40\u0e1b\u0e47\u0e19\u0e44\u0e23": 736, "\u0e2a\u0e32\u0e21": 737, "N": 738, "\u0e2d\u0e32\u0e08": 739, "\u0e40\u0e14\u0e35\u0e4b\u0e22\u0e27": 740, "\u5f53\u7136": 741, "\u0e25\u0e35": 742, "4": 743, "\u6d3b": 744, "\u2581\u0e43\u0e19": 745, "\u5973": 746, "\u0e40\u0e0a\u0e37\u0e48\u0e2d": 747, "\u5df4": 748, "\u975e\u5e38": 749, "\u5168": 750, "\u0e44\u0e1f": 751, "\u82b1": 752, "\u0e08\u0e31\u0e14\u0e01\u0e32\u0e23": 753, "\u4e0d\u8fc7": 754, "\u0e40\u0e14\u0e35\u0e22\u0e27": 755, "\u0e42\u0e14\u0e19": 756, "E": 757, "\u0e15\u0e23\u0e07": 758, "\u0e08\u0e4d\u0e32": 759, "You": 760, "\u4e00\u6b21": 761, "\u2581You": 762, "\u2581not": 763, "\u0e41\u0e19\u0e48\u0e19\u0e2d\u0e19": 764, "\u5c3c": 765, "\u55ef": 766, "\u2581\u0e2d\u0e22\u0e48\u0e32": 767, "1\\": 768, "\u0e40\u0e25\u0e37\u0e2d\u0e01": 769, "\u0e14\u0e35\u0e01\u0e27\u0e48\u0e32": 770, "\u2581my": 771, "\u63a5": 772, "\u0e2a\u0e32\u0e21\u0e32\u0e23\u0e16": 773, "\u5988\u5988": 774, "\u540c": 775, "\u0e27\u0e31\u0e19\u0e19\u0e35\u0e49": 776, "\u0e19\u0e31\u0e48\u0e07": 777, "\u0e25\u0e34": 778, "\u0e14\u0e34": 779, "\u0e40\u0e21\u0e37\u0e2d\u0e07": 780, "\u0e08\u0e19": 781, "\u62b1\u6b49": 782, "\u0e30\u0e1e": 783, "\u6b7b\u4e86": 784, "\u0e04\u0e32": 785, "\u0e09\u0e31\u0e19\u0e04\u0e34\u0e14\u0e27\u0e48\u0e32": 786, "\u5165": 787, "\u52a0": 788, "\u0e19\u0e2d\u0e19": 789, "\u9001": 790, "\u0e0b\u0e37\u0e49\u0e2d": 791, "\u2581can": 792, "\u673a": 793, "\u6765\u4e86": 794, "\u0e40\u0e25\u0e37\u0e2d\u0e14": 795, "D": 796, "\u3001": 797, "\u559d": 798, "\u610f": 799, "\u0e42\u0e23": 800, "\u559c\u6b22": 801, "\u53e3": 802, "\u2581\u0e01\u0e47": 803, "\u0e2d\u0e32\u0e08\u0e08\u0e30": 804, "\u5e94\u8be5": 805, "\u90e8": 806, "\u0e1b\u0e37\u0e19": 807, "\u8457": 808, "f": 809, "\u0e1c\u0e39\u0e49\u0e2b\u0e0d\u0e34\u0e07": 810, "\u0e30": 811, "\u0e1b\u0e34\u0e14": 812, "\u5f04": 813, "\u0e40\u0e01\u0e34\u0e14": 814, "\u500b": 815, "\u4f60\u60f3": 816, "\u6211\u5728": 817, "\u0e2b\u0e21\u0e14": 818, "\u65e5": 819, "\u4e0e": 820, "\u0e17\u0e4c": 821, "\u6551": 822, "\u6c14": 823, "\u0e2d\u0e31\u0e19": 824, "\u662f\u4e2a": 825, "\u0e40\u0e1b\u0e25\u0e35\u0e48\u0e22\u0e19": 826, "\u0e17\u0e35\u0e48\u0e04\u0e38\u0e13": 827, "\u6027": 828, "\u5e72": 829, "\u547d": 830, "\u2581\u5979": 831, "\u8d77\u6765": 832, "\u8be5": 833, "\u4f60\u5728": 834, "\u0e19\u0e34": 835, "\u771f\u662f": 836, "\u0e19\u0e32\u0e07": 837, "\u4e94": 838, "\u8ba9\u4f60": 839, "\u4e0d\u884c": 840, "\u5e2e": 841, "\u6240\u6709": 842, "\u5185": 843, "\u4e00\u4e9b": 844, "\u0e40\u0e1b\u0e47\u0e19\u0e04\u0e19": 845, "\u5b9a": 846, "\u5e0c\u671b": 847, "M": 848, "\u63d0": 849, "\u0e40\u0e23\u0e32\u0e15\u0e49\u0e2d\u0e07": 850, "\u2581with": 851, "\u767d": 852, "\u0e2d\u0e22\u0e39\u0e48\u0e44\u0e2b\u0e19": 853, "\u53d1\u73b0": 854, "\u4f60\u5011": 855, "\u0094": 856, "\u0e40\u0e25": 857, "\u5904": 858, "\u0e40\u0e2d\u0e48\u0e2d": 859, "ve": 860, "\u963f": 861, "\u662f\u8c01": 862, "\u30fb": 863, "\u0e40\u0e1b\u0e25\u0e48\u0e32": 864, "\u0e21\u0e35\u0e2d\u0e30\u0e44\u0e23": 865, "o": 866, "\u6c92\u6709": 867, "\u0e14\u0e37\u0e48\u0e21": 868, "\u0e44\u0e21\u0e48\u0e23\u0e39\u0e49": 869, "\u7a7a": 870, "shad": 871, "\u0e2d\u0e2d\u0e01\u0e08\u0e32\u0e01": 872, "\u0e15\u0e48\u0e2d\u0e44\u0e1b": 873, "\u4f4d": 874, "\u5982\u679c\u4f60": 875, "\u0e44\u0e21\u0e48\u0e21\u0e35\u0e43\u0e04\u0e23": 876, "\u5e03": 877, "\u6559": 878, "\u6c92": 879, "\u2581what": 880, "\u5bf9\u4e0d\u8d77": 881, "\u0e40\u0e23\u0e35\u0e22\u0e19": 882, "\u2581f": 883, "\u0e08\u0e30\u0e15\u0e49\u0e2d\u0e07": 884, "\u901a": 885, "\u4e00\u500b": 886, "\u5230\u4e86": 887, "\u4e3b": 888, "\u0e08\u0e1a": 889, "L": 890, "\u8840": 891, "\u0e1a\u0e32\u0e07\u0e17\u0e35": 892, "\u6ca1\u9519": 893, "\u6211\u4e0d": 894, "\u0e07\u0e31\u0e49\u0e19\u0e40\u0e2b\u0e23\u0e2d": 895, "\u2581are": 896, "\u0e21\u0e35\u0e04\u0e19": 897, "\u6211\u5c31": 898, "\u5927\u5bb6": 899, "\u0e02\u0e32\u0e22": 900, "\u6740": 901, "\u7ba1": 902, "it": 903, "\u2581\u0e19\u0e35\u0e48": 904, "\u2581\u0e42\u0e2d\u0e40\u0e04": 905, "\u0e44\u0e21\u0e48\u0e15\u0e49\u0e2d\u0e07": 906, "\u67e5": 907, "\u0e2d\u0e30\u0e44\u0e23\u0e19\u0e30": 908, "0": 909, "\u0e19\u0e35\u0e48\u0e04\u0e37\u0e2d": 910, "\u0e04\u0e19\u0e2d\u0e37\u0e48\u0e19": 911, "\u73fe\u5728": 912, "\u4e00\u70b9": 913, "#": 914, "\u0e02\u0e49\u0e2d": 915, "\u7406": 916, "\u0e18": 917, "ly": 918, "\u0e44\u0e14\u0e49\u0e22\u0e34\u0e19": 919, "\u0e19\u0e36\u0e07": 920, "\u7238\u7238": 921, "\u0e2a\u0e27\u0e22": 922, "\u0e08\u0e30\u0e44\u0e21\u0e48": 923, "*": 924, "\u0e40\u0e25\u0e22\u0e19\u0e30": 925, "\u76f8": 926, "\u513f": 927, "\u53d7": 928, "\u4f53": 929, "\u662f\u6211": 930, "\u53ef\u662f": 931, "\u2581don": 932, "\u7b49\u7b49": 933, "\u5b66": 934, "\u0e40\u0e14": 935, "\u6709\u70b9": 936, "\u6d3e": 937, "\u0e43\u0e2b\u0e49\u0e04\u0e38\u0e13": 938, "\u0e23\u0e39\u0e49\u0e2a\u0e36\u0e01": 939, "\u4e8b\u60c5": 940, "\u0e08\u0e30\u0e44\u0e14\u0e49": 941, "\u0e40\u0e17": 942, "\u2581\u0e2b\u0e23\u0e37\u0e2d": 943, "\u0e1c\u0e39\u0e49\u0e0a\u0e32\u0e22": 944, "\u0e40\u0e18\u0e12\u0e40\u0e18": 945, "\u0e34": 946, "\u0e48\u0e07": 947, "\u0e40\u0e18\u0e11\u0e40\u0e18": 948, "\u2581he": 949, "\u8dd1": 950, "\u0e0b\u0e36\u0e48\u0e07": 951, "\u0e23\u0e35": 952, "\u5979\u7684": 953, "\u600e\u4e48\u4e86": 954, "\u54c8": 955, "\u773c": 956, "\u5408": 957, "\u0e0a\u0e32\u0e22": 958, "\u2581B": 959, "\u2581\u0e21\u0e35": 960, "\u0e19\u0e49\u0e2d\u0e22": 961, "}": 962, "\u0e21\u0e32\u0e01\u0e01\u0e27\u0e48\u0e32": 963, "\u0e2b\u0e21\u0e2d": 964, "\u592b": 965, "\u2581just": 966, "8": 967, "\u0e15\u0e01": 968, "\u7c73": 969, "\u0e19\u0e48\u0e32\u0e08\u0e30": 970, "\u0e2a\u0e31\u0e19": 971, "\u0e01\u0e25\u0e31\u0e27": 972, "\u4e70": 973, "\u2581b": 974, "g": 975, "\u0438": 976, "\u5341": 977, "\u5173": 978, "\u602a": 979, "\u9084": 980, "\u0e2d\u0e22\u0e48\u0e32\u0e07\u0e19\u0e31\u0e49\u0e19": 981, "\u4e3a\u4e86": 982, "\u0e23\u0e39\u0e49\u0e08\u0e31\u0e01": 983, "\u0e21\u0e32\u0e08\u0e32\u0e01": 984, "\u0e4c": 985, "\u6211\u4e5f": 986, "\u4e9b": 987, "\u2581\u0e27\u0e48\u0e32": 988, "\u89c9\u5f97": 989, "\u0e2a\u0e34\u0e48\u0e07": 990, "\u6709\u4ec0\u4e48": 991, "\u5458": 992, "on": 993, "\u662f\u4ec0\u4e48": 994, "\u641e": 995, "\u0e27\u0e32": 996, "\u0e1e\u0e23\u0e49\u0e2d\u0e21": 997, "\u0e1f\u0e31\u0e07\u0e19\u0e30": 998, "\u60f3\u8981": 999, "\u4e00\u76f4": 1000, "\u5f80": 1001, "\u2581A": 1002, "\u25813": 1003, "\u0e01\u0e31\u0e1a\u0e09\u0e31\u0e19": 1004, "\u0e27\u0e32\u0e07": 1005, "\u2581out": 1006, "00": 1007, "\u0e01\u0e23\u0e30": 1008, "\u0e40\u0e21": 1009, "\u660e": 1010, "\u5012": 1011, "\u2581\u90a3": 1012, "\u8d70\u4e86": 1013, "O": 1014, "\u8fc7\u53bb": 1015, "\u0e02": 1016, "\u0e17\u0e35\u0e48\u0e44\u0e2b\u0e19": 1017, "\u0e2d\u0e35\u0e01\u0e04\u0e23\u0e31\u0e49\u0e07": 1018, "\u6536": 1019, "\u0e14\u0e31\u0e07\u0e19\u0e31\u0e49\u0e19": 1020, "7": 1021, "\u4f0a": 1022, "\u8fd9\u79cd": 1023, "\u0e40\u0e25\u0e34\u0e01": 1024, "\u5f85": 1025, "\u0e01\u0e25\u0e31\u0e1a\u0e1a\u0e49\u0e32\u0e19": 1026, "k": 1027, "\u0e40\u0e02\u0e35\u0e22\u0e19": 1028, "\u5440": 1029, "\u0e02\u0e36\u0e49\u0e19\u0e21\u0e32": 1030, "\u8fea": 1031, "\u5225": 1032, "\u2581\u0e09\u0e31\u0e19\u0e08\u0e30": 1033, "\u0e02\u0e2d\u0e07\u0e19\u0e32\u0e22": 1034, "\u0e2d\u0e32\u0e2b\u0e32\u0e23": 1035, "\u8f6c": 1036, "\u0e44\u0e14\u0e49\u0e41\u0e25\u0e49\u0e27": 1037, "\u0e2b\u0e25\u0e48\u0e2d\u0e19": 1038, "\u600e\u4e48\u6837": 1039, "\u2581\u0e08\u0e30": 1040, "P": 1041, "\u65e9": 1042, "\u0e47": 1043, "\u51c6\u5907": 1044, "\u7ee7\u7eed": 1045, "\u5582": 1046, "\u662f\u4f60": 1047, "\u0e44\u0e14\u0e49\u0e44\u0e2b\u0e21": 1048, "\u2581\u0e04\u0e19": 1049, "\u5ea6": 1050, "\u0e14\u0e39\u0e41\u0e25": 1051, "ur": 1052, "\u5982\u4f55": 1053, "\u0e40\u0e17\u0e48\u0e32\u0e19\u0e31\u0e49\u0e19": 1054, "\u5662": 1055, "\u573a": 1056, "b": 1057, "\u516c": 1058, "\u7761": 1059, "\u0e2d\u0e48\u0e32\u0e19": 1060, "\u90a3\u6837": 1061, "\u2581\u8fd9": 1062, "\u0e2d\u0e37\u0e48\u0e19": 1063, "\u6211\u89c9\u5f97": 1064, "\u0e17\u0e35\u0e48\u0e14\u0e35": 1065, "\u4f60\u4f1a": 1066, "\u7269": 1067, "\u6587": 1068, "\u4efb\u4f55": 1069, "\u0e02\u0e49\u0e2d\u0e21\u0e39\u0e25": 1070, "\u2581S": 1071, "\u4e66": 1072, "\u4ea4": 1073, "\u88c5": 1074, "\u0e42\u0e04": 1075, "th": 1076, "\u2581\u0e40\u0e1e\u0e37\u0e48\u0e2d": 1077, "\u9ed1": 1078, "\u0e2b\u0e23\u0e37\u0e2d\u0e44\u0e21\u0e48": 1079, "\u0e21\u0e31\u0e19\u0e08\u0e30": 1080, "\u0e40\u0e14\u0e35\u0e4b\u0e22\u0e27\u0e19\u0e35\u0e49": 1081, "\u8fdc": 1082, "\u0e25\u0e48\u0e32": 1083, "9": 1084, "\u0e25\u0e37\u0e21": 1085, "\u80af\u5b9a": 1086, "\u7684\u5730\u65b9": 1087, "\u0097": 1088, "\u0e41\u0e2b\u0e25\u0e30": 1089, "\u0e15\u0e01\u0e25\u0e07": 1090, "\u0e2d\u0e22\u0e39\u0e48\u0e01\u0e31\u0e1a": 1091, "\u4e00\u5207": 1092, "\u0e09\u0e31\u0e19\u0e44\u0e21\u0e48\u0e44\u0e14\u0e49": 1093, "\u0e01\u0e32": 1094, "\u4eca\u665a": 1095, "\u0e23\u0e2d\u0e1a": 1096, "ri": 1097, "\u6211\u80fd": 1098, "\u5199": 1099, "\u56de\u5bb6": 1100, "\u0e15\u0e34": 1101, "\u0e04\u0e37\u0e19\u0e19\u0e35\u0e49": 1102, "\u0e2d\u0e22\u0e32\u0e01\u0e08\u0e30": 1103, "\u7ebf": 1104, "\u0e22\u0e4c": 1105, "\u5750": 1106, "\u2581here": 1107, "\u0e32": 1108, "\u0e42\u0e01\u0e2b\u0e01": 1109, "\u8b66\u5bdf": 1110, "\u5730\u65b9": 1111, "\u4ed6\u662f": 1112, "\u56db": 1113, "\u54ea": 1114, "\u0e1b\u0e23\u0e30\u0e15\u0e39": 1115, "\u561b": 1116, "\u0e09\u0e31\u0e19\u0e44\u0e21\u0e48": 1117, "p": 1118, "\u0e08\u0e31\u0e07": 1119, "\u2581up": 1120, "\u0e08\u0e30\u0e40\u0e1b\u0e47\u0e19": 1121, "\u51e0": 1122, "\u5feb\u70b9": 1123, "\u0e02\u0e48\u0e32\u0e27": 1124, "\u0e0a\u0e32": 1125, "\u58eb": 1126, "\u0e2b\u0e19\u0e35": 1127, "\u5668": 1128, "\u0e0a\u0e48\u0e32\u0e07": 1129, "\u0e0b\u0e35\u0e48": 1130, "\u2581\u0e44\u0e1b": 1131, "\u0e1b\u0e25\u0e2d\u0e14\u0e20\u0e31\u0e22": 1132, "\u4e0d\u4e86": 1133, "\u55e8": 1134, "\u5374": 1135, "\u9ede": 1136, "\u4f60\u597d": 1137, "w": 1138, "\u0e40\u0e1a\u0e2d\u0e23\u0e4c": 1139, "\u0e40\u0e1a": 1140, "\u2581all": 1141, "\u56de\u53bb": 1142, "\u4e0d\u7528": 1143, "\u0e1e\u0e27\u0e01\u0e04\u0e38\u0e13": 1144, "\u0e02\u0e2d\u0e42\u0e17\u0e29": 1145, "\u53d1\u751f": 1146, "\u0e1e\u0e31\u0e01": 1147, "\u0e41\u0e2d": 1148, "\u0e41\u0e25\u0e49\u0e27\u0e01\u0e47": 1149, "\u0e23\u0e39\u0e1b": 1150, "\u2581C": 1151, "\u25812": 1152, "\u0e41\u0e1a\u0e1a\u0e19\u0e31\u0e49\u0e19": 1153, "\u0e44\u0e1b\u0e17\u0e35\u0e48": 1154, "\u0e44\u0e21\u0e48\u0e21\u0e35\u0e2d\u0e30\u0e44\u0e23": 1155, "\u0e41\u0e01\u0e48": 1156, "\u0e19\u0e35\u0e48\u0e21\u0e31\u0e19": 1157, "\u0e2a\u0e38\u0e14\u0e17\u0e49\u0e32\u0e22": 1158, "\u9152": 1159, "\u7403": 1160, "\u0e2d\u0e34": 1161, "\u0e23\u0e30\u0e40\u0e1a\u0e34\u0e14": 1162, "\u4e16\u754c": 1163, "\u6218": 1164, "\u4f60\u80fd": 1165, "\u5df2": 1166, "\u53ea\u8981": 1167, "\u0e1e\u0e27\u0e01\u0e19\u0e35\u0e49": 1168, "\u0e0b\u0e32": 1169, "\u5728\u4e00\u8d77": 1170, "\u0e2a\u0e31\u0e01": 1171, "bord": 1172, "\u0e2a\u0e32\u0e27": 1173, "\u533b\u751f": 1174, "\u4e8c": 1175, "\u745e": 1176, "\u800c\u4e14": 1177, "\u0e49\u0e07": 1178, "\u2581\\": 1179, "\u65b9": 1180, "\u5973\u4eba": 1181, "\u0e21\u0e32\u0e17\u0e35\u0e48\u0e19\u0e35\u0e48": 1182, "\u0e40\u0e08": 1183, "\u7684\u662f": 1184, "\u9019\u500b": 1185, "\u5c31\u50cf": 1186, "\u5c31\u4f1a": 1187, "\u8fbe": 1188, "\u2581p": 1189, "\u8fde": 1190, "\u2581(": 1191, "ch": 1192, "\u6708": 1193, "\u0e44\u0e1b\u0e2b\u0e32": 1194, "\u0e22\u0e32\u0e01": 1195, "\u0e09\u0e31\u0e19\u0e23\u0e39\u0e49\u0e27\u0e48\u0e32": 1196, "\u53d8": 1197, "\u0e40\u0e04": 1198, "\u0e44\u0e14\u0e49\u0e22\u0e31\u0e07\u0e44\u0e07": 1199, "\u0e2a\u0e39\u0e07": 1200, "at": 1201, "\u542c\u7740": 1202, "\u0e27\u0e07": 1203, "\u0e2d\u0e22\u0e39\u0e48\u0e17\u0e35\u0e48": 1204, "\u2581get": 1205, "\u0e2d\u0e32\u0e22\u0e38": 1206, "\u0e09\u0e31\u0e19\u0e01\u0e47": 1207, "\u0e40\u0e02\u0e32\u0e08\u0e30": 1208, "\u0e08\u0e38\u0e14": 1209, "\u4e9a": 1210, "\u6d41": 1211, "\u2581\u0e1b\u0e35": 1212, "\u2581go": 1213, "\u0e04\u0e27\u0e23": 1214, "\u0e40\u0e01\u0e34\u0e14\u0e02\u0e36\u0e49\u0e19": 1215, "\u0e04\u0e2d": 1216, "\u8c08": 1217, "\u0e04\u0e19\u0e40\u0e14\u0e35\u0e22\u0e27": 1218, "\u0e1a\u0e32": 1219, "\u6797": 1220, "\u961f": 1221, "\u0e04\u0e38\u0e13\u0e15\u0e49\u0e2d\u0e07": 1222, "\u0e23\u0e30\u0e2b\u0e27\u0e48\u0e32\u0e07": 1223, "\u2581like": 1224, "\u8389": 1225, "\u0e17\u0e35\u0e48\u0e21\u0e35": 1226, "\u661f": 1227, "\u0e0b\u0e31\u0e01": 1228, "\u0e42\u0e21": 1229, "\u5c71": 1230, "\u505c": 1231, "\u4e4b\u540e": 1232, "\u0e43\u0e19\u0e01\u0e32\u0e23": 1233, "\u7a7f": 1234, "\u5468": 1235, "\u6307": 1236, "\u0e41\u0e23\u0e01": 1237, "\u8239": 1238, "\u6b64": 1239, "\u0e42\u0e15": 1240, "\u7535\u8bdd": 1241, "\u4e0a\u5e1d": 1242, "\u0e40\u0e2a\u0e21\u0e2d": 1243, "\u0e1a\u0e32\u0e07\u0e2d\u0e22\u0e48\u0e32\u0e07": 1244, "\u6765\u7684": 1245, "\u0e40\u0e22\u0e35\u0e48\u0e22\u0e21": 1246, "\u0e22\u0e31\u0e07\u0e44\u0e21\u0e48": 1247, "\u2581\u0e40\u0e14\u0e35\u0e4b\u0e22\u0e27": 1248, "\u2581\u0e44\u0e21\u0e48\u0e43\u0e0a\u0e48": 1249, "\u4e07": 1250, "\u54c1": 1251, "\u9b3c": 1252, "\u0e0a\u0e34": 1253, "\u76f8\u4fe1": 1254, "\u0e14\u0e39\u0e40\u0e2b\u0e21\u0e37\u0e2d\u0e19": 1255, "\u6bcf": 1256, "\u0e04\u0e39\u0e48": 1257, "\u0e49\u0e19": 1258, "\u7684\u4e1c\u897f": 1259, "\u0e07\u0e48\u0e32\u0e22": 1260, "\u0e2d\u0e37\u0e21": 1261, "\u0e42\u0e25": 1262, "\u0e41\u0e21\u0e19": 1263, "\u633a": 1264, "\u96be": 1265, "\u5e38": 1266, "el": 1267, "\u505a\u7684": 1268, "\u0e40\u0e1e": 1269, "\u79d1": 1270, "\u0e40\u0e18\u0e2d\u0e08\u0e30": 1271, "\u0e0b\u0e4c": 1272, "\u544a\u8bc9\u4f60": 1273, "\u53d6": 1274, "\u0e40\u0e27": 1275, "\u4e0d\u9519": 1276, "\u4e5f\u662f": 1277, "\u597d\u50cf": 1278, "\u0e15\u0e31\u0e49\u0e07\u0e41\u0e15\u0e48": 1279, "\u7eb3": 1280, "be": 1281, "\u5b8c\u5168": 1282, "\u4fdd": 1283, "\u0e14\u0e49\u0e32\u0e19": 1284, "v": 1285, "\u0e2a\u0e4d\u0e32\u0e04\u0e31\u0e0d": 1286, "\u6709\u4e2a": 1287, "\u0082": 1288, "\u0e40\u0e1e\u0e35\u0e22\u0e07": 1289, "\u7247": 1290, "\u5f3a": 1291, "\u9019\u6a23": 1292, "\u7b97": 1293, "\u0e04\u0e27\u0e32\u0e21\u0e08\u0e23\u0e34\u0e07": 1294, "\u0e08\u0e31\u0e14": 1295, "\u0e15\u0e31\u0e19": 1296, "\u827e": 1297, "ie": 1298, "\u72d7": 1299, "\u0e09\u0e31\u0e19\u0e23\u0e39\u0e49": 1300, "\u958b": 1301, "\u0e2d\u0e22\u0e39\u0e48\u0e17\u0e35\u0e48\u0e44\u0e2b\u0e19": 1302, "\u8fb9": 1303, "\u0e17\u0e4d\u0e32\u0e44\u0e14\u0e49": 1304, "\u8ddf\u4f60": 1305, "\u5144\u5f1f": 1306, "\u96f7": 1307, "\u8ddf\u6211": 1308, "\u0e17\u0e35\u0e21": 1309, "\u0e2d\u0e22\u0e39\u0e48\u0e41\u0e25\u0e49\u0e27": 1310, "\u0e21\u0e19\u0e38\u0e29\u0e22\u0e4c": 1311, "\u516c\u53f8": 1312, "\u4f60\u53ef\u4ee5": 1313, "\u5c81": 1314, "\u5f97\u5230": 1315, "\u9760": 1316, "\u0e2a\u0e31\u0e0d\u0e0d\u0e32": 1317, "\u611f\u89c9": 1318, "\u6b21": 1319, "\u0e19\u0e32\u0e19": 1320, "\u77e5": 1321, "\u0e09\u0e31\u0e19\u0e15\u0e49\u0e2d\u0e07": 1322, "\u5c40": 1323, "\u0e44\u0e14\u0e49\u0e21\u0e31\u0e49\u0e22": 1324, "10": 1325, "\u6211\u6709": 1326, "\u0e2a\u0e19\u0e38\u0e01": 1327, "\u0e17\u0e2b\u0e32\u0e23": 1328, "\u0e28\u0e1e": 1329, "\u0e15\u0e2d\u0e19\u0e17\u0e35\u0e48": 1330, "\u0e42\u0e17\u0e23": 1331, "\u0e42\u0e17\u0e23\u0e28\u0e31\u0e1e\u0e17\u0e4c": 1332, "\u0e40\u0e01\u0e34\u0e19\u0e44\u0e1b": 1333, "\u2581\u0e01\u0e31\u0e1a": 1334, "\u8bf4\u8bdd": 1335, "\u5c0f\u59d0": 1336, "\u544a\u8bc9": 1337, "\u2581about": 1338, "\u0e15\u0e31\u0e14": 1339, "\u660e\u767d": 1340, "\u68ee": 1341, "\u0e1b\u0e31\u0e0d\u0e2b\u0e32": 1342, "\u98ce": 1343, "\u0e16\u0e49\u0e32\u0e04\u0e38\u0e13": 1344, "\u79bb": 1345, "\u0e2b\u0e21\u0e32\u0e22\u0e16\u0e36\u0e07": 1346, "\u0e41\u0e22\u0e48": 1347, "\u0e40\u0e1e\u0e34\u0e48\u0e07": 1348, "\u4e86\u89e3": 1349, "\u0e04\u0e2d\u0e22": 1350, "\u6d1b": 1351, "\u0e23\u0e39": 1352, "\u5e73": 1353, "\u2581\u0e1e\u0e48\u0e2d": 1354, "ad": 1355, "\u81ea\u5df1\u7684": 1356, "\u2581\u0e40\u0e1e\u0e23\u0e32\u0e30": 1357, "\u662f\u4e0d\u662f": 1358, "\u58f0": 1359, "\u0e43\u0e14": 1360, "\u5b8c": 1361, "\u53f0": 1362, "\u0e01\u0e47\u0e04\u0e37\u0e2d": 1363, "\u6570": 1364, "\u5c11": 1365, "\u0e15\u0e35": 1366, "\u0e27\u0e34": 1367, "\u0e2d\u0e35\u0e01\u0e41\u0e25\u0e49\u0e27": 1368, "\u0e02\u0e32": 1369, "\u4e00\u4e2a\u4eba": 1370, "\u56fd": 1371, "\u7535": 1372, "\u0e44\u0e2d": 1373, "\u5e72\u561b": 1374, "\u009a": 1375, "\u534a": 1376, "\u5170": 1377, "\u2581\u0e40\u0e1b\u0e47\u0e19": 1378, "\u0e14\u0e35\u0e49": 1379, "\u597d\u5417": 1380, "\u0e44\u0e01\u0e25": 1381, "\u0e2e": 1382, "\u90a3\u91cc": 1383, "\u70ba": 1384, "\u9519": 1385, "\u0e23\u0e31\u0e01\u0e29\u0e32": 1386, "\u0e1e\u0e23\u0e30": 1387, "\u25815": 1388, "\u0e13": 1389, "\u5316": 1390, "\u5947": 1391, "\u5854": 1392, "\u72af": 1393, "\u0e17\u0e35\u0e48\u0e40\u0e23\u0e32": 1394, "\u7ef4": 1395, "\u2581c": 1396, "\u623f": 1397, "\u0e2b\u0e25\u0e32\u0e22": 1398, "\u5728\u54ea": 1399, "\u6b63\u5728": 1400, "\u0e27\u0e34\u0e48\u0e07": 1401, "\u5982\u6b64": 1402, "K": 1403, "\u0e0a\u0e38\u0e14": 1404, "\u7167": 1405, "\u0e1e\u0e27\u0e01\u0e19\u0e32\u0e22": 1406, "\u0e08\u0e30\u0e44\u0e1b": 1407, "\u0e23\u0e35\u0e48": 1408, "\u8272": 1409, "\u57ce": 1410, "\u0e40\u0e01\u0e34\u0e14\u0e2d\u0e30\u0e44\u0e23\u0e02\u0e36\u0e49\u0e19": 1411, "\u5305": 1412, "\u0e40\u0e22\u0e2d\u0e30": 1413, "\u2581gonna": 1414, "\u4f20": 1415, "\u8d70\u5427": 1416, "\u2581right": 1417, "\u0e2d\u0e30": 1418, "\u0e21\u0e32\u0e41\u0e25\u0e49\u0e27": 1419, "\u7559": 1420, "ra": 1421, "\u6765\u5427": 1422, "\u0e38": 1423, "\u522b\u4eba": 1424, "\u2581got": 1425, "\u603b": 1426, "\u0e23\u0e36": 1427, "\u548c\u4f60": 1428, "\u591c": 1429, "\u0e42\u0e07\u0e48": 1430, "\u0e2d\u0e35": 1431, "\u0e23\u0e30\u0e1a\u0e1a": 1432, "\u0e2b\u0e32\u0e22\u0e44\u0e1b": 1433, "\u0e44\u0e21\u0e48\u0e21\u0e35\u0e17\u0e32\u0e07": 1434, "\u0e02\u0e42\u0e21\u0e22": 1435, "\u25811": 1436, "\u8a00": 1437, "\u0e04\u0e48\u0e32": 1438, "\u0e2d\u0e32\u0e17\u0e34\u0e15\u0e22\u0e4c": 1439, "\u5728\u8fd9": 1440, "\u519b": 1441, "\u4f60\u6709": 1442, "\u0e40\u0e18\u0e15\u0e40\u0e19": 1443, "\u6211\u53ef\u4ee5": 1444, "\u2581\u5feb": 1445, "\u0e40\u0e23\u0e32\u0e21\u0e35": 1446, "\u0e40\u0e2e": 1447, "\u6ca1\u4e8b": 1448, "\u505a\u4ec0\u4e48": 1449, "\u836f": 1450, "\u660e\u5929": 1451, "\u8ba1\u5212": 1452, "\u843d": 1453, "\u6211\u4eec\u8981": 1454, "\u6211\u4e0d\u60f3": 1455, "\u2581\u522b": 1456, "\u0e1b\u0e23\u0e30": 1457, "\u0e1b\u0e25\u0e48\u0e2d\u0e22\u0e43\u0e2b\u0e49": 1458, "\u4eb2": 1459, "\u0e21\u0e32\u0e01\u0e48\u0e2d\u0e19": 1460, "\u7537\u4eba": 1461, "\u2581\u0e41\u0e21\u0e48": 1462, "\u0e44\u0e23": 1463, "\u4f60\u89c9\u5f97": 1464, "il": 1465, "\u0e2a\u0e31\u0e48\u0e07": 1466, "\u751f\u6d3b": 1467, "\u0e19\u0e35\u0e48\u0e40\u0e1b\u0e47\u0e19": 1468, "\u0e44\u0e14\u0e49\u0e40\u0e25\u0e22": 1469, "\u0e16": 1470, "\u611f": 1471, "\u89e3": 1472, "\u59b3": 1473, "\u0e1c\u0e25": 1474, "\u2581want": 1475, "\u0e04\u0e38\u0e22\u0e01\u0e31\u0e1a": 1476, "\u0e43\u0e2b\u0e49\u0e40\u0e02\u0e32": 1477, "\u0e42\u0e14": 1478, "\u0e17\u0e4d\u0e32\u0e25\u0e32\u0e22": 1479, "\u0e1a\u0e34\u0e19": 1480, "\u0e40\u0e14\u0e37\u0e2d\u0e19": 1481, "\u0e40\u0e17\u0e48\u0e32\u0e44\u0e2b\u0e23\u0e48": 1482, "\u2581so": 1483, "\u0e01\u0e31\u0e1a\u0e04\u0e38\u0e13": 1484, "\u0e1b\u0e32\u0e01": 1485, "\u0e2a\u0e27\u0e31\u0e2a\u0e14\u0e35": 1486, "\u0e2a\u0e35": 1487, "\u0e27\u0e30": 1488, "\u2581\u0e40\u0e2d\u0e48\u0e2d": 1489, "\u0e44\u0e1b\u0e40\u0e25\u0e22": 1490, "\u5565": 1491, "\u6216\u8005": 1492, "\u4f60\u4e5f": 1493, "\u2581\u662f\u7684": 1494, "\u8c22\u8c22\u4f60": 1495, "\u8bb2": 1496, "\u4f24": 1497, "G": 1498, "\u0e40\u0e1e\u0e25\u0e07": 1499, "\u0e40\u0e0a\u0e34\u0e0d": 1500, "\u5965": 1501, "\u0e14\u0e35\u0e21\u0e32\u0e01": 1502, "\u2581\u6211\u662f": 1503, "\u0e2a\u0e38\u0e14": 1504, "and": 1505, "\u0e14\u0e32": 1506, "\u4e0d\u60f3": 1507, "\u0e17\u0e35\u0e48\u0e23\u0e31\u0e01": 1508, "\u4fee": 1509, "\u0e19\u0e32\u0e22\u0e08\u0e30": 1510, "\u0e15\u0e23\u0e07\u0e19\u0e35\u0e49": 1511, "la": 1512, "\u0e08\u0e30\u0e21\u0e35": 1513, "\u0e16\u0e39\u0e01\u0e15\u0e49\u0e2d\u0e07": 1514, "\u4e0d\u7ba1": 1515, "\u2581\u0e17\u0e4d\u0e32\u0e44\u0e21": 1516, "H": 1517, "\u0e1e\u0e39\u0e14\u0e27\u0e48\u0e32": 1518, "\u2581\u4f46\u662f": 1519, "\u0e44\u0e1b\u0e44\u0e2b\u0e19": 1520, "\u0e02\u0e2d\u0e43\u0e2b\u0e49": 1521, "\u6211\u6ca1": 1522, "\u6c11": 1523, "\u0e15\u0e32\u0e21\u0e2b\u0e32": 1524, "\u2581\u0e02\u0e2d\u0e1a\u0e04\u0e38\u0e13": 1525, "\u0e2b\u0e31\u0e27\u0e43\u0e08": 1526, "\u62cd": 1527, "\u6df1": 1528, "st": 1529, "se": 1530, "\u6ce2": 1531, "ro": 1532, "\u0e23\u0e2d\u0e22": 1533, "\u521a": 1534, "\u0e2d\u0e22\u0e48\u0e32\u0e07\u0e17\u0e35\u0e48": 1535, "\u4f60\u5c31": 1536, "\u9003": 1537, "\u0e35\u0e22": 1538, "\u009b": 1539, "\u4e00\u5b9a": 1540, "\u79cd": 1541, "\u0e2a\u0e2d\u0e19": 1542, "\u0e0a\u0e19\u0e30": 1543, "\u0e43\u0e2b\u0e49\u0e1c\u0e21": 1544, "\u8df3": 1545, "\u0e4a": 1546, "\u0e17\u0e35\u0e48\u0e09\u0e31\u0e19": 1547, "\u516d": 1548, "\u57fa": 1549, "\u2581\u5c31": 1550, "\u0e15\u0e48\u0e32\u0e07": 1551, "\u0e22\u0e49\u0e32\u0e22": 1552, "es": 1553, "\u4f46\u6211": 1554, "\u2581\u0e40\u0e08\u0e49\u0e32": 1555, "\u597d\u597d": 1556, "\u6642": 1557, "cHFF": 1558, "\u0e40\u0e01": 1559, "\u628a\u4f60": 1560, "\u4f60\u4e0d": 1561, "\u8fd9\u513f": 1562, "\u0e19\u0e31\u0e48\u0e19\u0e41\u0e2b\u0e25\u0e30": 1563, "\u6216": 1564, "\u0e40\u0e08\u0e49\u0e32\u0e2b\u0e19\u0e49\u0e32\u0e17\u0e35\u0e48": 1565, "\u4e0b\u6765": 1566, "\u0e2d\u0e22\u0e32\u0e01\u0e43\u0e2b\u0e49": 1567, "\u4f60\u8bf4": 1568, "\u51fb": 1569, "\u2581one": 1570, "\u0e27\u0e34\u0e18\u0e35": 1571, "\u6211\u4e0d\u80fd": 1572, "\u2581\u4ed6\u4eec": 1573, "ne": 1574, "\u9009": 1575, "\u0e41\u0e25\u0e49\u0e27\u0e19\u0e30": 1576, "\u0e2b\u0e49\u0e32\u0e21": 1577, "\u5e72\u4ec0\u4e48": 1578, "\u0e15\u0e49\u0e2d\u0e07\u0e17\u0e4d\u0e32": 1579, "\u0e2b\u0e32\u0e01": 1580, "\u56e0\u70ba": 1581, "\u8981\u662f": 1582, "\u4f2f": 1583, "\u0e01\u0e4d\u0e32\u0e25\u0e31\u0e07\u0e08\u0e30": 1584, "\u533a": 1585, "\u2581him": 1586, "\u6bd2": 1587, "\u0e23\u0e48\u0e32": 1588, "\u5b83\u4eec": 1589, "\u5e2e\u6211": 1590, "\u0e04\u0e38\u0e13\u0e01\u0e4d\u0e32\u0e25\u0e31\u0e07": 1591, "\u4e0d\u53ef\u80fd": 1592, "\u0e14\u0e49\u0e27\u0e22\u0e01\u0e31\u0e19": 1593, "\u0e41\u0e23\u0e07": 1594, "\u4e24\u4e2a": 1595, "\u2581M": 1596, "\u8ba4\u4e3a": 1597, "\u0e2a\u0e39\u0e49": 1598, "\u5973\u5b69": 1599, "\u2581T": 1600, "\u0e21\u0e31\u0e19\u0e01\u0e47": 1601, "\u2581think": 1602, "\u0e15\u0e25\u0e2d\u0e14": 1603, "\u0e25\u0e39\u0e01\u0e0a\u0e32\u0e22": 1604, "\ue019": 1605, "20": 1606, "\u0e1c\u0e21\u0e04\u0e34\u0e14\u0e27\u0e48\u0e32": 1607, "\u0e44\u0e14\u0e49\u0e23\u0e31\u0e1a\u0e01\u0e32\u0e23": 1608, "\u0e2b\u0e19\u0e31\u0e07\u0e2a\u0e37\u0e2d": 1609, "\u6761": 1610, "\u6e05": 1611, "\u0e2d\u0e32\u0e27\u0e38\u0e18": 1612, "\u628a\u4ed6": 1613, "\u0e40\u0e0b": 1614, "\u88e1": 1615, "\u670d": 1616, "\u7f6a": 1617, "\u0e19\u0e30\u0e04\u0e23\u0e31\u0e1a": 1618, "\u59c6": 1619, "\u0e16\u0e37\u0e2d": 1620, "\u0e25\u0e34\u0e19": 1621, "\u5f9e": 1622, "\u5356": 1623, "\u8fdb\u6765": 1624, "\u8fdb\u53bb": 1625, "\u5047": 1626, "\u7ad9": 1627, "\u0e27\u0e48\u0e30": 1628, "\u0e01\u0e34": 1629, "\u0e01\u0e47\u0e08\u0e30": 1630, "\u0e41": 1631, "\u4f60\u600e\u4e48": 1632, "\u2581We": 1633, "\u8d85": 1634, "\u0e01\u0e30": 1635, "\u0e40\u0e1e\u0e23\u0e32\u0e30\u0e27\u0e48\u0e32": 1636, "\u7b11": 1637, "\u0e04\u0e38\u0e13\u0e04\u0e34\u0e14\u0e27\u0e48\u0e32": 1638, "\u0e23\u0e35\u0e1a": 1639, "\u0e23\u0e49\u0e32\u0e22": 1640, "\u0e40\u0e2d\u0e32\u0e44\u0e27\u0e49": 1641, "\u600e\u6837": 1642, "\u2581\u0e02\u0e49\u0e32": 1643, "\u0e2a\u0e07\u0e04\u0e23\u0e32\u0e21": 1644, "\u5ba4": 1645, "\u8fd9\u5c31\u662f": 1646, "\u0e25\u0e4c": 1647, "\u0e42\u0e17\u0e23\u0e2b\u0e32": 1648, "\u2581there": 1649, "\u8ba9\u4ed6": 1650, "\u0e35": 1651, "\u4ee3": 1652, "\u6848": 1653, "\u0e2b\u0e21\u0e32": 1654, "\u0e15\u0e25\u0e01": 1655, "\u0e1e\u0e34\u0e40\u0e28\u0e29": 1656, "What": 1657, "\u6211\u53ea\u662f": 1658, "\u8d8a": 1659, "\u0e04\u0e34\u0e14\u0e16\u0e36\u0e07": 1660, "\u5728\u8fd9\u513f": 1661, "\u5c31\u80fd": 1662, "\u0e40\u0e01\u0e48\u0e32": 1663, "\u95f4": 1664, "\u0e1c": 1665, "\u548c\u6211": 1666, "\u0e17\u0e35\u0e48\u0e19\u0e31\u0e48\u0e19": 1667, "]": 1668, "\u4e50": 1669, "\u0e41\u0e17\u0e19": 1670, "\u0e09\u0e31\u0e19\u0e44\u0e21\u0e48\u0e23\u0e39\u0e49": 1671, "\u0e19\u0e30\u0e04\u0e30": 1672, "\u65e0\u6cd5": 1673, "\u5931": 1674, "\u613f": 1675, "\u76ae": 1676, "\u0e40\u0e15\u0e2d\u0e23\u0e4c": 1677, "\u4e0d\u5230": 1678, "\u0e04\u0e07\u0e08\u0e30": 1679, "\u5176\u4ed6": 1680, "\u2581\u0e40\u0e23\u0e32\u0e08\u0e30": 1681, "\u0e40\u0e1b\u0e47\u0e19\u0e43\u0e04\u0e23": 1682, "\u8868": 1683, "\u0e21\u0e35\u0e04\u0e27\u0e32\u0e21\u0e2a\u0e38\u0e02": 1684, "\u4fdd\u62a4": 1685, "\u5929\u554a": 1686, "\u2581\u0e08\u0e32\u0e01": 1687, "\u51b3\u5b9a": 1688, "\u2581\u0e1e\u0e27\u0e01\u0e40\u0e02\u0e32": 1689, "\u7b2c": 1690, "\u0e09\u0e31\u0e19\u0e44\u0e14\u0e49": 1691, "\u0e04\u0e27\u0e23\u0e08\u0e30": 1692, "\u0e44\u0e21\u0e48\u0e2d\u0e22\u0e32\u0e01": 1693, "\u4ee5\u524d": 1694, "\u4f7f": 1695, "\u7531": 1696, "\u7d66": 1697, "\u0e28": 1698, "\u0e40\u0e22\u0e47\u0e19": 1699, "\u0e1a\u0e2d\u0e01\u0e09\u0e31\u0e19": 1700, "ir": 1701, "\u0e49\u0e21": 1702, "\u5728\u54ea\u91cc": 1703, "\u0e15\u0e4c": 1704, "\u6210\u4e3a": 1705, "\u6df7\u86cb": 1706, "li": 1707, "\u0e1e\u0e27\u0e01\u0e40\u0e18\u0e2d": 1708, "\u0e1e\u0e31\u0e19": 1709, "\u0e44\u0e21\u0e48\u0e14\u0e35": 1710, "\u6f14": 1711, "\u75c5": 1712, "\u0e17\u0e4d\u0e32\u0e23\u0e49\u0e32\u0e22": 1713, "\u0e21\u0e31\u0e19\u0e44\u0e21\u0e48": 1714, "\u0e1b\u0e01\u0e1b\u0e49\u0e2d\u0e07": 1715, "\u0e1c\u0e21\u0e01\u0e47": 1716, "\u0e1a\u0e23\u0e34\u0e29\u0e31\u0e17": 1717, "\u2581\u0e1e\u0e23\u0e30\u0e40\u0e08\u0e49\u0e32": 1718, "\u6211\u5f88": 1719, "\u0e2a\u0e07\u0e2a\u0e31\u0e22": 1720, "\u518d\u89c1": 1721, "\u0e2d\u0e22\u0e39\u0e48\u0e19\u0e35\u0e48": 1722, "\u8bfa": 1723, "\u0e42\u0e01": 1724, "\u0e41\u0e1c\u0e19": 1725, "\u5343": 1726, "\u0e14\u0e32\u0e27": 1727, "\u62dc\u6258": 1728, "\u0e40\u0e2b\u0e25\u0e37\u0e2d": 1729, "\u2581no": 1730, "\u0e09\u0e31\u0e19\u0e15\u0e49\u0e2d\u0e07\u0e01\u0e32\u0e23": 1731, "\u0e16\u0e19\u0e19": 1732, "\u4ed6\u4eec\u7684": 1733, "\u6362": 1734, "\u0e04\u0e23\u0e39": 1735, "\u0e43\u0e1a": 1736, "\u0e25\u0e07\u0e44\u0e1b": 1737, "\u8482": 1738, "\u0e01\u0e25\u0e32\u0e22\u0e40\u0e1b\u0e47\u0e19": 1739, "\u0e17\u0e34": 1740, "\u0e04\u0e38\u0e13\u0e21\u0e35": 1741, "\u0e21\u0e35\u0e43\u0e04\u0e23": 1742, "\u6b65": 1743, "\u7f8e\u56fd": 1744, "z": 1745, "\u0e44\u0e21\u0e48\u0e40\u0e2b\u0e47\u0e19": 1746, "\u2581\u8fd9\u662f": 1747, "\u0e42\u0e08": 1748, "\u539f": 1749, "\u7834": 1750, "\u628a\u6211": 1751, "\u0e2a\u0e31\u0e15\u0e27\u0e4c": 1752, "\u671f": 1753, "\u2581\u0e1e\u0e27\u0e01": 1754, "\u0e02\u0e31\u0e1a": 1755, "\u6293": 1756, "\u5c31\u5728": 1757, "\u5ba2": 1758, "\u0e44\u0e14\u0e49\u0e42\u0e1b\u0e23\u0e14": 1759, "\u0e42\u0e0b": 1760, "\u0e01\u0e25\u0e38\u0e48\u0e21": 1761, "\u0e2d\u0e31\u0e19\u0e15\u0e23\u0e32\u0e22": 1762, "\u2581at": 1763, "\u4e5f\u4e0d": 1764, "\u898b": 1765, "\u542c\u5230": 1766, "\u884c\u52a8": 1767, "\u0e40\u0e25\u0e35\u0e49\u0e22\u0e07": 1768, "\u5e2e\u4f60": 1769, "\u5230\u5e95": 1770, "\u4e1d": 1771, "\u0e23\u0e30\u0e27\u0e31\u0e07": 1772, "\u5077": 1773, "\u2581It": 1774, "\u0e15\u0e2d\u0e1a": 1775, "\u64cd": 1776, "\u0e42\u0e1b\u0e23\u0e14": 1777, "\u0e01\u0e48\u0e2d\u0e19\u0e17\u0e35\u0e48": 1778, "\u9019\u662f": 1779, "\u0e19\u0e2d\u0e01": 1780, "And": 1781, "\u0e40\u0e0b\u0e2d\u0e23\u0e4c": 1782, "\ue707": 1783, "\u0e09\u0e31\u0e19\u0e21\u0e35": 1784, "\u6211\u4e0d\u662f": 1785, "\u4ef6": 1786, "\u6740\u4e86": 1787, "\u0e23\u0e49\u0e32\u0e19": 1788, "\u4e0d\u6703": 1789, "\u0e44\u0e21\u0e48\u0e2a\u0e32\u0e21\u0e32\u0e23\u0e16": 1790, "\u0e19\u0e35": 1791, "\u0e41\u0e1f\u0e19": 1792, "bo": 1793, "\u2581\u0e40\u0e2d\u0e32": 1794, "\u600e\u9ebc": 1795, "\u5982": 1796, "\u0e22\u0e39": 1797, "\u2581\u0e41\u0e04\u0e48": 1798, "\u5de5": 1799, "\u0e21\u0e31\u0e4a\u0e22": 1800, "\u770b\u6765": 1801, "\u0e4b": 1802, "\u5c0f\u5fc3": 1803, "\u0e40\u0e14\u0e35\u0e22\u0e27\u0e01\u0e31\u0e19": 1804, "\u0e2b\u0e4c": 1805, "\u0e42\u0e0a\u0e04\u0e14\u0e35": 1806, "\u0e02\u0e27\u0e32": 1807, "\u0e19\u0e31\u0e48\u0e19\u0e04\u0e37\u0e2d": 1808, "\u83b1": 1809, "\u0e1a\u0e31": 1810, "\u6258": 1811, "\u0e42\u0e19": 1812, "\u0e1b\u0e23\u0e30\u0e40\u0e17\u0e28": 1813, "\u0e2b\u0e49\u0e32": 1814, "\u591a\u5c11": 1815, "\u5176\u5b9e": 1816, "\u0e23\u0e2d\u0e14": 1817, "\u0e04\u0e23\u0e31\u0e49\u0e07": 1818, "\u0e40\u0e02\u0e32\u0e40\u0e1b\u0e47\u0e19": 1819, "\u0e2b\u0e19\u0e48\u0e27\u0e22": 1820, "\u624d\u80fd": 1821, "\u4f26": 1822, "\u2581w": 1823, "\u0e40\u0e2b\u0e19\u0e37\u0e2d": 1824, "\u0e2e\u0e30": 1825, "\u9ebb\u70e6": 1826, "\u0e1e\u0e39\u0e14\u0e16\u0e36\u0e07": 1827, "\u2581\u0e40\u0e2e\u0e49": 1828, "\u0e40\u0e1e\u0e35\u0e22\u0e07\u0e41\u0e04\u0e48": 1829, "\u5e76": 1830, "\u70ed": 1831, "\u0e14\u0e4c": 1832, "\u6ca1\u4ec0\u4e48": 1833, "\u0e23\u0e30": 1834, "\u8b93": 1835, "\u0e09\u0e31\u0e19\u0e27\u0e48\u0e32": 1836, "\u0e40\u0e27\u0e2d\u0e23\u0e4c": 1837, "\u603b\u662f": 1838, "\u540d\u5b57": 1839, "\u0e08\u0e36\u0e07": 1840, "\u0e19\u0e4c": 1841, "\u0e40\u0e15\u0e47\u0e21": 1842, "\u0e2a\u0e19\u0e43\u0e08": 1843, "\u6211\u4eec\u5f97": 1844, "\u4ed6\u5728": 1845, "\u0e02\u0e49\u0e32\u0e07": 1846, "\u6709\u4e9b": 1847, "\u6211\u53bb": 1848, "\u738b": 1849, "\u767e": 1850, "\u53cd": 1851, "\u5bc6": 1852, "\u0e43\u0e01\u0e25\u0e49": 1853, "\u2581\u8c22\u8c22": 1854, "\u8ba9\u6211\u4eec": 1855, "\u0e08\u0e48\u0e32\u0e22": 1856, "\u665a\u4e0a": 1857, "\u53f2": 1858, "\u7684\u4e8b\u60c5": 1859, "\u0e40\u0e25\u0e47\u0e01": 1860, "\u0e37\u0e2d": 1861, "\u8d39": 1862, "\u6240\u6709\u7684": 1863, "\u5c3d": 1864, "\u5355": 1865, "\u6211\u5df2\u7ecf": 1866, "\u5011": 1867, "\u4ee5\u4e3a": 1868, "\u0e04\u0e38\u0e13\u0e44\u0e14\u0e49": 1869, "\u6839": 1870, "\u8fd9\u4e48\u505a": 1871, "\u2581\u0e01\u0e32\u0e23": 1872, "\u811a": 1873, "\u0e04\u0e27\u0e32\u0e21\u0e04\u0e34\u0e14": 1874, "\u0e4a\u0e01": 1875, "\u0e0a\u0e31\u0e48\u0e27\u0e42\u0e21\u0e07": 1876, "\u0e43\u0e2b\u0e49\u0e40\u0e18\u0e2d": 1877, "\u0e2d\u0e32\u0e01\u0e32\u0e28": 1878, "\u0e40\u0e21\u0e37\u0e48\u0e2d\u0e44\u0e2b\u0e23\u0e48": 1879, "\u0e1b\u0e01\u0e15\u0e34": 1880, "\u0e22\u0e01": 1881, "ent": 1882, "\u2581\u0e19\u0e31\u0e48\u0e19": 1883, "\u0e2e\u0e32": 1884, "\u0e40\u0e1f": 1885, "\u7d22": 1886, "\u666e": 1887, "\u2581\u0e41\u0e25\u0e49\u0e27\u0e01\u0e47": 1888, "\u2581\u6240\u4ee5": 1889, "\u4e0b\u53bb": 1890, "\u0e14\u0e39\u0e2a\u0e34": 1891, "\u2581\u0e42\u0e2d\u0e49": 1892, "\u6c38\u8fdc": 1893, "\u2581her": 1894, "\u0e40\u0e2b": 1895, "\u8eca": 1896, "\u5fd9": 1897, "\u0e02\u0e49\u0e32\u0e08\u0e30": 1898, "\u0e41\u0e19\u0e48\u0e46": 1899, "\u0e01\u0e39": 1900, "\u0e09\u0e25\u0e32\u0e14": 1901, "\u753b": 1902, "\u5e08": 1903, "\u2581P": 1904, "\u0e40\u0e01\u0e48\u0e07": 1905, "\u0e40\u0e08\u0e2d\u0e01\u0e31\u0e19": 1906, "\u6e05\u695a": 1907, "\u8036": 1908, "\u0e1d\u0e36\u0e01": 1909, "\u0e04\u0e14\u0e35": 1910, "\u0e27\u0e48\u0e32\u0e08\u0e30": 1911, "\u0e0a\u0e19": 1912, "\u0e1c\u0e21\u0e44\u0e21\u0e48\u0e44\u0e14\u0e49": 1913, "R": 1914, "lo": 1915, "\u611b": 1916, "\u98de": 1917, "\u665a": 1918, "\u0e01\u0e25\u0e32\u0e07": 1919, "\u0e2a\u0e32": 1920, "\u0e40\u0e0a": 1921, "\u0e21\u0e35\u0e01\u0e32\u0e23": 1922, "\u81f3\u5c11": 1923, "\u7ed3": 1924, "\u0e2a\u0e34\u0e1a": 1925, "\u0e1e\u0e34": 1926, "\u628a\u5b83": 1927, "\u0e30\u0e10": 1928, "\u0e2d\u0e22\u0e48\u0e32\u0e07\u0e19\u0e35\u0e49": 1929, "\u0e43\u0e0a\u0e49\u0e40\u0e27\u0e25\u0e32": 1930, "\u0e0a\u0e49\u0e32": 1931, "ic": 1932, "\u2581see": 1933, "\u62a5": 1934, "\u4eba\u7c7b": 1935, "\u25814": 1936, "\u0e42\u0e1a": 1937, "\u0e41\u0e15\u0e48\u0e07\u0e07\u0e32\u0e19": 1938, "\u0e15\u0e37\u0e48\u0e19": 1939, "\u9009\u62e9": 1940, "\u7537": 1941, "\u0e25\u0e39": 1942, "\u0e22\u0e34\u0e48\u0e07": 1943, "\u2581And": 1944, "\u0e19\u0e34\u0e14\u0e2b\u0e19\u0e48\u0e2d\u0e22": 1945, "\u5f88\u591a": 1946, "\u53bb\u627e": 1947, "\u5728\u6211": 1948, "\u0e40\u0e2b\u0e21\u0e37\u0e2d\u0e19\u0e01\u0e31\u0e1a": 1949, "\u0e40\u0e25\u0e48\u0e32": 1950, "\u0e44\u0e21\u0e49": 1951, "\u2581h": 1952, "\u258110": 1953, "\u0e21\u0e32\u0e01\u0e40\u0e25\u0e22": 1954, "\u2581\u0e04\u0e37\u0e2d": 1955, "\u52d2": 1956, "\u0e1e\u0e23\u0e38\u0e48\u0e07\u0e19\u0e35\u0e49": 1957, "\u6c42": 1958, "\u6539\u53d8": 1959, "\u0e1e\u0e39\u0e14\u0e2d\u0e30\u0e44\u0e23": 1960, "\u62c5\u5fc3": 1961, "\u0e48\u0e32": 1962, "\u2581d": 1963, "\u6211\u73b0\u5728": 1964, "son": 1965, "\u8bc1": 1966, "\u0e09\u0e31\u0e19\u0e40\u0e1b\u0e47\u0e19": 1967, "\u68a6": 1968, "\u2581The": 1969, "\u0e40\u0e08\u0e47\u0e1a": 1970, "\u2581No": 1971, "\u0e40\u0e18\u0e01\u0e40\u0e19": 1972, "\u6b66\u5668": 1973, "\u0e2d\u0e01": 1974, "\u0e23\u0e49\u0e2d\u0e07": 1975, "\u6700\u540e": 1976, "\u4ed6\u5988\u7684": 1977, "\u8fd8\u6ca1": 1978, "\u0e2b\u0e23\u0e37\u0e2d\u0e22\u0e31\u0e07": 1979, "\u0e21\u0e35\u0e04\u0e27\u0e32\u0e21": 1980, "\u0e23\u0e49\u0e2d\u0e19": 1981, "\u5f8c": 1982, "\u0e40\u0e08\u0e19": 1983, "\u544a": 1984, "\u662f\u5417": 1985, "\u0e40\u0e21\u0e35\u0e22": 1986, "\u8a72": 1987, "8080}": 1988, "\u2581L": 1989, "\u0e2b\u0e25\u0e31\u0e07\u0e08\u0e32\u0e01": 1990, "\u0e02\u0e35\u0e49": 1991, "\u2581back": 1992, "\u0e01\u0e47\u0e41\u0e04\u0e48": 1993, "\u0e17\u0e32": 1994, "\u0e1a\u0e32\u0e07": 1995, "\u8b66": 1996, "\u0e04\u0e23\u0e36\u0e48\u0e07": 1997, "te": 1998, "\u2581\u0e15\u0e2d\u0e19\u0e19\u0e35\u0e49": 1999, "\u2581What": 2000, "\u2581\u6211\u77e5\u9053": 2001, "\u5e36": 2002, "\u0e2b\u0e21\u0e32\u0e22\u0e04\u0e27\u0e32\u0e21\u0e27\u0e48\u0e32": 2003, "\u672a": 2004, "\u0e21\u0e32\u0e19\u0e35\u0e48": 2005, "\u63a7\u5236": 2006, "\u0e40\u0e2a\u0e23\u0e47\u0e08": 2007, "\u529e": 2008, "\u66fe": 2009, "\u5176": 2010, "\u0e2d\u0e07": 2011, "\u6211\u9700\u8981": 2012, "\u6d17": 2013, "\u76f4": 2014, "\u5173\u4e8e": 2015, "\u6211\u6765": 2016, "\u0e19\u0e31\u0e1a": 2017, "\u8fd0": 2018, "\u0e1a\u0e35": 2019, "\u5dde": 2020, "It": 2021, "\u8089": 2022, "\u53bb\u4e86": 2023, "\u2581\u0e02\u0e2d": 2024, "\u85cf": 2025, "\u5f15": 2026, "\u0e19\u0e31\u0e48\u0e19\u0e40\u0e1b\u0e47\u0e19": 2027, "is": 2028, "\u0e40\u0e23\u0e32\u0e44\u0e14\u0e49": 2029, "\u9a6c\u4e0a": 2030, "\u0e40\u0e15\u0e37\u0e2d\u0e19": 2031, "\u5443": 2032, "\u0e04\u0e38\u0e22\u0e01\u0e31\u0e19": 2033, "\u6211\u4e0d\u4f1a": 2034, "\u2581\u0e44\u0e2d\u0e49": 2035, "\u0e08\u0e34": 2036, "\u6536\u5230": 2037, "\u0e43\u0e15\u0e49": 2038, "\u6e29": 2039, "\u91cf": 2040, "\u2581they": 2041, "\u5e94": 2042, "\u0e27\u0e48\u0e32\u0e44\u0e07": 2043, "\u0e2a\u0e34\u0e19\u0e30": 2044, "\u4e86\u5427": 2045, "\u2581\u0e19\u0e32\u0e17\u0e35": 2046, "\u63a5\u53d7": 2047, "\u0e27\u0e35": 2048, "\u4e16": 2049, "\u0e0b\u0e48\u0e2d\u0e19": 2050, "im": 2051, "\u982d": 2052, "\u5207": 2053, "\u0e2a\u0e32\u0e21\u0e35": 2054, "\u2581\u0e41\u0e01": 2055, "\u0e21\u0e32\u0e16\u0e36\u0e07": 2056, "\u0e0a\u0e48\u0e27\u0e07": 2057, "\u7b49\u4e00\u4e0b": 2058, "Y": 2059, "\u0e21\u0e31\u0e19\u0e44\u0e21\u0e48\u0e43\u0e0a\u0e48": 2060, "\u662f\u6211\u7684": 2061, "\u0e2d\u0e23\u0e4c": 2062, "\\3": 2063, "\u0e41\u0e2a\u0e14\u0e07": 2064, "\u6574": 2065, "\u0e41\u0e04": 2066, "\u2581\u0e44\u0e21\u0e48\u0e21\u0e35": 2067, "\u7ea6": 2068, "\u0e44\u0e21": 2069, "\u0e40\u0e07\u0e35\u0e22\u0e1a": 2070, "\u0e23\u0e48\u0e27\u0e21": 2071, "\u60c5\u51b5": 2072, "\u75db": 2073, "\u0e04\u0e38\u0e13\u0e44\u0e21\u0e48": 2074, "\u8eab\u4e0a": 2075, "\u9662": 2076, "\u2581\u6211\u60f3": 2077, "\u0e2b\u0e19\u0e31\u0e07": 2078, "\u8bfb": 2079, "\u0e04\u0e27\u0e1a\u0e04\u0e38\u0e21": 2080, "\u5594": 2081, "\u0e41\u0e1b\u0e25\u0e01": 2082, "\u0e2a\u0e35\u0e48": 2083, "\u4ed6\u4f1a": 2084, "\u0e09": 2085, "\u0e27\u0e34\u0e19": 2086, "\u7121": 2087, "\u0e08\u0e30\u0e21\u0e32": 2088, "\u6211\u5f97": 2089, "U": 2090, "\u0e08\u0e30\u0e17\u0e4d\u0e32": 2091, "\u5e2e\u52a9": 2092, "\u5f39": 2093, "am": 2094, "\u4e71": 2095, "\u66fc": 2096, "\u0e22\u0e31\u0e07\u0e04\u0e07": 2097, "\u0e49\u0e2d": 2098, "\u53e4": 2099, "\u0e21\u0e35\u0e1b\u0e31\u0e0d\u0e2b\u0e32": 2100, "\u0e25\u0e39\u0e01\u0e2a\u0e32\u0e27": 2101, "\u5973\u58eb": 2102, "\u2581#": 2103, "ol": 2104, "\u56de\u5230": 2105, "\u2581\u6211\u8981": 2106, "\u2581\u0e40\u0e21\u0e37\u0e48\u0e2d": 2107, "\u0e41\u0e0b\u0e21": 2108, "00\\": 2109, "\u8ffd": 2110, "\u0e40\u0e1e\u0e34\u0e48\u0e21": 2111, "\u0e0a\u0e32\u0e27": 2112, "\u0e15\u0e30": 2113, "\u0e17\u0e32\u0e19": 2114, "\u0e41\u0e25\u0e49\u0e27\u0e25\u0e48\u0e30": 2115, "\u5e2e\u5fd9": 2116, "\u0e14\u0e36\u0e07": 2117, "\u574f": 2118, "\u4e00\u5207\u90fd": 2119, "\u77f3": 2120, "\u9884": 2121, "\u2581\u4f60\u4eec": 2122, "\u0e42\u0e2d\u0e01\u0e32\u0e2a": 2123, "\u8fd9\u6b21": 2124, "J": 2125, "\u0e44\u0e21\u0e48\u0e04\u0e48\u0e2d\u0e22": 2126, "\u89c1\u8fc7": 2127, "\u516b": 2128, "\u0e08\u0e23\u0e34\u0e07\u0e40\u0e2b\u0e23\u0e2d": 2129, "\u8bf4\u7684": 2130, "0\\3": 2131, "\u5b9e": 2132, "\u5b57": 2133, "\u0e44\u0e25\u0e48": 2134, "\u2581He": 2135, "\u0e41\u0e1a": 2136, "\u0e1b\u0e35\u0e28\u0e32\u0e08": 2137, "\u767b": 2138, "ate": 2139, "\u786e\u5b9a": 2140, "\u8bb0\u5f97": 2141, "\u0e2d\u0e18\u0e34\u0e1a\u0e32\u0e22": 2142, "\u4f60\u770b": 2143, "\u0e40\u0e18\u0e2d\u0e40\u0e1b\u0e47\u0e19": 2144, "\u2581\u563f": 2145, "\u0e09\u0e31\u0e19\u0e2d\u0e22\u0e32\u0e01": 2146, "\u5236": 2147, "\u8c03": 2148, "\u0e21\u0e31\u0e19\u0e04\u0e37\u0e2d": 2149, "\u54e5": 2150, "\u0e04\u0e4d\u0e32\u0e2a\u0e31\u0e48\u0e07": 2151, "\u6234": 2152, "\u0e40\u0e17\u0e48\u0e32": 2153, "\u0e08\u0e32\u0e01\u0e19\u0e31\u0e49\u0e19": 2154, "\u5409": 2155, "\u97f3": 2156, "\u0e40\u0e14\u0e34\u0e19\u0e17\u0e32\u0e07": 2157, "\u5173\u7cfb": 2158, "\u300a": 2159, "\u5e02": 2160, "\u0e15\u0e23\u0e27\u0e08": 2161, "\u0e14\u0e35\u0e46": 2162, "\u0e04\u0e38\u0e13\u0e44\u0e21\u0e48\u0e44\u0e14\u0e49": 2163, "\u4f60\u5f97": 2164, "\u0e1e\u0e27\u0e01\u0e40\u0e04\u0e49\u0e32": 2165, "\u8fd9\u4e0d\u662f": 2166, "\u0e17\u0e35\u0e48\u0e1c\u0e21": 2167, "\u0e16\u0e49\u0e32\u0e40\u0e23\u0e32": 2168, "\u0e01\u0e23\u0e30\u0e40\u0e1b\u0e4b\u0e32": 2169, "aH": 2170, "\u5757": 2171, "\u4efd": 2172, "\u5979\u4eec": 2173, "\u6cb9": 2174, "\\4": 2175, "\u6211\u4eec\u53ef\u4ee5": 2176, "\u0e19\u0e48\u0e32\u0e23\u0e31\u0e01": 2177, "\u6ca1\u4eba": 2178, "fscx": 2179, "fscy": 2180, "\u6837": 2181, "\u5f20": 2182, "\u5171": 2183, "\u7576": 2184, "\u300b": 2185, "\u968f": 2186, "\u5bb3": 2187, "\u0e40\u0e15\u0e23\u0e35\u0e22\u0e21": 2188, "\u0e40\u0e14\u0e47\u0e01\u0e46": 2189, "\u4eba\u4eec": 2190, "\u4e0a\u7684": 2191, "\u0e42\u0e2e": 2192, "\u4eb2\u7231\u7684": 2193, "\u6211\u548c": 2194, "\u0e40\u0e08\u0e4b\u0e07": 2195, "\u0e1d\u0e31\u0e19": 2196, "\u2581us": 2197, "\u0e1c\u0e39\u0e49\u0e04\u0e19": 2198, "\u9996": 2199, "\u0e08\u0e4a\u0e30": 2200, "\u5b9d\u8d1d": 2201, "\u0e19\u0e31\u0e48\u0e19\u0e21\u0e31\u0e19": 2202, "\u8fd8\u5728": 2203, "\u9886": 2204, "\u9f99": 2205, "\u2581\u0e07\u0e31\u0e49\u0e19": 2206, "\u770b\u8d77\u6765": 2207, "\u2581W": 2208, "\u0e40\u0e15\u0e49\u0e19": 2209, "\u2581\u0e21\u0e31\u0e19\u0e40\u0e1b\u0e47\u0e19": 2210, "\u0e04\u0e38\u0e13\u0e23\u0e39\u0e49": 2211, "\u0e44\u0e1b\u0e44\u0e14\u0e49": 2212, "ho": 2213, "\u7a0b": 2214, "\u0e40\u0e1b\u0e47\u0e19\u0e2d\u0e30\u0e44\u0e23": 2215, "\u5ea7": 2216, "\u5fc5\u987b": 2217, "x": 2218, "\u8d5b": 2219, "\u8c61": 2220, "\u6df7": 2221, "\u798f": 2222, "\u9577": 2223, "\u0e1c\u0e21\u0e27\u0e48\u0e32": 2224, "[": 2225, "\u0e2a\u0e2d\u0e07\u0e04\u0e19": 2226, "\u0e2d\u0e22\u0e32\u0e01\u0e44\u0e14\u0e49": 2227, "\u600e\u4e48\u529e": 2228, "\u0e15\u0e34\u0e14\u0e15\u0e48\u0e2d": 2229, "\u5904\u7406": 2230, "\u6211\u6ca1\u6709": 2231, "id": 2232, "\u6025": 2233, "\u6216\u8bb8": 2234, "\u258120": 2235, "\u9632": 2236, "\u90a3\u500b": 2237, "\u5982\u679c\u6211": 2238, "\u73ed": 2239, "\u5723": 2240, "\u7ea6\u7ff0": 2241, "\u4eba\u7684": 2242, "\u0e2a\u0e15\u0e34": 2243, "\u0e40\u0e23\u0e37\u0e48\u0e2d\u0e07\u0e19\u0e31\u0e49\u0e19": 2244, "\u0e1b\u0e23\u0e30\u0e21\u0e32\u0e13": 2245, "\u0e09\u0e31\u0e19\u0e01\u0e4d\u0e32\u0e25\u0e31\u0e07": 2246, "\u8c08\u8c08": 2247, "\u25816": 2248, "\u0e22\u0e2d\u0e21\u0e23\u0e31\u0e1a": 2249, "\u2581Ya": 2250, "\u0e14\u0e4d\u0e32": 2251, "as": 2252, "\u4f60\u8fd8": 2253, "\u4f60\u548c": 2254, "\u0e15\u0e31\u0e14\u0e2a\u0e34\u0e19\u0e43\u0e08": 2255, "\u0e02\u0e2d\u0e07\u0e02\u0e49\u0e32": 2256, "om": 2257, "\u0e19\u0e23\u0e01": 2258, "\u4e00\u5929": 2259, "\u2581\u7136\u540e": 2260, "\u0e25\u0e49\u0e32\u0e07": 2261, "\u53d8\u6210": 2262, "\u5c0f\u5b50": 2263, "\u0e2a\u0e16\u0e32\u0e19\u0e17\u0e35\u0e48": 2264, "\u2581\u55ef": 2265, "\u0e08\u0e49\u0e30": 2266, "\u0e23\u0e39\u0e49\u0e44\u0e2b\u0e21": 2267, "\u52d5": 2268, "\u0e1a\u0e32\u0e23\u0e4c": 2269, "\u5c04": 2270, "\u6bdb": 2271, "\u2581E": 2272, "\u5e97": 2273, "~": 2274, "\u6ca1\u5173\u7cfb": 2275, "\u0e04\u0e38\u0e13\u0e40\u0e1b\u0e47\u0e19": 2276, "\u91cc\u9762": 2277, "\u63a8": 2278, "\u2581from": 2279, "\u0e09\u0e31\u0e19\u0e2b\u0e21\u0e32\u0e22\u0e16\u0e36\u0e07": 2280, "\u0e40\u0e23\u0e32\u0e01\u0e4d\u0e32\u0e25\u0e31\u0e07": 2281, "\u0e04\u0e38\u0e22": 2282, "\u0e1a\u0e2d\u0e01\u0e43\u0e2b\u0e49": 2283, "\u4f60\u4eec\u7684": 2284, "\u0e04\u0e19\u0e2b\u0e19\u0e36\u0e48\u0e07": 2285, "\u0083": 2286, "\u0e23\u0e39\u0e49\u0e21\u0e31\u0e49\u0e22": 2287, "\u0e25\u0e38\u0e07": 2288, "W": 2289, "\u6211\u90fd": 2290, "\u0e42\u0e23\u0e07\u0e40\u0e23\u0e35\u0e22\u0e19": 2291, "\u2581\u0e1c\u0e21\u0e08\u0e30": 2292, "\u0e22\u0e2d\u0e21": 2293, "\u86cb": 2294, "\u5357": 2295, "\u5c0f\u65f6": 2296, "\u0e2b\u0e32\u0e22": 2297, "\u83ab": 2298, "\u0e09\u0e31\u0e19\u0e0a\u0e2d\u0e1a": 2299, "\u5a01": 2300, "\u7684\u5c0f": 2301, "\u5dee": 2302, "\u0e20\u0e32\u0e22\u0e43\u0e19": 2303, "\u5979\u662f": 2304, "22\\": 2305, "\u65ad": 2306, "\u0e09\u0e31\u0e19\u0e40\u0e2b\u0e47\u0e19": 2307, "\u62a4": 2308, "\u5b98": 2309, "\u6211\u8bf4": 2310, "\u0e42\u0e01\u0e23\u0e18": 2311, "\u0e23\u0e49\u0e2d\u0e22": 2312, "\u0e40\u0e18\u0e18\u0e40\u0e18": 2313, "\u8428": 2314, "\u9c7c": 2315, "\u9084\u6709": 2316, "\u0e40\u0e1b": 2317, "\u0e1e\u0e25\u0e32\u0e14": 2318, "\u963b\u6b62": 2319, "ter": 2320, "\u0e2d\u0e22\u0e39\u0e48\u0e1a\u0e19": 2321, "\u0e41\u0e04\u0e48\u0e44\u0e2b\u0e19": 2322, "\u0e40\u0e23\u0e34\u0e48\u0e21\u0e15\u0e49\u0e19": 2323, "\u724c": 2324, "\u0e0a\u0e21": 2325, "\u0e02\u0e49\u0e32\u0e21": 2326, "\u4e3d": 2327, "\u5f62": 2328, "\u2581\u6211\u5011": 2329, "\u8bed": 2330, "\u0e36": 2331, "\u5bf9\u6211": 2332, "\u0e27\u0e48\u0e32\u0e04\u0e38\u0e13": 2333, "\u2581time": 2334, "\u0e22\u0e37\u0e19": 2335, "\u0e41\u0e08\u0e49\u0e07": 2336, "\u0e2d\u0e36": 2337, "\u0e15\u0e49\u0e32": 2338, "\u0e2a\u0e21\u0e2d\u0e07": 2339, "\u5bb3\u6015": 2340, "\u7b2c\u4e00": 2341, "\u4fbf": 2342, "\u578b": 2343, "\u0e1a\u0e34": 2344, "\u0e04\u0e07\u0e44\u0e21\u0e48": 2345, "\u6211\u77e5\u9053\u4f60": 2346, "\u6211\u559c\u6b22": 2347, "\u56fe": 2348, "\u0e40\u0e02\u0e49\u0e32\u0e44\u0e1b\u0e43\u0e19": 2349, "\u6700\u8fd1": 2350, "\u0e43\u0e2b\u0e49\u0e40\u0e23\u0e32": 2351, "\u0e2d\u0e48\u0e30": 2352, "The": 2353, "\u0e02\u0e2d\u0e07\u0e1e\u0e27\u0e01\u0e40\u0e02\u0e32": 2354, "\u90a3\u5c31": 2355, "\u5bb6\u4eba": 2356, "\u0e0b\u0e39": 2357, "\u0e15\u0e48\u0e32\u0e07\u0e2b\u0e32\u0e01": 2358, "1}": 2359, "\u800c\u5df2": 2360, "\u2581them": 2361, "\u505a\u4e86": 2362, "\u2581now": 2363, "\u8fd9\u4e48\u8bf4": 2364, "\u0e21\u0e49\u0e32": 2365, "\u0e14\u0e35\u0e19\u0e30": 2366, "\u4e03": 2367, "\u0e2d\u0e38": 2368, "\u0e40\u0e01\u0e37\u0e2d\u0e1a": 2369, "\u6781": 2370, "\u751a\u81f3": 2371, "\u0e31\u0e25": 2372, "ge": 2373, "\u0e23\u0e32\u0e22\u0e07\u0e32\u0e19": 2374, "\u6211\u4eec\u4f1a": 2375, "\u6770": 2376, "\u0e2b\u0e31\u0e27\u0e2b\u0e19\u0e49\u0e32": 2377, "\u767c": 2378, "\u770b\u89c1": 2379, "\u0e47\u0e04": 2380, "\u4ec0\u4e48\u65f6\u5019": 2381, "\u90fd\u4e0d": 2382, "\u0e40\u0e23\u0e32\u0e01\u0e47": 2383, "\u8c03\u67e5": 2384, "\u0e2b\u0e19\u0e31\u0e01": 2385, "\u585e": 2386, "\u0e40\u0e23\u0e37\u0e48\u0e2d\u0e07\u0e17\u0e35\u0e48": 2387, "\u987f": 2388, "\u0e1e\u0e35\u0e48\u0e0a\u0e32\u0e22": 2389, "\u0e01\u0e2d\u0e07": 2390, "\u0e2b\u0e27\u0e31\u0e14\u0e14\u0e35": 2391, "\u723e": 2392, "\u2581need": 2393, "\u0e44\u0e23\u0e49": 2394, "\u975e": 2395, "\u5728\u90a3\u91cc": 2396, "\u0e2a\u0e31\u0e0d\u0e0d\u0e32\u0e13": 2397, "\u5c31\u8981": 2398, "ce": 2399, "\u51b2": 2400, "\u0e44\u0e2e": 2401, "\u0e40\u0e1e\u0e37\u0e48\u0e2d\u0e43\u0e2b\u0e49": 2402, "12": 2403, "\u76f8\u4fe1\u6211": 2404, "\u51b0": 2405, "\u7236\u4eb2": 2406, "\u6539": 2407, "\u0e15\u0e4d\u0e32\u0e41\u0e2b\u0e19\u0e48\u0e07": 2408, "\u8ba4\u8bc6": 2409, "\u52b3": 2410, "\u5a1c": 2411, "\u5413": 2412, "\u0e41\u0e15\u0e48\u0e07": 2413, "\u4e0d\u597d": 2414, "\u0e44\u0e21\u0e48\u0e23\u0e39\u0e49\u0e2a\u0e34": 2415, "\u0e22\u0e31\u0e07\u0e21\u0e35": 2416, "\u9020": 2417, "\u0e01\u0e31\u0e1a\u0e1c\u0e21": 2418, "\u0e1e\u0e25\u0e31\u0e07": 2419, "\u2581\u0e40\u0e1e\u0e37\u0e48\u0e2d\u0e19": 2420, "We": 2421, "\u0e1c\u0e21\u0e15\u0e49\u0e2d\u0e07": 2422, "\u662f\u5728": 2423, "\u56e0\u4e3a\u6211": 2424, "\u2581R": 2425, "\u0e1c\u0e21\u0e44\u0e21\u0e48": 2426, "\u4ed8": 2427, "\u6211\u662f\u8bf4": 2428, "\u8d76": 2429, "\u0e08\u0e39": 2430, "\u5df2\u7d93": 2431, "\u0e25\u0e31\u0e1a": 2432, "\u0e2d\u0e30\u0e44\u0e23\u0e01\u0e31\u0e19": 2433, "\u2581\u4ec0\u4e48": 2434, "\u70ba\u4ec0\u9ebc": 2435, "\u2581de": 2436, "\u0e44\u0e21\u0e48\u0e04\u0e27\u0e23": 2437, "\u6309": 2438, "\u78b0": 2439, "\u0e17\u0e4d\u0e32\u0e21\u0e31\u0e19": 2440, "Hei": 2441, "\u6bba": 2442, "\u535a\u58eb": 2443, "\u0e2b\u0e25\u0e48\u0e30": 2444, "\u8ff7": 2445, "\u0e27\u0e19": 2446, "\u8863\u670d": 2447, "\u0e40\u0e1b\u0e47\u0e19\u0e44\u0e07\u0e1a\u0e49\u0e32\u0e07": 2448, "\u0e40\u0e18\u0e2d\u0e15\u0e49\u0e2d\u0e07": 2449, "\u4ed6\u8bf4": 2450, "\u4e1c": 2451, "\u8acb": 2452, "\u0e15\u0e49\u0e19": 2453, "\u5175": 2454, "\u5988": 2455, "\u0e22\u0e38\u0e48\u0e07": 2456, "90": 2457, "no": 2458, "\u0e23\u0e34\u0e04": 2459, "\u95ed\u5634": 2460, "\u89c6": 2461, "\u0e40\u0e2b\u0e25\u0e48\u0e32\u0e19\u0e35\u0e49": 2462, "\u0e42\u0e17\u0e29\u0e17\u0e35": 2463, "\u4e0d\u597d\u610f\u601d": 2464, "\u90a3\u79cd": 2465, "\u5b8c\u6210": 2466, "\u009e": 2467, "us": 2468, "\u2581\u6211\u4f1a": 2469, "\u6562": 2470, "\u0e09\u0e31\u0e19\u0e44\u0e1b": 2471, "\u0e09\u0e31\u0e19\u0e17\u0e4d\u0e32": 2472, "\u6ee1": 2473, "\u8857": 2474, "\u0e23\u0e36\u0e22\u0e31\u0e07": 2475, "\u6253\u7b97": 2476, "\u0e40\u0e01\u0e25\u0e35\u0e22\u0e14": 2477, "\u8bb0": 2478, "\u8d27": 2479, "mo": 2480, "\u0e08\u0e32": 2481, "\u4ee5\u540e": 2482, "\u0e2b\u0e19\u0e38\u0e48\u0e21": 2483, "\u8fd1": 2484, "\u6211\u4eec\u5c31": 2485, "\u5b88": 2486, "\u0e44\u0e21\u0e48\u0e22\u0e2d\u0e21": 2487, "\u0e2b\u0e23\u0e2d\u0e01\u0e19\u0e30": 2488, "\u4f60\u5e94\u8be5": 2489, "\u0e09\u0e31\u0e19\u0e08\u0e30\u0e44\u0e21\u0e48": 2490, "Microsoft": 2491, "\u0e21\u0e35\u0e40\u0e23\u0e37\u0e48\u0e2d\u0e07": 2492, "na": 2493, "\u0e2b\u0e25\u0e31\u0e1a": 2494, "\u54c7": 2495, "\u0e40\u0e19\u0e37\u0e49\u0e2d": 2496, "\u0e40\u0e2a\u0e37\u0e49\u0e2d": 2497, "\u0e41\u0e15\u0e01": 2498, "\u0e41\u0e25": 2499, "\u0e15\u0e32\u0e22\u0e41\u0e25\u0e49\u0e27": 2500, "\u5728\u4f60": 2501, "\u91ce": 2502, "\u592a\u597d\u4e86": 2503, "\u51fa\u73b0": 2504, "\u0e2b\u0e0d\u0e34\u0e07": 2505, "\u0e2d\u0e22\u0e48\u0e32\u0e07\u0e44\u0e23": 2506, "\u807d": 2507, "\u0e40\u0e01\u0e21": 2508, "\u0e01\u0e23\u0e38\u0e13\u0e32": 2509, "\u0e2b\u0e27\u0e31\u0e07\u0e27\u0e48\u0e32": 2510, "\u2581will": 2511, "\u5728\u54ea\u513f": 2512, "\u592b\u4eba": 2513, "\u0e0d": 2514, "\u6b4c": 2515, "ver": 2516, "\u0e41\u0e21\u0e49\u0e41\u0e15\u0e48": 2517, "\u627e\u5230\u4e86": 2518, "\u2581l": 2519, "\u6ce8\u610f": 2520, "\u0e27\u0e31\u0e19\u0e17\u0e35\u0e48": 2521, "\u0e01\u0e31\u0e07\u0e27\u0e25": 2522, "\u7ed9\u4ed6": 2523, "\u591f": 2524, "ick": 2525, "\u2581\u0e17\u0e48\u0e32\u0e19": 2526, "\u4f60\u4e0d\u80fd": 2527, "he": 2528, "\u0e40\u0e2a\u0e35\u0e22\u0e43\u0e08": 2529, "\u0e02\u0e32\u0e14": 2530, "\u2581\u4e0d\u662f": 2531, "\u0e04\u0e31": 2532, "\u0e40\u0e40\u0e25\u0e49\u0e27": 2533, "\u0e23\u0e30\u0e14\u0e31\u0e1a": 2534, "\u673a\u4f1a": 2535, "\u0e23\u0e2d\u0e19": 2536, "\u0e40\u0e0a\u0e48\u0e19": 2537, "\u89e3\u51b3": 2538, "\u0e27\u0e48\u0e32\u0e21\u0e31\u0e19": 2539, "\u0e41\u0e2a\u0e07": 2540, "\u2581\u54e6": 2541, "\u76f4\u5230": 2542, "\u0e44\u0e1b\u0e14\u0e49\u0e27\u0e22": 2543, "\u0e1e\u0e27\u0e01\u0e40\u0e02\u0e32\u0e08\u0e30": 2544, "\u0e19\u0e01": 2545, "\u0e19\u0e32\u0e17\u0e35": 2546, "\u517b": 2547, "\u96ea": 2548, "\u2581K": 2549, "\u0e08\u0e49\u0e32\u0e07": 2550, "\u0e14\u0e31\u0e07": 2551, "\u0e44\u0e0b": 2552, "\u0e01\u0e31\u0e1a\u0e40\u0e18\u0e2d": 2553, "\u0e07\u0e31\u0e49\u0e19\u0e01\u0e47": 2554, "\u4f60\u4e86": 2555, "\u662f\u56e0\u4e3a": 2556, "\u0e15\u0e35\u0e49": 2557, "\u7591": 2558, "\u0e40\u0e17\u0e49\u0e32": 2559, "\u7cfb": 2560, "\u0e21\u0e31\u0e19\u0e21\u0e35": 2561, "\u0e15\u0e23\u0e27\u0e08\u0e2a\u0e2d\u0e1a": 2562, "\u6e38\u620f": 2563, "\u9019\u9ebc": 2564, "\u540c\u610f": 2565, "\u6392": 2566, "you": 2567, "\u0e2d\u0e21": 2568, "\u56e0": 2569, "all": 2570, "\u5152": 2571, "\u2581\u0e17\u0e35\u0e48\u0e23\u0e31\u0e01": 2572, "\u0e1c\u0e49\u0e32": 2573, "\u0e01\u0e47\u0e44\u0e21\u0e48": 2574, "\u6015": 2575, "\u0e02\u0e2d\u0e07\u0e40\u0e08\u0e49\u0e32": 2576, "\u0e22\u0e34\u0e19\u0e14\u0e35": 2577, "\u5f17": 2578, "\u0e40\u0e0a\u0e49\u0e32": 2579, "\u4f55": 2580, "\u5b58\u5728": 2581, "\u0e43\u0e2b\u0e49\u0e01\u0e31\u0e1a": 2582, "\u0e40\u0e14\u0e34\u0e21": 2583, "\u5929\u54ea": 2584, "\u0e27\u0e49\u0e32\u0e27": 2585, "\u0e25\u0e25\u0e35\u0e48": 2586, "\u8fd9\u6837\u7684": 2587, "\u0e2b\u0e27\u0e31\u0e07": 2588, "\u0e0b\u0e48\u0e32": 2589, "\u0e21\u0e32\u0e23\u0e4c": 2590, "\u0e01\u0e47\u0e15\u0e49\u0e2d\u0e07": 2591, "\u53cb": 2592, "\u4f4e": 2593, "un": 2594, "\u0e08\u0e19\u0e01\u0e27\u0e48\u0e32": 2595, "\u0e1a\u0e32\u0e07\u0e04\u0e19": 2596, "\u5ff5": 2597, "\u0e04\u0e27\u0e32\u0e21\u0e23\u0e31\u0e01": 2598, "\u0e08\u0e2d\u0e2b\u0e4c\u0e19": 2599, "\u2581were": 2600, "\u2581\u4e0d\u8981": 2601, "\u5bf9\u4f60": 2602, "\u4f60\u4e0d\u662f": 2603, "\u0e2e\u0e2d": 2604, "\u0e1a\u0e39": 2605, "\u5371\u9669": 2606, "\u90a3\u8fb9": 2607, "\u8863": 2608, "\u751f\u547d": 2609, "\u0e25\u0e36\u0e01": 2610, "\u0e04\u0e19\u0e19\u0e35\u0e49": 2611, "\ue4c7": 2612, "\u0e04\u0e38\u0e13\u0e01\u0e47": 2613, "\u8054\u7cfb": 2614, "\u4e45": 2615, "\u0e44\u0e27": 2616, "\u4e54": 2617, "\u8fd8\u8981": 2618, "\u0e01\u0e35\u0e49": 2619, "one": 2620, "\u0e43\u0e2b\u0e49\u0e44\u0e14\u0e49": 2621, "V": 2622, "\u2581an": 2623, "\u0e20\u0e23\u0e23\u0e22\u0e32": 2624, "\u0e1b\u0e48\u0e32": 2625, "\u0e17\u0e35\u0e48\u0e2d\u0e22\u0e39\u0e48": 2626, "\u0e40\u0e15": 2627, "\u6211\u4eec\u5728": 2628, "\u7edd\u5bf9": 2629, "\u76ee\u6807": 2630, "\u0e08\u0e30\u0e43\u0e2b\u0e49": 2631, "\u0e40\u0e2a": 2632, "\u56e2": 2633, "\u5f71": 2634, "\u0e1b\u0e25\u0e32": 2635, "50": 2636, "\u98df": 2637, "\u7cfb\u7edf": 2638, "\u5931\u53bb": 2639, "\u2581\u0e40\u0e2b\u0e21\u0e37\u0e2d\u0e19": 2640, "\u51b7": 2641, "\u0e21\u0e32\u0e43\u0e2b\u0e49": 2642, "\u0e17\u0e35\u0e48\u0e40\u0e02\u0e32": 2643, "\u81ea\u7531": 2644, "\u0e44\u0e21\u0e48\u0e27\u0e48\u0e32": 2645, "\u0e21\u0e32\u0e01\u0e21\u0e32\u0e22": 2646, "\u5927\u4eba": 2647, "\u2581his": 2648, "\u7559\u4e0b": 2649, "\u0e04\u0e37\u0e2d\u0e2d\u0e30\u0e44\u0e23": 2650, "\u7ed3\u679c": 2651, "\u7d66\u6211": 2652, "\u0e27\u0e4c": 2653, "\u7684\u751f\u6d3b": 2654, "\u0e1a\u0e31\u0e19\u0e17\u0e36\u0e01": 2655, "\u0e44\u0e21\u0e48\u0e23\u0e39\u0e49\u0e27\u0e48\u0e32": 2656, "\u2581G": 2657, "\u0e40\u0e01\u0e23": 2658, "\u0e01\u0e25\u0e49\u0e32": 2659, "\u0e27\u0e48\u0e32\u0e40\u0e02\u0e32": 2660, "\u5927\u5bb6\u90fd": 2661, "\u70e7": 2662, "\u5317": 2663, "\u9b54": 2664, "\u62db": 2665, "\u0e23\u0e32\u0e22": 2666, "\u770b\u7740": 2667, "\u0e42\u0e17\u0e29": 2668, "\u0e2d\u0e32\u0e23\u0e21\u0e13\u0e4c": 2669, "\u0e09\u0e31\u0e19\u0e02\u0e2d\u0e42\u0e17\u0e29": 2670, "\u0e2a\u0e39\u0e48": 2671, "\u559c\u6b61": 2672, "\u600e\u4e48\u56de\u4e8b": 2673, "\u79f0": 2674, "\u0e17\u0e32\u0e07\u0e19\u0e35\u0e49": 2675, "\u0e17\u0e4d\u0e32\u0e43\u0e2b\u0e49\u0e09\u0e31\u0e19": 2676, "\u7ea2": 2677, "\u7075": 2678, "\u4ec0\u4e48\u4e8b": 2679, "\u54b1\u4eec": 2680, "\u0e40\u0e02": 2681, "\u4ee4": 2682, "\u0e41\u0e21": 2683, "\u8282": 2684, "\u83f2": 2685, "\u623f\u5b50": 2686, "\u0e40\u0e2d\u0e2d": 2687, "\u4e2d\u7684": 2688, "\u0e16\u0e48\u0e32\u0e22": 2689, "\u7279\u522b": 2690, "\u8981\u53bb": 2691, "\u0e02\u0e31\u0e1a\u0e23\u0e16": 2692, "\u0e42": 2693, "\u90fd\u4f1a": 2694, "\u0e1f\u0e34": 2695, "\u0e40\u0e18\u0e2d\u0e01\u0e47": 2696, "\u9019\u4e9b": 2697, "\u6211\u8fd8": 2698, "\u0e37": 2699, "\u7ed3\u675f": 2700, "\u0e40\u0e1b\u0e47\u0e19\u0e40\u0e23\u0e37\u0e48\u0e2d\u0e07": 2701, "\u867d\u7136": 2702, "\u821e": 2703, "45": 2704, "\u65b0\u7684": 2705, "\u2581N": 2706, "\u2581\u0e44\u0e14\u0e49\u0e42\u0e1b\u0e23\u0e14": 2707, "\u2581could": 2708, "He": 2709, "\u80cc": 2710, "\u76d6": 2711, "\u6885": 2712, "\u957f\u5b98": 2713, "\u0e41\u0e22\u0e01": 2714, "\u4f60\u73b0\u5728": 2715, "\u0e04\u0e4d\u0e32\u0e16\u0e32\u0e21": 2716, "\u740c": 2717, "\u9519\u4e86": 2718, "\u4fdd\u6301": 2719, "\u82f1": 2720, "\u0e44\u0e14": 2721, "\u2581\u0e0a\u0e31\u0e49\u0e19": 2722, "\u2581\u73b0\u5728": 2723, "\u0e01\u0e49\u0e32": 2724, "\u5438\u8840\u9b3c": 2725, "\u6563": 2726, "\u0e40\u0e23\u0e47\u0e27\u0e40\u0e02\u0e49\u0e32": 2727, "\u6211\u4eec\u90fd": 2728, "\u65af\u7279": 2729, "ry": 2730, "\u6599": 2731, "\u94c1": 2732, "\u786e\u5b9e": 2733, "\u4ed6\u4eec\u4f1a": 2734, "\u662f\u5426": 2735, "\u6068": 2736, "\u6574\u4e2a": 2737, "\u521a\u624d": 2738, "\u90a3\u4f60": 2739, "ig": 2740, "\u0e40\u0e01\u0e34\u0e19": 2741, "\u0e40\u0e2a\u0e49\u0e19": 2742, "\u0e2d\u0e49\u0e2d": 2743, "\u0e1a\u0e17": 2744, "\u0e44\u0e21\u0e48\u0e0a\u0e2d\u0e1a": 2745, "\u0e19\u0e32\u0e22\u0e15\u0e49\u0e2d\u0e07": 2746, "\u2581\u597d\u5427": 2747, "\u2581did": 2748, "\u0e02\u0e2d\u0e42\u0e17\u0e29\u0e19\u0e30": 2749, "\u5634": 2750, "\u9664\u4e86": 2751, "ap": 2752, "\u676f": 2753, "\u0e25\u0e35\u0e48": 2754, "\u2581\u0e2a\u0e4d\u0e32\u0e2b\u0e23\u0e31\u0e1a": 2755, "\u51e0\u4e2a": 2756, "\u0e2a\u0e40\u0e15\u0e2d\u0e23\u0e4c": 2757, "\u0e01\u0e31\u0e1a\u0e40\u0e02\u0e32": 2758, "\u0e40\u0e23\u0e35\u0e22\u0e01\u0e27\u0e48\u0e32": 2759, "\u662f\u4e3a\u4e86": 2760, "\u0e40\u0e01\u0e2d\u0e23\u0e4c": 2761, "\u0e40\u0e23\u0e35\u0e22\u0e1a\u0e23\u0e49\u0e2d\u0e22": 2762, "\u0e40\u0e22": 2763, "\u0e17\u0e30\u0e40\u0e25": 2764, "\u62ff\u5230": 2765, "\u2581\u597d\u7684": 2766, "\u0e27\u0e48\u0e32\u0e09\u0e31\u0e19": 2767, "\u0e41\u0e14\u0e19": 2768, "\u0e2a\u0e48\u0e27\u0e19\u0e15\u0e31\u0e27": 2769, "\u0e02\u0e2d\u0e1a\u0e43\u0e08": 2770, "\u0e17\u0e4d\u0e32\u0e41\u0e1a\u0e1a\u0e19\u0e35\u0e49": 2771, "\u0e23\u0e48\u0e32\u0e07": 2772, "\u0e0a\u0e32\u0e15\u0e34": 2773, "\u0e08\u0e30\u0e15\u0e32\u0e22": 2774, "\u53ea\u80fd": 2775, "\u0e41\u0e15\u0e48\u0e09\u0e31\u0e19": 2776, "\u5957": 2777, "\u8ab0": 2778, "\u5200": 2779, "\u0e41\u0e08\u0e47\u0e04": 2780, "\u697c": 2781, "\u739b": 2782, "\u4f5b": 2783, "30": 2784, "\u4f60\u81ea\u5df1": 2785, "\u5176\u4ed6\u4eba": 2786, "\u0e2a\u0e39\u0e0d\u0e40\u0e2a\u0e35\u0e22": 2787, "\u52a9": 2788, "\u0e1c\u0e21\u0e21\u0e35": 2789, "\u7ec4\u7ec7": 2790, "\u0e17\u0e35\u0e48\u0e1a\u0e49\u0e32\u0e19": 2791, "\u0e25\u0e32\u0e22": 2792, "\u6253\u7535\u8bdd": 2793, "\u0e40\u0e2b\u0e15\u0e38\u0e1c\u0e25": 2794, "et": 2795, "\u0e2d\u0e31": 2796, "\u0e2a\u0e32\u0e23": 2797, "ia": 2798, "\u0e40\u0e1b\u0e47\u0e19\u0e1c\u0e39\u0e49": 2799, "\u6076": 2800, "\u8be5\u6b7b\u7684": 2801, "\u2581st": 2802, "\u0e15\u0e49\u0e2d\u0e07\u0e44\u0e1b": 2803, "\u5b78": 2804, "\u2581if": 2805, "\u0e1b\u0e23\u0e30\u0e08\u0e4d\u0e32": 2806, "\u53c2\u52a0": 2807, "\u0e04\u0e19\u0e19\u0e31\u0e49\u0e19": 2808, "\u0e04\u0e27\u0e32\u0e21\u0e23\u0e39\u0e49\u0e2a\u0e36\u0e01": 2809, "\u53ca": 2810, "\u0e01\u0e31\u0e1b\u0e15\u0e31\u0e19": 2811, "\u3043": 2812, "\u4f46\u4f60": 2813, "\u0e42\u0e17\u0e23\u0e21\u0e32": 2814, "\u6211\u53eb": 2815, "\u0e18\u0e38\u0e23\u0e01\u0e34\u0e08": 2816, "\u0e2a\u0e34\u0e48\u0e07\u0e19\u0e35\u0e49": 2817, "\u50bb": 2818, "\u0e08\u0e30\u0e17\u0e4d\u0e32\u0e43\u0e2b\u0e49": 2819, "\u0e01\u0e49\u0e32\u0e27": 2820, "\u0e40\u0e25\u0e35\u0e22": 2821, "\u0e40\u0e1b\u0e47\u0e19\u0e44\u0e1b\u0e44\u0e14\u0e49": 2822, "\u2581\u0e15\u0e49\u0e2d\u0e07": 2823, "\u0e40\u0e0a\u0e37\u0e48\u0e2d\u0e27\u0e48\u0e32": 2824, "\u0e41\u0e17\u0e49": 2825, "\u0e40\u0e1b\u0e49\u0e32\u0e2b\u0e21\u0e32\u0e22": 2826, "\u0e2d\u0e22\u0e48\u0e32\u0e07\u0e19\u0e49\u0e2d\u0e22": 2827, "\u542c\u6211\u8bf4": 2828, "\u0e08\u0e30\u0e17\u0e4d\u0e32\u0e2d\u0e30\u0e44\u0e23": 2829, "\u4e0a\u9762": 2830, "\u96c6": 2831, "\u0e2d\u0e30\u0e44\u0e23\u0e17\u0e35\u0e48": 2832, "\u6770\u514b": 2833, "\u838e": 2834, "\u8be5\u6b7b": 2835, "\u0e40\u0e02\u0e32\u0e44\u0e21\u0e48\u0e44\u0e14\u0e49": 2836, "\u61c2": 2837, "\u6743": 2838, "\u4e34": 2839, "\u0e01\u0e23\u0e23\u0e21": 2840, "\u0e22\u0e2d\u0e14": 2841, "\u5947\u602a": 2842, "\u0e21\u0e32\u0e01\u0e46": 2843, "\u0e40\u0e21\u0e32": 2844, "\u2581tr": 2845, "\u0e41\u0e2d\u0e19": 2846, "\u6254": 2847, "\u0e1c\u0e21\u0e15\u0e49\u0e2d\u0e07\u0e01\u0e32\u0e23": 2848, "\u8138": 2849, "\u7cbe": 2850, "\u8bf4\u4ec0\u4e48": 2851, "to": 2852, "\u0e01\u0e47\u0e22\u0e31\u0e07": 2853, "\u8ba4": 2854, "\u4e00\u79cd": 2855, "\u2581\u6211\u5c31": 2856, "\u0e2a\u0e38\u0e14\u0e22\u0e2d\u0e14": 2857, "\u0e16\u0e49\u0e32\u0e40\u0e18\u0e2d": 2858, "\u4efb\u4f55\u4eba": 2859, "\u76f4\u63a5": 2860, "\u9ea6": 2861, "\u2581as": 2862, "\u2581su": 2863, "\u0e09\u0e31\u0e19\u0e44\u0e21\u0e48\u0e40\u0e04\u0e22": 2864, "\u7ec4": 2865, "\u0e2d\u0e22\u0e39\u0e48\u0e17\u0e35\u0e48\u0e19\u0e31\u0e48\u0e19": 2866, "\u2581some": 2867, "\u6b63\u5e38": 2868, "\u0e22\u0e32\u0e21": 2869, "\u0e0b\u0e2d": 2870, "\u6700\u597d": 2871, "\u0e2b\u0e38\u0e1a\u0e1b\u0e32\u0e01": 2872, "\u6728": 2873, "\u8fd9\u8fb9": 2874, "\u8eb2": 2875, "\u592a\u592a": 2876, "\u74e6": 2877, "\u5f53\u65f6": 2878, "\u0e2b\u0e25\u0e31\u0e01": 2879, "\u0e2a\u0e1a\u0e32\u0e22": 2880, "\u2581she": 2881, "\u5c0f\u5b69": 2882, "\u0e01\u0e38\u0e0d\u0e41\u0e08": 2883, "\u0e17\u0e31\u0e19": 2884, "\u0e44\u0e17": 2885, "\u4e0d\u7136": 2886, "\u0e25\u0e4d\u0e32": 2887, "\u966a": 2888, "\u0e22\u0e32\u0e19": 2889, "\u6240\u4ee5\u6211": 2890, "\u5473": 2891, "\u817f": 2892, "\u0e04\u0e38\u0e13\u0e2a\u0e32\u0e21\u0e32\u0e23\u0e16": 2893, "\u4e3e": 2894, "\u6211\u4eec\u662f": 2895, "000": 2896, "\u52aa\u529b": 2897, "\u0e2b\u0e23\u0e37\u0e2d\u0e44\u0e07": 2898, "\u7acb": 2899, "\u0e09\u0e31\u0e19\u0e44\u0e21\u0e48\u0e2d\u0e22\u0e32\u0e01": 2900, "\u0e40\u0e23\u0e32\u0e15\u0e49\u0e2d\u0e07\u0e01\u0e32\u0e23": 2901, "\u0e2a\u0e1a\u0e32\u0e22\u0e14\u0e35": 2902, "\u0e04\u0e4d\u0e32\u0e15\u0e2d\u0e1a": 2903, "\u0e41\u0e2a\u0e19": 2904, "\u0e40\u0e2d\u0e32\u0e44\u0e1b": 2905, "\u591f\u4e86": 2906, "\u61c9\u8a72": 2907, "\u0e41\u0e25\u0e30\u0e09\u0e31\u0e19": 2908, "\u0e04\u0e38\u0e13\u0e15\u0e49\u0e2d\u0e07\u0e01\u0e32\u0e23": 2909, "\u0e21\u0e35\u0e40\u0e27\u0e25\u0e32": 2910, "\u6ca1\u95ee\u9898": 2911, "\u7b2c\u4e00\u6b21": 2912, "\u7814\u7a76": 2913, "\u6253\u5f00": 2914, "\u0e4a\u0e2d": 2915, "\u2581going": 2916, "\u513f\u5b50": 2917, "\u0e08\u0e35": 2918, "\u0e41\u0e15\u0e48\u0e1c\u0e21": 2919, "\u0e25\u0e49\u0e32\u0e19": 2920, "\u0e08\u0e30\u0e40\u0e2d\u0e32": 2921, "\u0e4d\u0e32": 2922, "\u0e16\u0e49\u0e32\u0e09\u0e31\u0e19": 2923, "\u2581\u0e2b\u0e19\u0e39": 2924, "\u0e40\u0e2b\u0e15\u0e38": 2925, "\u0e2b\u0e01": 2926, "\u6211\u6703": 2927, "\u0e44": 2928, "\u2581\u0e25\u0e39\u0e01": 2929, "\u5abd": 2930, "\u0e1e\u0e48\u0e2d\u0e41\u0e21\u0e48": 2931, "\u91cc\u7684": 2932, "\u89e3\u91ca": 2933, "man": 2934, "\u548c\u4ed6": 2935, "\u0e25\u0e2d": 2936, "\u53ef\u80fd\u662f": 2937, "\u2581ho": 2938, "\u677f": 2939, "\u0e1b\u0e49\u0e32": 2940, "\u2581\u0e40\u0e23\u0e32\u0e15\u0e49\u0e2d\u0e07": 2941, "\u5404\u4f4d": 2942, "\u0e40\u0e1b\u0e47\u0e19\u0e40\u0e1e\u0e37\u0e48\u0e2d\u0e19": 2943, "\u611f\u5230": 2944, "\u0e20\u0e31\u0e22": 2945, "\u6628\u665a": 2946, "\u0e2d\u0e2d": 2947, "my": 2948, "\u98de\u673a": 2949, "15": 2950, "\u0e23\u0e32\u0e04\u0e32": 2951, "No": 2952, "\u0e2d\u0e32\u0e23\u0e4c": 2953, "%": 2954, "\u0e15\u0e23": 2955, "\u6a5f": 2956, "\u0e19\u0e2d\u0e01\u0e08\u0e32\u0e01": 2957, "\u76ee": 2958, "\u60ca": 2959, "\u53cc": 2960, "\u4e0d\u8be5": 2961, "\u5f88\u9ad8\u5174": 2962, "\u2581take": 2963, "\u590d": 2964, "\u2581who": 2965, "\u0e44\u0e14\u0e49\u0e44\u0e07": 2966, "\u5c9b": 2967, "\u0e40\u0e18\u0e2d\u0e44\u0e21\u0e48": 2968, "\u0e40\u0e1b\u0e47\u0e19\u0e01\u0e32\u0e23": 2969, "\u0e14\u0e31\u0e19": 2970, "\u0e43\u0e19\u0e2b\u0e49\u0e2d\u0e07": 2971, "\u2581been": 2972, "\u0e17\u0e4d\u0e32\u0e15\u0e31\u0e27": 2973, "\u6f02\u4eae": 2974, "\u0e1d\u0e48\u0e32\u0e22": 2975, "ers": 2976, "\u59ae": 2977, "\u2581good": 2978, "\u2581\u0e14\u0e39": 2979, "\u0e15\u0e23\u0e07\u0e19\u0e31\u0e49\u0e19": 2980, "\u9019\u88e1": 2981, "\u54ea\u91cc": 2982, "\u56e0\u4e3a\u4f60": 2983, "\u6a21": 2984, "\u5206\u949f": 2985, "\u0e40\u0e2d\u0e32\u0e25\u0e30": 2986, "\u6b7b\u4ea1": 2987, "\u6e38": 2988, "\u0e01\u0e47\u0e14\u0e35": 2989, "\u0e40\u0e25\u0e47\u0e01\u0e46": 2990, "\u9192": 2991, "\u914d": 2992, "dy": 2993, "\u0e2b\u0e25\u0e1a": 2994, "19": 2995, "\u0e17\u0e49\u0e2d\u0e07": 2996, "\u0e09\u0e31\u0e19\u0e41\u0e04\u0e48": 2997, "\u80e1": 2998, "\u0e21\u0e32\u0e2b\u0e32": 2999, "\u8d1f\u8d23": 3000, "\u8d1d": 3001, "\u4efb": 3002, "\u8131": 3003, "\u6293\u4f4f": 3004, "\u0e41\u0e1e": 3005, "\u0e01\u0e47\u0e21\u0e35": 3006, "\u0e01\u0e38": 3007, "\u0e41\u0e2e": 3008, "\u5b66\u6821": 3009, "\u806a\u660e": 3010, "\u0e21\u0e48\u0e32": 3011, "16": 3012, "\u0627": 3013, "\u8bcd": 3014, "the": 3015, "\u0e01\u0e25": 3016, "\u2581would": 3017, "\u0e27\u0e48\u0e32\u0e40\u0e18\u0e2d": 3018, "\u0e2b\u0e25\u0e30": 3019, "\u0e19\u0e49\u0e2d\u0e07\u0e0a\u0e32\u0e22": 3020, "\u51ef": 3021, "\u9732": 3022, "\u0e17\u0e35\u0e48\u0e40\u0e18\u0e2d": 3023, "\ue5ec": 3024, "\u266a": 3025, "\u8fdb\u884c": 3026, "\u0e40\u0e1c\u0e32": 3027, "\u6d88\u606f": 3028, "\u0e43\u0e08\u0e40\u0e22\u0e47\u0e19": 3029, "\u2581\u0e1e\u0e27\u0e01\u0e40\u0e23\u0e32": 3030, "?\"": 3031, "\u0e40\u0e02\u0e32\u0e44\u0e21\u0e48": 3032, "\u0e2b\u0e32\u0e22\u0e43\u0e08": 3033, "\u4ee3\u8868": 3034, "\u0e08\u0e07": 3035, "\u8b93\u6211": 3036, "\u4efb\u52a1": 3037, "\u0e22\u0e48\u0e32": 3038, "\u0e44\u0e25": 3039, "\u2581\u8fd8\u6709": 3040, "\u25817": 3041, "\u0e19\u0e31\u0e14": 3042, "\u4e3a\u4f60": 3043, "\u0e14\u0e35\u0e02\u0e36\u0e49\u0e19": 3044, "pe": 3045, "\u2581say": 3046, "\u0e2a\u0e31\u0e1b\u0e14\u0e32\u0e2b\u0e4c": 3047, "\u82e5": 3048, "\u661f\u671f": 3049, "\u5bb6\u4f19": 3050, "\u064a": 3051, "\u2581\u0e09\u0e31\u0e19\u0e01\u0e47": 3052, "\u6821": 3053, "\u0e19\u0e49\u0e2d\u0e07": 3054, "\u5e0c": 3055, "\u2581\u0e17\u0e35\u0e48\u0e08\u0e30": 3056, "\u90fd\u5728": 3057, "\u0e48\u0e19": 3058, "\u7d27": 3059, "\u0e2b\u0e25\u0e31\u0e01\u0e10\u0e32\u0e19": 3060, "ag": 3061, "ies": 3062, "\u0e21\u0e32\u0e01\u0e02\u0e36\u0e49\u0e19": 3063, "\u6709\u591a": 3064, "\u0e17\u0e35\u0e19\u0e35\u0e49": 3065, "\u642c": 3066, "\u5e76\u4e0d": 3067, "\u56fd\u738b": 3068, "\u4e2a\u4eba": 3069, "\u0e21\u0e31\u0e49\u0e07": 3070, "\u8bfe": 3071, "\u0e48\u0e2d": 3072, "\u9084\u662f": 3073, "\u0e2d\u0e31\u0e25": 3074, "\u0093": 3075, "\u5c42": 3076, "\u0e23\u0e49\u0e32": 3077, "\u6211\u4e00\u76f4": 3078, "est": 3079, "\u5f00\u67aa": 3080, "end": 3081, "\u5fd8\u4e86": 3082, "\u0e1c\u0e21\u0e23\u0e39\u0e49": 3083, "\u5c31\u7b97": 3084, "\u0e02\u0e2d\u0e07\u0e21\u0e31\u0e19": 3085, "ut": 3086, "\u6c42\u4f60\u4e86": 3087, "\u0e23\u0e27\u0e21": 3088, "\u0e08\u0e34\u0e15": 3089, "\u0e42\u0e22\u0e19": 3090, "\u4f60\u771f": 3091, "\u6210\u529f": 3092, "\u5bf9\u5427": 3093, "\u0e15\u0e39\u0e49": 3094, "\u662f\u4e00\u4e2a": 3095, "\u0e41\u0e2d\u0e1a": 3096, "\u0e1b\u0e32": 3097, "\u4f60\u6ca1": 3098, "\u0e15\u0e2d\u0e19\u0e19\u0e31\u0e49\u0e19": 3099, "\u6811": 3100, "\u0e1e\u0e31\u0e07": 3101, "\u0e01\u0e23\u0e30\u0e2a\u0e38\u0e19": 3102, "\u0e01\u0e2d\u0e07\u0e17\u0e31\u0e1e": 3103, "\u4e00\u4f4d": 3104, "\u79d8\u5bc6": 3105, "\u0e2d\u0e48\u0e32": 3106, "\u0e14\u0e49\u0e27\u0e22\u0e19\u0e30": 3107, "\u91cd\u65b0": 3108, "\u0e1a\u0e2d": 3109, "me": 3110, "ion": 3111, "\u0e01\u0e25\u0e34\u0e48\u0e19": 3112, "ess": 3113, "\u0e40\u0e23\u0e32\u0e44\u0e21\u0e48\u0e44\u0e14\u0e49": 3114, "ay": 3115, "\u0e04\u0e23\u0e34\u0e2a": 3116, "\u2581That": 3117, "\u0e40\u0e14\u0e2d\u0e23\u0e4c": 3118, "\u0e1a\u0e35\u0e49": 3119, "\u2581\u5bf9": 3120, "\u9e21": 3121, "ul": 3122, "\u0e21\u0e2d": 3123, "\u0e1e\u0e39\u0e14\u0e16\u0e39\u0e01": 3124, "\u0e04\u0e38\u0e01": 3125, "\u0e1e\u0e39\u0e14\u0e01\u0e31\u0e1a": 3126, "\u6b22\u8fce": 3127, "\u0e21\u0e31\u0e19\u0e44\u0e21\u0e48\u0e44\u0e14\u0e49": 3128, "\u7537\u5b69": 3129, "\u2581\u5982\u679c": 3130, "\u0e40\u0e18\u0e14\u0e40\u0e18": 3131, "\u95dc": 3132, "\u7fa4": 3133, "\u0e02\u0e2d\u0e1a\u0e04\u0e38\u0e13\u0e21\u0e32\u0e01": 3134, "\u0e17\u0e19": 3135, "\u0e41\u0e19\u0e48\u0e43\u0e08\u0e27\u0e48\u0e32": 3136, "\u2581\u597d\u5417": 3137, "\u0e41\u0e16\u0e27": 3138, "\u0e2b\u0e25\u0e2d\u0e01": 3139, "\u66fe\u7ecf": 3140, "\u9547": 3141, "\u6765\u8bf4": 3142, "\u2581\u56e0\u4e3a": 3143, "\u535a": 3144, "\u0e40\u0e40": 3145, "\u4ec0\u4e48\u610f\u601d": 3146, "\u653f\u5e9c": 3147, "\u2581O": 3148, "\u4e00\u5b9a\u8981": 3149, "\u725b": 3150, "\u5728\u90a3": 3151, "\u2581way": 3152, "op": 3153, "\u0e2e\u0e34": 3154, "\u0e01\u0e29\u0e31\u0e15\u0e23\u0e34\u0e22\u0e4c": 3155, "\u0e40\u0e0a\u0e47\u0e04": 3156, "\u0e01\u0e25\u0e48\u0e2d\u0e07": 3157, "\u6211\u770b": 3158, "\u89c1\u5230": 3159, "\u8fc7\u4e86": 3160, "\u83dc": 3161, "25": 3162, "\u0e09\u0e31\u0e19\u0e40\u0e2d\u0e07": 3163, "\u6218\u4e89": 3164, "\u4f24\u5bb3": 3165, "\u0e19\u0e36\u0e01": 3166, "\u0e01\u0e48\u0e2d": 3167, "\u0e2b\u0e19\u0e35\u0e44\u0e1b": 3168, "\u901a\u8fc7": 3169, "\u8981\u6c42": 3170, "we": 3171, "\u2581our": 3172, "\u5531": 3173, "\u8f93": 3174, "\u68c0\u67e5": 3175, "\u5b8c\u4e86": 3176, "\u96be\u9053": 3177, "\u5446": 3178, "\u0e44\u0e1b\u0e16\u0e36\u0e07": 3179, "\u0e02\u0e2d\u0e23\u0e49\u0e2d\u0e07": 3180, "\u5404": 3181, "\u0e38\u0e48\u0e21": 3182, "\u51fa\u4e86": 3183, "\u0e40\u0e23\u0e32\u0e44\u0e21\u0e48": 3184, "\u53bb\u5427": 3185, "\u4e1a": 3186, "\u8db3": 3187, "\u6709\u4e00\u4e2a": 3188, "\u7684\u5b69\u5b50": 3189, "\u0e2d\u0e30\u0e44\u0e23\u0e40\u0e25\u0e22": 3190, "\u0e43\u0e2b\u0e49\u0e21\u0e31\u0e19": 3191, "\u4e4b\u95f4": 3192, "\u0e41\u0e19\u0e48\u0e43\u0e08": 3193, "\u6c49": 3194, "\u0e40\u0e2b\u0e22\u0e37\u0e48\u0e2d": 3195, "\u597d\u554a": 3196, "\u0e48\u0e21": 3197, "\u9a97": 3198, "\u0e40\u0e18\u0e12": 3199, "\u6709\u6ca1\u6709": 3200, "\u7406\u89e3": 3201, "\u54e5\u54e5": 3202, "\u2581but": 3203, "\u0e09\u0e31\u0e19\u0e1a\u0e2d\u0e01": 3204, "\u2581come": 3205, "\u7238": 3206, "\u0e25\u0e21": 3207, "\u0e1f\u0e31\u0e19": 3208, "\u8fd9\u4e8b": 3209, "\u2581\u0e2b\u0e22\u0e38\u0e14": 3210, "\u0e1e\u0e25": 3211, "\u0e2a\u0e21": 3212, "ta": 3213, "\u8349": 3214, "\u79c1": 3215, "\u9000": 3216, "\u9501": 3217, "\u0e04\u0e38\u0e13\u0e17\u0e4d\u0e32": 3218, "\u0e22\u0e32\u0e27": 3219, "\u2581ma": 3220, "\u0e40\u0e02\u0e15": 3221, "\u5f0f": 3222, "\u0e1c\u0e21\u0e2d\u0e22\u0e32\u0e01": 3223, "\u4fe1\u4efb": 3224, "\u2581\u8bf7": 3225, "\u54ed": 3226, "\u0e01\u0e25\u0e49\u0e2d\u0e07": 3227, "\u5927\u6982": 3228, "\u4ea7": 3229, "\u56fd\u5bb6": 3230, "\u0e40\u0e17\u0e48\u0e32\u0e17\u0e35\u0e48": 3231, "\u2581off": 3232, "\u5176\u4e2d": 3233, "\u0e08\u0e32\u0e01\u0e01\u0e32\u0e23": 3234, "ng": 3235, "\u5c31\u8fd9\u6837": 3236, "\u0e40\u0e2d\u0e25": 3237, "\u0e40\u0e2a\u0e35\u0e48\u0e22\u0e07": 3238, "\u0e44\u0e21\u0e48\u0e01\u0e35\u0e48": 3239, "\u6c83": 3240, "\u0e2d\u0e4b\u0e2d": 3241, "\u0e44\u0e1b\u0e40\u0e16\u0e2d\u0e30": 3242, "\u0e15\u0e36\u0e01": 3243, "\u4e0d\u518d": 3244, "\u5b58": 3245, "\u8ba8\u538c": 3246, "\u0e1c\u0e35": 3247, "\u8b1d\u8b1d": 3248, "\u52a1": 3249, "\u0e21\u0e35\u0e0a\u0e35\u0e27\u0e34\u0e15": 3250, "\u8bd5": 3251, "\u7ebd\u7ea6": 3252, "\u90a3\u513f": 3253, "\u0e21\u0e32\u0e40\u0e23\u0e47\u0e27": 3254, "\u571f": 3255, "\u0e44\u0e21\u0e48\u0e44\u0e14\u0e49\u0e2b\u0e23\u0e2d\u0e01": 3256, "\u0e21\u0e37\u0e14": 3257, "\u6e90": 3258, "\u0e44\u0e21\u0e40\u0e04\u0e34\u0e25": 3259, "\u0e1a\u0e32\u0e07\u0e04\u0e23\u0e31\u0e49\u0e07": 3260, "\u0e02\u0e19": 3261, "\u6545\u4e8b": 3262, "\u628a\u5979": 3263, "\u7167\u987e": 3264, "\u77e5\u9053\u4e86": 3265, "\u2581co": 3266, "\u6eda": 3267, "use": 3268, "\u5267": 3269, "\u0e17\u0e23\u0e07": 3270, "ack": 3271, "\u6211\u4eec\u9700\u8981": 3272, "\u8fdb\u5165": 3273, "\u6642\u9593": 3274, "\u2581\u662f\u554a": 3275, "\u0e42\u0e23\u0e04": 3276, "\u0e2b\u0e39": 3277, "\u7b2c\u4e8c": 3278, "\u99ac": 3279, "\u5e74\u524d": 3280, "\u570b": 3281, "\u624d\u662f": 3282, "\u53e6\u4e00": 3283, "\u8d28": 3284, "\u0e41\u0e15\u0e48\u0e04\u0e38\u0e13": 3285, "\u0e15\u0e49\u0e2d\u0e07\u0e21\u0e35": 3286, "\u8d35": 3287, "\u0e40\u0e18\u0e05": 3288, "\u0e1e\u0e34\u0e2a\u0e39\u0e08\u0e19\u0e4c": 3289, "ell": 3290, "\u0e40\u0e23\u0e32\u0e21\u0e32": 3291, "\u0e41\u0e27\u0e21\u0e44\u0e1e\u0e23\u0e4c": 3292, "\u6839\u672c": 3293, "\u0e04\u0e2d\u0e19": 3294, "\u0e40\u0e18\u0e03": 3295, "\u0e17\u0e23\u0e32\u0e1a": 3296, "\u8f7b": 3297, "\u8bc1\u660e": 3298, "\u2581\u0e09\u0e31\u0e19\u0e44\u0e21\u0e48": 3299, "\u5f52": 3300, "\u7684\u5417": 3301, "\u2581\u4e0d\u8fc7": 3302, "\u2581J": 3303, "\u7f51": 3304, "\u0e40\u0e1b\u0e47\u0e19\u0e44\u0e07": 3305, "\u0e04\u0e2d\u0e23\u0e4c": 3306, "\u2581H": 3307, "\u0e22\u0e31\u0e07\u0e44\u0e21\u0e48\u0e44\u0e14\u0e49": 3308, "\u6765\u8fd9\u91cc": 3309, "\u4e0a\u4e86": 3310, "\u8fd8\u80fd": 3311, "\u56de\u7b54": 3312, "\u70c2": 3313, "\u0e04\u0e48\u0e2d\u0e19\u0e02\u0e49\u0e32\u0e07": 3314, "\u0e42\u0e23\u0e07": 3315, "\u0e04\u0e19\u0e19\u0e36\u0e07": 3316, "\u9e1f": 3317, "\u0e04\u0e49\u0e19\u0e2b\u0e32": 3318, "\u8499": 3319, "\u0e42\u0e23\u0e07\u0e41\u0e23\u0e21": 3320, "\u2581\u0e31": 3321, "ive": 3322, "\u6211\u731c": 3323, "\u67b6": 3324, "\u2581how": 3325, "\u6c99": 3326, "\u6cbb": 3327, "\u5e15": 3328, "\u0e2b\u0e34\u0e27": 3329, "\u0e47\u0e01": 3330, "\u0e1c\u0e21\u0e44\u0e14\u0e49": 3331, "\u2581\u4e3a\u4ec0\u4e48": 3332, "\u0e0a\u0e48\u0e27\u0e22\u0e09\u0e31\u0e19": 3333, "\u4e0d\u5728": 3334, "\u0e40\u0e25\u0e27\u0e23\u0e49\u0e32\u0e22": 3335, "\u0e1e\u0e22\u0e32\u0e22\u0e32\u0e21\u0e08\u0e30": 3336, "\u25818": 3337, "\u5347": 3338, "\u0e2b\u0e21\u0e14\u0e41\u0e25\u0e49\u0e27": 3339, "\u9322": 3340, "\u2581make": 3341, "\u0e1f\u0e32": 3342, "\u653e\u5f03": 3343, "\u0e20": 3344, "\u0e01\u0e31\u0e1a\u0e01\u0e32\u0e23": 3345, "\u8111": 3346, "\u0e40\u0e1b\u0e34\u0e14\u0e1b\u0e23\u0e30\u0e15\u0e39": 3347, "\u0e23\u0e36\u0e44\u0e07": 3348, "\u0e40\u0e23\u0e19": 3349, "\u620f": 3350, "\u6cb3": 3351, "\u6bd4\u8d5b": 3352, "\u63a2": 3353, "FF": 3354, "\u2581\u6ca1\u6709": 3355, "\u0e17\u0e48\u0e32": 3356, "\u0e14\u0e39\u0e40\u0e2b\u0e21\u0e37\u0e2d\u0e19\u0e27\u0e48\u0e32": 3357, "\u0e27\u0e2d": 3358, "\u4e00\u6a23": 3359, "\u70b8": 3360, "\u5c4b": 3361, "\u0e25\u0e25\u0e4c": 3362, "\u5f88\u62b1\u6b49": 3363, "\u8fd9\u4ef6\u4e8b": 3364, "\u0e09\u0e31\u0e19\u0e08\u0e30\u0e44\u0e1b": 3365, "\u591a\u4e45": 3366, "\u2581\u0e40\u0e2d": 3367, "\u5e95": 3368, "\u5438": 3369, "\u533b\u9662": 3370, "\u0e40\u0e25\u0e19": 3371, "\u7ea7": 3372, "\u73b0": 3373, "\u540e\u9762": 3374, "\u0e0a\u0e34\u0e49\u0e19": 3375, "\u81ed": 3376, "\u5bf9\u4e86": 3377, "\u81f3": 3378, "\u679c": 3379, "\u534e": 3380, "\u6211\u771f\u7684": 3381, "age": 3382, "\u0e14\u0e23": 3383, "\u6c23": 3384, "\u2581\u0e44\u0e21\u0e48\u0e40\u0e1b\u0e47\u0e19\u0e44\u0e23": 3385, "\u0e21\u0e31\u0e19\u0e44\u0e14\u0e49": 3386, "\u82f1\u96c4": 3387, "\u7cdf\u7cd5": 3388, "\u0e40\u0e23\u0e35\u0e22\u0e19\u0e23\u0e39\u0e49": 3389, "\u0e2d\u0e32\u0e01\u0e32\u0e23": 3390, "\u0e09\u0e31\u0e19\u0e40\u0e04\u0e22": 3391, "\u0e44\u0e21\u0e48\u0e19\u0e30": 3392, "\u0e40\u0e01\u0e32\u0e30": 3393, "\u51b3": 3394, "\u0e22\u0e36\u0e14": 3395, "\u5f1f\u5f1f": 3396, "\u8ba9\u4ed6\u4eec": 3397, "\u0e2b\u0e19\u0e36\u0e48\u0e07\u0e43\u0e19": 3398, "\u4e5f\u6ca1": 3399, "\u523b": 3400, "\u62b1": 3401, "\u649e": 3402, "ation": 3403, "\u0e21\u0e2d\u0e1a": 3404, "\u5feb\u8d70": 3405, "co": 3406, "\u0646": 3407, "\u2581tell": 3408, "\u0e02\u0e2d\u0e1a\u0e04\u0e38\u0e13\u0e04\u0e23\u0e31\u0e1a": 3409, "\u7a81\u7136": 3410, "\u0e17\u0e2d\u0e07": 3411, "\u5907": 3412, "\u0e44\u0e21\u0e48\u0e40\u0e2d\u0e32\u0e19\u0e48\u0e32": 3413, "\u2581had": 3414, "\u5e72\u7684": 3415, "\u641e\u5b9a": 3416, "ha": 3417, "\u0e08\u0e14\u0e2b\u0e21\u0e32\u0e22": 3418, "\u0e40\u0e1b\u0e47\u0e19\u0e40\u0e14\u0e47\u0e01": 3419, "\u0e2b\u0e23\u0e37\u0e2d\u0e27\u0e48\u0e32": 3420, "\u5956": 3421, "\u7d20": 3422, "\u0e40\u0e02\u0e32\u0e44\u0e1b": 3423, "\u0e02\u0e2d\u0e07\u0e15\u0e31\u0e27\u0e40\u0e2d\u0e07": 3424, "\u6740\u6b7b": 3425, "\u0e15\u0e49\u0e2d\u0e07\u0e01\u0e32\u0e23\u0e17\u0e35\u0e48\u0e08\u0e30": 3426, "\u0e2d\u0e22": 3427, "\u591a\u4e86": 3428, "\u53eb\u6211": 3429, "\u958b\u59cb": 3430, "\u624b\u673a": 3431, "\u7206": 3432, "\u0e23\u0e21": 3433, "\u0e08\u0e39\u0e1a": 3434, "\u2581\u4f60\u662f": 3435, "\u6211\u5f88\u62b1\u6b49": 3436, "\u0e1c\u0e21\u0e44\u0e21\u0e48\u0e23\u0e39\u0e49": 3437, "\u2581th": 3438, "\u0e23\u0e2b\u0e31\u0e2a": 3439, "\u5c01": 3440, "\u0e40\u0e14\u0e2d\u0e30": 3441, "\u5168\u90e8": 3442, "\u0e08\u0e30\u0e1e\u0e39\u0e14": 3443, "That": 3444, "\u76d1\u72f1": 3445, "\u0e19\u0e34\u0e49\u0e27": 3446, "\u2581g": 3447, "\u0e15\u0e49\u0e2d\u0e07\u0e01\u0e32\u0e23\u0e43\u0e2b\u0e49": 3448, "\u2581Yeah": 3449, "\u0e40\u0e40\u0e15\u0e48": 3450, "\u0e10\u0e32\u0e19": 3451, "\u56de\u6765\u4e86": 3452, "\u0e27\u0e32\u0e14": 3453, "\u0e44\u0e21\u0e48\u0e40\u0e02\u0e49\u0e32\u0e43\u0e08": 3454, "ine": 3455, "\u501f": 3456, "\u730e": 3457, "\u771f\u76f8": 3458, "\u0e49\u0e27": 3459, "\u0e02\u0e49\u0e32\u0e07\u0e19\u0e2d\u0e01": 3460, "\u2581\u0e04\u0e38\u0e13\u0e08\u0e30": 3461, "\u0e09\u0e31\u0e19\u0e02\u0e2d": 3462, "\u0e29": 3463, "\u59d1\u5a18": 3464, "\u0e41\u0e21\u0e48\u0e07": 3465, "\u0e23\u0e1a": 3466, "\u771f\u6b63\u7684": 3467, "\u662f\u4ed6": 3468, "\u0e01\u0e23": 3469, "\u7684\u5de5\u4f5c": 3470, "\u5192": 3471, "\u7b49\u7740": 3472, "\u57ce\u5e02": 3473, "\u0e17\u0e38\u0e01\u0e46": 3474, "\u0e19\u0e34\u0e04": 3475, "\u4ef7": 3476, "\u529e\u516c\u5ba4": 3477, "\u0e21\u0e32\u0e2a\u0e34": 3478, "\u0e21\u0e35\u0e42\u0e2d\u0e01\u0e32\u0e2a": 3479, "\u6597": 3480, "\u0e1b\u0e49\u0e2d\u0e07\u0e01\u0e31\u0e19": 3481, "\u5c07": 3482, "\u0e40\u0e2b\u0e2d\u0e30": 3483, "\u7136": 3484, "\u9032": 3485, "\u2581\u0e43\u0e04\u0e23": 3486, "\u96c5": 3487, "\u0e17\u0e31\u0e49\u0e07\u0e19\u0e31\u0e49\u0e19": 3488, "\u9664": 3489, "\u6211\u4e5f\u662f": 3490, "\u5927\u7684": 3491, "\u554f": 3492, "\u0e39": 3493, "\u771f\u7684\u5417": 3494, "\u0e25\u0e14": 3495, "\u6295": 3496, "\u0e2d\u0e48\u0e2d\u0e19": 3497, "\u901f": 3498, "\u0e09\u0e31\u0e19\u0e22\u0e31\u0e07": 3499, "\u4f60\u60f3\u8981": 3500, "\u0e2b\u0e31\u0e19": 3501, "\u0e04\u0e27\u0e32\u0e21\u0e25\u0e31\u0e1a": 3502, "\u5c31\u53ef\u4ee5": 3503, "\u4f1a\u6709": 3504, "\u0e44\u0e21\u0e48\u0e43\u0e2b\u0e49": 3505, "\u0e42\u0e17": 3506, "\u90fd\u6709": 3507, "\u0e41\u0e25\u0e49\u0e27\u0e44\u0e07": 3508, "\u5e93": 3509, "\u7259": 3510, "\u0e25\u0e1a": 3511, "\u671d": 3512, "\u008a": 3513, "\u0e0b\u0e31": 3514, "\u5546": 3515, "\u5883": 3516, "\u6b62": 3517, "\u521a\u521a": 3518, "\u6bcd\u4eb2": 3519, "\u0e43\u0e2b\u0e49\u0e19\u0e32\u0e22": 3520, "\u0e1e\u0e35": 3521, "\u0e01\u0e27\u0e48\u0e32\u0e19\u0e35\u0e49": 3522, "\u5217": 3523, "\u526f": 3524, "\u6d1e": 3525, "\u70df": 3526, "\u6c92\u4e8b": 3527, "\u0e17\u0e35\u0e48\u0e19\u0e32\u0e22": 3528, "\u0e40\u0e14\u0e17": 3529, "\u0e23\u0e38": 3530, "\u5916\u9762": 3531, "\u8d4c": 3532, "\u54e1": 3533, "\u2581down": 3534, "\u665a\u5b89": 3535, "\u0e01\u0e49\u0e19": 3536, "\u600e\u4e48\u4f1a": 3537, "\u0e02\u0e2d\u0e07\u0e02\u0e27\u0e31\u0e0d": 3538, "\"-": 3539, "\u0e40\u0e18\u0e2d\u0e44\u0e1b": 3540, "\u0e1c\u0e21\u0e01\u0e4d\u0e32\u0e25\u0e31\u0e07": 3541, "\u5834": 3542, "\u0e02\u0e31\u0e07": 3543, "\u0e2b\u0e25\u0e32\u0e19": 3544, "\u0e1c\u0e21\u0e02\u0e2d": 3545, "\u0e41\u0e2a": 3546, "\u0e1c\u0e21\u0e02\u0e2d\u0e42\u0e17\u0e29": 3547, "\u0e40\u0e19\u0e35\u0e22": 3548, "\u57c3": 3549, "\u662f\u500b": 3550, "\u90fd\u6ca1": 3551, "\u0e01\u0e47\u0e40\u0e1b\u0e47\u0e19": 3552, "\u2581\u0e40\u0e23\u0e37\u0e48\u0e2d\u0e07": 3553, "\u529e\u6cd5": 3554, "\u0e2b\u0e21\u0e32\u0e22\u0e04\u0e27\u0e32\u0e21\u0e27\u0e48\u0e32\u0e44\u0e07": 3555, "\u5179": 3556, "\u0e17\u0e35\u0e48\u0e40\u0e1b\u0e47\u0e19": 3557, "\u4e22": 3558, "\u4e01": 3559, "\u4f60\u4e0d\u4f1a": 3560, "\u0e44\u0e27\u0e49\u0e43\u0e08": 3561, "\u0e01\u0e31\u0e14": 3562, "\u0e40\u0e19\u0e2d\u0e23\u0e4c": 3563, "\u0e41\u0e01\u0e49\u0e27": 3564, "\u0e25\u0e49\u0e21": 3565, "\u2581\u5bf9\u5427": 3566, "\u0e41\u0e15\u0e48\u0e27\u0e48\u0e32": 3567, "\u0e41\u0e0a": 3568, "33": 3569, "\u5bb6\u65cf": 3570, "\u4f60\u6765": 3571, "\u8fd9\u662f\u4ec0\u4e48": 3572, "\u5f00\u5fc3": 3573, "\u0e17\u0e4d\u0e32\u0e15\u0e32\u0e21": 3574, "\u0e40\u0e1a\u0e19": 3575, "\u4e0d\u61c2": 3576, "\u0e40\u0e18\u0e0a": 3577, "\u0e17\u0e4d\u0e32\u0e41\u0e1a\u0e1a\u0e19\u0e31\u0e49\u0e19": 3578, "\u2581\u7b49\u7b49": 3579, "\u79d2": 3580, ";": 3581, "\u0e14\u0e35\u0e43\u0e08\u0e17\u0e35\u0e48": 3582, "\u0e40\u0e04\u0e23\u0e37\u0e48\u0e2d\u0e07\u0e1a\u0e34\u0e19": 3583, "\u2581didn": 3584, "\u0e02\u0e2d\u0e07\u0e01\u0e32\u0e23": 3585, "\u903c": 3586, "\u0e1e\u0e37\u0e49\u0e19": 3587, "\u522b\u62c5\u5fc3": 3588, "\u4e2d\u5fc3": 3589, "\u0e1e\u0e37\u0e49\u0e19\u0e17\u0e35\u0e48": 3590, "\u653e\u4e0b": 3591, "\u4e0d\u9700\u8981": 3592, "\u0e41\u0e15\u0e48\u0e16\u0e49\u0e32": 3593, "\u65bc": 3594, "\u009c": 3595, "\u7bb1": 3596, "\u6cf0": 3597, "\u5bb6\u5ead": 3598, "\u4e3b\u610f": 3599, "\u0e15\u0e25\u0e2d\u0e14\u0e40\u0e27\u0e25\u0e32": 3600, "\u2581Oh": 3601, "\u0e41\u0e17": 3602, "\u0e44\u0e21\u0e48\u0e15\u0e49\u0e2d\u0e07\u0e2b\u0e48\u0e27\u0e07": 3603, "\u6211\u8ba4\u4e3a": 3604, "\u0e2b\u0e34\u0e19": 3605, "But": 3606, "\u75db\u82e6": 3607, "\u7ec8\u4e8e": 3608, "\u4e0d\u592a": 3609, "\u0e43\u0e0a\u0e48\u0e41\u0e25\u0e49\u0e27": 3610, "\u4e5d": 3611, "\u0e40\u0e1b\u0e47\u0e19\u0e41\u0e04\u0e48": 3612, "\u0e40\u0e23\u0e37\u0e48\u0e2d\u0e07\u0e2d\u0e30\u0e44\u0e23": 3613, "\u6211\u7231\u4f60": 3614, "\u0e25\u0e49\u0e2d\u0e40\u0e25\u0e48\u0e19": 3615, "\u0e40\u0e21\u0e2d\u0e23\u0e4c": 3616, "11": 3617, "\u2581\u4f60\u77e5\u9053": 3618, "\u0e14\u0e49\u0e27\u0e22\u0e0b\u0e49\u0e4d\u0e32": 3619, "\u6211\u81ea\u5df1": 3620, "\u8a18": 3621, "\u0e40\u0e17\u0e1e": 3622, "\u5c38\u4f53": 3623, "\u0e02\u0e49\u0e2d\u0e04\u0e27\u0e32\u0e21": 3624, "\u0e01\u0e0e": 3625, "\u0e1f\u0e31\u0e07\u0e14\u0e39": 3626, "\u0e2d\u0e2d\u0e01\u0e44\u0e1b\u0e08\u0e32\u0e01": 3627, "\u8003\u8651": 3628, "\u0e41\u0e01\u0e49": 3629, "\u9876": 3630, "\u0e2d\u0e40\u0e21\u0e23\u0e34\u0e01\u0e32": 3631, "\u603b\u7edf": 3632, "ee": 3633, "\u0e40\u0e19\u0e35\u0e48\u0e22\u0e19\u0e30": 3634, "\u8ba9\u5979": 3635, "Sam": 3636, "\u4f5c\u4e3a": 3637, "\u0e2b\u0e25\u0e31\u0e07\u0e08\u0e32\u0e01\u0e17\u0e35\u0e48": 3638, "\u0e40\u0e2b\u0e25\u0e49\u0e32": 3639, "ear": 3640, "\u601d": 3641, "\u2581con": 3642, "pp": 3643, "\u6211\u4eec\u8d70": 3644, "\u0e2b\u0e19\u0e49\u0e32\u0e17\u0e35\u0e48": 3645, "\u0e40\u0e2a\u0e19\u0e2d": 3646, "\u2581\u0e2d\u0e30\u0e44\u0e23\u0e19\u0e30": 3647, "\u0e40\u0e2a\u0e37\u0e49\u0e2d\u0e1c\u0e49\u0e32": 3648, "\u6211\u5c31\u662f": 3649, "\u5b69\u5b50\u4eec": 3650, "13": 3651, "\u0e04\u0e38\u0e13\u0e44\u0e1b": 3652, "\u0e2d\u0e34\u0e19": 3653, "\u5973\u513f": 3654, "\u0e2a\u0e40\u0e15": 3655, "\u2581\u0e15\u0e2d\u0e19": 3656, "\u0e40\u0e14\u0e35\u0e4b\u0e22\u0e27\u0e01\u0e48\u0e2d\u0e19": 3657, "\u66ff": 3658, "\u0e08\u0e4d\u0e32\u0e44\u0e14\u0e49": 3659, "\u0e17\u0e38\u0e01\u0e27\u0e31\u0e19": 3660, "\u0e17\u0e35\u0e48\u0e15\u0e49\u0e2d\u0e07": 3661, "\u0e15\u0e49\u0e2d\u0e07\u0e43\u0e0a\u0e49": 3662, "\u0e16\u0e49\u0e32\u0e19\u0e32\u0e22": 3663, "\u543b": 3664, "\u0e1a\u0e31\u0e15\u0e23": 3665, "\u0e19\u0e48\u0e32\u0e01\u0e25\u0e31\u0e27": 3666, "\u0e40\u0e02\u0e32\u0e01\u0e47": 3667, "\u0e1d\u0e31\u0e07": 3668, "\u0e20\u0e32\u0e23\u0e01\u0e34\u0e08": 3669, "\u0e23\u0e16\u0e44\u0e1f": 3670, "\u0e41\u0e08": 3671, "\u7535\u5f71": 3672, "\u4f60\u8fd9": 3673, "\u671b": 3674, "\u5bfc": 3675, "\u90a3\u9ebc": 3676, "per": 3677, "\u0e2b\u0e19": 3678, "\u0e40\u0e0a\u0e48\u0e19\u0e01\u0e31\u0e19": 3679, "\u0e47\u0e19": 3680, "\u0e41\u0e1e\u0e49": 3681, "\u4e39": 3682, "\u2581look": 3683, "\u5f02": 3684, "\u0e17\u0e35\u0e48\u0e14\u0e35\u0e17\u0e35\u0e48\u0e2a\u0e38\u0e14": 3685, "\u0e08\u0e30\u0e06\u0e48\u0e32": 3686, "\u0e22\u0e32\u0e22": 3687, "\u0e27\u0e48\u0e32\u0e07": 3688, "\u2581or": 3689, "\u0e2d\u0e22\u0e48\u0e32\u0e21\u0e32": 3690, "\u6ce8": 3691, "\u0e2a\u0e38": 3692, "\u0e21\u0e36\u0e07": 3693, "\u8fd8\u6d3b\u7740": 3694, "\u60f9": 3695, "\u0e04\u0e23\u0e31\u0e49\u0e07\u0e41\u0e23\u0e01": 3696, "\u0e40\u0e18\u0e07\u0e40\u0e19": 3697, "\u7d66\u4f60": 3698, "\u0e08\u0e30\u0e0a\u0e48\u0e27\u0e22": 3699, "\u8a71": 3700, "\u6240\u6709\u4eba": 3701, "\u0e0a\u0e31\u0e14\u0e40\u0e08\u0e19": 3702, "\u5f88\u96be": 3703, "\u0e15\u0e23\u0e07\u0e44\u0e2b\u0e19": 3704, "\u0e14\u0e35\u0e43\u0e08": 3705, "\u0e40\u0e2b\u0e23\u0e35\u0e22\u0e0d": 3706, "\u54ea\u513f": 3707, "\u0e19\u0e35\u0e48\u0e44\u0e21\u0e48\u0e43\u0e0a\u0e48": 3708, "\u0e41\u0e25\u0e19\u0e14\u0e4c": 3709, "\u514b\u65af": 3710, "\u4e0d\u540c": 3711, "\u0e0a\u0e31\u0e48\u0e27": 3712, "\u0e28\u0e31\u0e15\u0e23\u0e39": 3713, "\u0e1c\u0e21\u0e40\u0e1b\u0e47\u0e19": 3714, "ep": 3715, "\u8bf4\u4e86": 3716, "\u9c81": 3717, "\u0e21\u0e35\u0e41\u0e15\u0e48": 3718, "\u0e41\u0e0b": 3719, "\u0e27\u0e32\u0e07\u0e41\u0e1c\u0e19": 3720, "\u8ddf\u4ed6": 3721, "\u72c2": 3722, "\u0e25\u0e07\u0e21\u0e32": 3723, "\u0e21\u0e2d\u0e19": 3724, "\u7f6e": 3725, "\u0e04\u0e38\u0e13\u0e23\u0e39\u0e49\u0e27\u0e48\u0e32": 3726, "um": 3727, "\u672a\u6765": 3728, "\u0e40\u0e1b\u0e47\u0e19\u0e17\u0e35\u0e48": 3729, "\u56de\u4f86": 3730, "\u0e40\u0e02\u0e32\u0e44\u0e14\u0e49": 3731, "\u6d3e\u5bf9": 3732, "\u0e2b\u0e21\u0e32\u0e22": 3733, "\u0e21\u0e32\u0e08\u0e32\u0e01\u0e44\u0e2b\u0e19": 3734, "\u0e2a\u0e27\u0e21": 3735, "\u0e22\u0e37\u0e19\u0e22\u0e31\u0e19": 3736, "\u0e21\u0e32\u0e40\u0e16\u0e2d\u0e30": 3737, "\u0e40\u0e27\u0e19": 3738, "\u623f\u95f4": 3739, "\u0e16\u0e2d\u0e22": 3740, "\u4f60\u4ee5\u4e3a": 3741, "\u9047\u5230": 3742, "\u0e08\u0e35\u0e19": 3743, "\u95fb": 3744, "\u5496\u5561": 3745, "\u4e3a\u4f55": 3746, "\u626f": 3747, "\u0e41\u0e25\u0e30\u0e01\u0e47": 3748, "\u5b89\u6392": 3749, "\u0e41\u0e25\u0e49\u0e27\u0e04\u0e38\u0e13": 3750, "\u9aa8": 3751, "\u0e40\u0e2e\u0e49\u0e22": 3752, "\u7ed3\u5a5a": 3753, "\u2581\u5c31\u662f": 3754, "\u6b7b\u7684": 3755, "\u0e44\u0e21\u0e48\u0e15\u0e49\u0e2d\u0e07\u0e01\u0e32\u0e23": 3756, "\u2581over": 3757, "\u653e\u5728": 3758, "\u0e01\u0e31\u0e19\u0e40\u0e16\u0e2d\u0e30": 3759, "\u5143": 3760, "\u2581\u0e43\u0e0a\u0e48\u0e44\u0e2b\u0e21": 3761, "\u2581little": 3762, "\u0e01\u0e32\u0e41\u0e1f": 3763, "\u0e19\u0e49\u0e2d\u0e07\u0e2a\u0e32\u0e27": 3764, "\u0e14\u0e49\u0e32": 3765, "\u822a": 3766, "\u0e40\u0e04\u0e19": 3767, "\u5728\u4e4e": 3768, "\u0e40\u0e1b\u0e47\u0e19\u0e04\u0e19\u0e17\u0e35\u0e48": 3769, "\u2581D": 3770, "\u6fc0": 3771, "\u0e1b\u0e48\u0e27\u0e22": 3772, "\u0e07\u0e35\u0e48\u0e40\u0e07\u0e48\u0e32": 3773, "\u4e5f\u4f1a": 3774, "\u8bc1\u636e": 3775, "\u6162": 3776, "ny": 3777, "\u554f\u984c": 3778, "\u2581man": 3779, "\u0e17\u0e4d\u0e32\u0e43\u0e2b\u0e49\u0e04\u0e38\u0e13": 3780, "\u0e42\u0e01\u0e49": 3781, "\u2581thing": 3782, "\u6211\u5e0c\u671b": 3783, "\u0e40\u0e18\u0e05\u0e40\u0e19": 3784, "\u9177": 3785, "\u6765\u81ea": 3786, "\u0e21\u0e39": 3787, "\u0e2a\u0e27\u0e19": 3788, "\u0e08\u0e2d": 3789, "\u521d": 3790, "\u5bb9": 3791, "\u6697": 3792, "Z": 3793, "66": 3794, "\u0e2d\u0e2d\u0e01\u0e21\u0e32\u0e08\u0e32\u0e01": 3795, "\u0e28\u0e32\u0e25": 3796, "\u4ef6\u4e8b": 3797, "\u2581r": 3798, "\u0e14\u0e32\u0e1a": 3799, "\u0e40\u0e08\u0e04": 3800, "\u0e40\u0e23\u0e32\u0e44\u0e1b": 3801, "\u0e1b\u0e34": 3802, "80": 3803, "\u6211\u53ea": 3804, "\u0e40\u0e21\u0e37\u0e48\u0e2d\u0e04\u0e37\u0e19": 3805, "\u0e01\u0e31\u0e1a\u0e40\u0e23\u0e32": 3806, "\u0e08\u0e30\u0e1a\u0e2d\u0e01": 3807, "\u8ba1": 3808, "\u0e40\u0e02\u0e32\u0e21\u0e35": 3809, "67": 3810, "\u0e23\u0e31": 3811, "\u4ed6\u5c31": 3812, "\u0e02\u0e19\u0e32\u0e14": 3813, "\u0e02\u0e36\u0e49\u0e19\u0e44\u0e1b": 3814, "\u89c2": 3815, "\u732b": 3816, "\u997f": 3817, "\u7406\u7531": 3818, "\u0e04\u0e48\u0e2d\u0e22": 3819, "\u0e44\u0e14\u0e49\u0e27\u0e48\u0e32": 3820, "\u60f3\u60f3": 3821, "\u89d2": 3822, "\u0e17\u0e38\u0e01\u0e2d\u0e22\u0e48\u0e32\u0e07\u0e17\u0e35\u0e48": 3823, "\u0e41\u0e1c\u0e25": 3824, "\u5efa": 3825, "ast": 3826, "\u53ef\u7231": 3827, "\u0e2b\u0e19\u0e48\u0e2d\u0e22\u0e2a\u0e34": 3828, "\u0e1b\u0e0f\u0e34\u0e40\u0e2a\u0e18": 3829, "\u2581when": 3830, "\u0e16\u0e38\u0e07": 3831, "\u7c7b": 3832, "\u2581\u0e09\u0e31\u0e19\u0e23\u0e39\u0e49": 3833, "\u0e17\u0e35\u0e48\u0e40\u0e2b\u0e25\u0e37\u0e2d": 3834, "\u522b\u7684": 3835, "bu": 3836, "\u0e04\u0e49\u0e19": 3837, "\u62d6": 3838, "\u52a0\u6cb9": 3839, "\u94f6\u884c": 3840, "\u2581love": 3841, "\u75af\u4e86": 3842, "\u0e27\u0e48\u0e32\u0e17\u0e4d\u0e32\u0e44\u0e21": 3843, "\u2581\u800c\u4e14": 3844, "\u662f\u4f60\u7684": 3845, "\u0e27\u0e34\u0e18\u0e35\u0e17\u0e35\u0e48": 3846, "\u0e09\u0e31\u0e19\u0e23\u0e39\u0e49\u0e2a\u0e36\u0e01": 3847, "\u0e2a\u0e32\u0e1a\u0e32\u0e19": 3848, "\u8001\u5144": 3849, "\u0e31\u0e19": 3850, "CE": 3851, "\u2581by": 3852, "\u2581mean": 3853, "\u6d4b": 3854, "\u964d": 3855, "\u2581something": 3856, "\u0e48\u0e2d\u0e19": 3857, "\u2581\u0e2e": 3858, "\u0e19\u0e32\u0e22\u0e01\u0e47": 3859, "\u5e26\u7740": 3860, "\u90a3\u662f\u4ec0\u4e48": 3861, "\u90a3\u5c31\u662f": 3862, "\u6211\u60f3\u8981": 3863, "di": 3864, "\u7968": 3865, "\u7b80\u5355": 3866, "\u5988\u7684": 3867, "\u0e44\u0e1b\u0e22\u0e31\u0e07": 3868, "\u7cdf": 3869, "\u89c9": 3870, "\u0e43\u0e04\u0e23\u0e08\u0e30": 3871, "\u0e44\u0e21\u0e48\u0e40\u0e2d\u0e32": 3872, "\u9999": 3873, "\u62bd": 3874, "\u0e23\u0e48\u0e32\u0e07\u0e01\u0e32\u0e22": 3875, "\u6628\u5929": 3876, "\u0e2a\u0e30": 3877, "\u0e42\u0e08\u0e21\u0e15\u0e35": 3878, "\u0e40\u0e2d\u0e32\u0e40\u0e25\u0e22": 3879, "\u0e17\u0e35\u0e48\u0e16\u0e39\u0e01": 3880, "\u0e23\u0e39\u0e49\u0e40\u0e23\u0e37\u0e48\u0e2d\u0e07": 3881, "\u4fdd\u8bc1": 3882, "\u900f": 3883, "\u6ca1\u4e8b\u7684": 3884, "\u0e41\u0e02\u0e19": 3885, "\u8bbe": 3886, "\u2581So": 3887, "\u996d": 3888, "\u538b": 3889, "\u51c6": 3890, "\u804c": 3891, "\u0e2e\u0e31\u0e25\u0e42\u0e2b\u0e25": 3892, "\u786c": 3893, "\u0e01\u0e4d\u0e32\u0e41\u0e1e\u0e07": 3894, "\u2581more": 3895, "\u0e0a\u0e48\u0e2d\u0e07": 3896, "\u0e44\u0e21\u0e48\u0e08\u0e4d\u0e32\u0e40\u0e1b\u0e47\u0e19\u0e15\u0e49\u0e2d\u0e07": 3897, "\u4eba\u751f": 3898, "\u2581\u0e19\u0e35\u0e48\u0e21\u0e31\u0e19": 3899, "\u0e04\u0e32\u0e23\u0e4c": 3900, "\u5fc5": 3901, "\u7edd": 3902, "\u4f11": 3903, "\u4f60\u53bb": 3904, "\u0e0a\u0e48\u0e27\u0e22\u0e0a\u0e35\u0e27\u0e34\u0e15": 3905, "\u0e40\u0e1b\u0e47\u0e19\u0e1e\u0e27\u0e01": 3906, "\u0e17\u0e31\u0e49\u0e07\u0e2a\u0e2d\u0e07": 3907, "\u8822": 3908, "\u970d": 3909, "\u0e42\u0e0a\u0e27\u0e4c": 3910, "\u0e21\u0e38\u0e21": 3911, "\u0e21\u0e31\u0e19\u0e40\u0e1b\u0e47\u0e19\u0e40\u0e23\u0e37\u0e48\u0e2d\u0e07": 3912, "\u5920": 3913, "\u6076\u9b54": 3914, "\u7136\u5f8c": 3915, "\u8001\u7238": 3916, "\u793e": 3917, "\u542c\u8bf4": 3918, "\u0e14\u0e35\u0e19": 3919, "\u2581\u0e40\u0e01\u0e34\u0e14\u0e2d\u0e30\u0e44\u0e23\u0e02\u0e36\u0e49\u0e19": 3920, "\u4f17": 3921, "\u0e2d\u0e14\u0e35\u0e15": 3922, "\u5750\u4e0b": 3923, "\u0e2a\u0e07\u0e1a": 3924, "\u5e78": 3925, "\u0e2a\u0e21\u0e04\u0e27\u0e23": 3926, "\u0e1e\u0e2d\u0e25": 3927, "\u0e20\u0e32\u0e29\u0e32": 3928, "\u706f": 3929, "ab": 3930, "\u0e40\u0e1d\u0e49\u0e32": 3931, "\u6740\u4eba": 3932, "\u4f34": 3933, "\u0e23\u0e23": 3934, "\u5bb6\u91cc": 3935, "Mar": 3936, "\u52a0\u5165": 3937, "\u4f19\u8ba1": 3938, "\u6548": 3939, "\u0e02\u0e19\u0e32\u0e14\u0e19\u0e31\u0e49\u0e19": 3940, "\u662f\u771f\u7684": 3941, "\u865f": 3942, "\u5730\u7403": 3943, "\u0e21\u0e31\u0e01\u0e08\u0e30": 3944, "\u0e04\u0e34": 3945, "\u4e86\u55ce": 3946, "\u0e2a\u0e4d\u0e32\u0e40\u0e23\u0e47\u0e08": 3947, "\u4e0d\u53ef": 3948, "\u0e19\u0e35\u0e48\u0e41\u0e2b\u0e25\u0e30": 3949, "\u4e13": 3950, "\u79c0": 3951, "\u0e25\u0e47\u0e2d\u0e04": 3952, "\u0e25\u0e32\u0e01": 3953, "\u0e41\u0e04\u0e48\u0e19\u0e31\u0e49\u0e19": 3954, "\u51fa\u4f86": 3955, "\u0e16\u0e49\u0e32\u0e40\u0e02\u0e32": 3956, "\u0e27\u0e34\u0e25": 3957, "ton": 3958, "\u8bba": 3959, "\u4e00\u53ea": 3960, "\u5b9d": 3961, "\u0e2d\u0e32\u0e08\u0e32\u0e23\u0e22\u0e4c": 3962, "\u51e1": 3963, "\u0e08\u0e4d\u0e32\u0e40\u0e1b\u0e47\u0e19\u0e15\u0e49\u0e2d\u0e07": 3964, "\u8bd5\u8bd5": 3965, "\u60f3\u5230": 3966, "\u4f60\u5fc5\u987b": 3967, "\u4e00\u6761": 3968, "\u667a": 3969, "\u4f60\u9700\u8981": 3970, "\u613f\u610f": 3971, "\u0e43\u0e19\u0e0a\u0e35\u0e27\u0e34\u0e15": 3972, "\u90fd\u6ca1\u6709": 3973, "\u0e21\u0e31\u0e19\u0e04\u0e37\u0e2d\u0e2d\u0e30\u0e44\u0e23": 3974, "\u7b54\u5e94": 3975, "\u97f3\u4e50": 3976, "\u91cd\u8981": 3977, "\u7236\u6bcd": 3978, "\u8fd9\u4e00\u5207": 3979, "\u0e1d\u0e48\u0e32\u0e1a\u0e32\u0e17": 3980, "\u0e2a\u0e16\u0e32\u0e19\u0e01\u0e32\u0e23\u0e13\u0e4c": 3981, "\u0e42\u0e22": 3982, "\u0e18\u0e23\u0e23\u0e21\u0e14\u0e32": 3983, "\u0e43": 3984, "\u0e1c\u0e21\u0e41\u0e04\u0e48": 3985, "\u0e40\u0e18\u0e0d": 3986, "\u0e42\u0e15\u0e4a\u0e30": 3987, "\u0e1e\u0e2d\u0e14\u0e35": 3988, "\u5251": 3989, "\u0e23\u0e31\u0e10": 3990, "\u66f4\u591a": 3991, "\u4f60\u4e3a\u4ec0\u4e48": 3992, "\u6211\u4ee5\u4e3a": 3993, "\u5927\u5b66": 3994, "\u0e17\u0e31\u0e19\u0e17\u0e35": 3995, "\u0e42\u0e23\u0e07\u0e1e\u0e22\u0e32\u0e1a\u0e32\u0e25": 3996, "\u0e17\u0e35\u0e48\u0e19\u0e35\u0e49": 3997, "\u0e40\u0e28\u0e23\u0e49\u0e32": 3998, "vi": 3999, "\u0e40\u0e27\u0e25\u0e32\u0e17\u0e35\u0e48": 4000, "\u0e2a\u0e19\u0e32\u0e21": 4001, "18": 4002, "\u7684\u5973\u4eba": 4003, "\u8001\u5a46": 4004, "\u0e23\u0e32\u0e07\u0e27\u0e31\u0e25": 4005, "\u731c": 4006, "\u0e2d\u0e14": 4007, "\u6211\u4eec\u6709": 4008, "\u5370": 4009, "\u0e40\u0e27\u0e23": 4010, "\u0e01\u0e47\u0e15\u0e32\u0e21": 4011, "\u8001\u5e08": 4012, "\u0e44\u0e2b\u0e27": 4013, "\u4fe1\u53f7": 4014, "\u0e17\u0e4d\u0e32\u0e44\u0e21\u0e25\u0e48\u0e30": 4015, "\u0e2b\u0e31\u0e27\u0e40\u0e23\u0e32\u0e30": 4016, "\u63a2\u5458": 4017, "\u0e09\u0e31\u0e19\u0e44\u0e21\u0e48\u0e23\u0e39\u0e49\u0e27\u0e48\u0e32": 4018, "\u0e17\u0e31": 4019, "\u6469": 4020, "\u5899": 4021, "\u6b3e": 4022, "\u2581\u0e2d\u0e37\u0e21": 4023, "\u0e23\u0e48\u0e27\u0e21\u0e40\u0e1e\u0e28": 4024, "old": 4025, "\u0e41\u0e19": 4026, "\u8bf4\u8fc7": 4027, "od": 4028, "So": 4029, "\u0e1e\u0e36\u0e48\u0e07": 4030, "\u2581sp": 4031, "\u0e04\u0e25\u0e31\u0e1a": 4032, "\u4f4f\u5728": 4033, "\u6311": 4034, "\u258119": 4035, "\u5f31": 4036, "\u5fae\u8f6f\u96c5\u9ed1": 4037, "\u0e40\u0e2d\u0e01\u0e2a\u0e32\u0e23": 4038, "\u652f": 4039, "\u4f60\u5230\u5e95": 4040, "\u0e09\u0e31\u0e19\u0e2d\u0e22\u0e32\u0e01\u0e08\u0e30": 4041, "\u8d62": 4042, "ru": 4043, "\u5e8a": 4044, "\u0e15\u0e48\u0e4d\u0e32": 4045, "\u0e40\u0e0b\u0e47\u0e19": 4046, "\u2581\u4f60\u8981": 4047, "\u4e9b\u4ec0\u4e48": 4048, "\u0e1a\u0e2d\u0e01\u0e1c\u0e21": 4049, "\u258115": 4050, "\u2581\u0e27\u0e31\u0e19": 4051, "\u2581let": 4052, "\u80af": 4053, "\u0e17\u0e35\u0e48\u0e1c\u0e48\u0e32\u0e19\u0e21\u0e32": 4054, "\u7ffb": 4055, "\u670d\u52a1": 4056, "\u0e23\u0e32\u0e0a": 4057, "\u0e44\u0e1b\u0e0b\u0e30": 4058, "\u0e02\u0e2d\u0e1a\u0e04\u0e38\u0e13\u0e04\u0e48\u0e30": 4059, "\u0e15\u0e48\u0e2d\u0e2a\u0e39\u0e49": 4060, "\u542c\u8d77\u6765": 4061, "\u0e44\u0e1b\u0e14\u0e39": 4062, "\u0e23\u0e30\u0e22\u0e30": 4063, "\u81f4": 4064, "\u6bcd": 4065, "\u0e2d\u0e4d\u0e32\u0e19\u0e32\u0e08": 4066, "\u6211\u5fc5\u987b": 4067, "\u0e1e\u0e23\u0e30\u0e2d\u0e07\u0e04\u0e4c": 4068, "\u522b\u8fd9\u6837": 4069, "\u53ef\u4e0d\u662f": 4070, "\u2581\u6211\u4e0d\u77e5\u9053": 4071, "\u0e27\u0e48\u0e32\u0e40\u0e23\u0e32": 4072, "\u0645": 4073, "\u0e2b\u0e25\u0e07": 4074, "\u0e40\u0e1b\u0e47\u0e19\u0e2b\u0e48\u0e27\u0e07": 4075, "\u751f\u610f": 4076, "\u0e19\u0e31\u0e01\u0e2a\u0e37\u0e1a": 4077, "\u9580": 4078, "\u96c7": 4079, "\u59d0\u59d0": 4080, "\u65cf": 4081, "\u0e2a\u0e34\u0e49\u0e19": 4082, "\u4ea4\u6613": 4083, "\u7b49\u6211": 4084, "\u90a3\u5929": 4085, "Dean": 4086, "\u0644": 4087, "\u2581\u0e43\u0e0a\u0e48\u0e21\u0e31\u0e49\u0e22": 4088, "\u523a": 4089, "\u0e1b\u0e35\u0e40\u0e15\u0e2d\u0e23\u0e4c": 4090, "cHC": 4091, "\u4f60\u771f\u7684": 4092, "ni": 4093, "\u5c41": 4094, "\u0e43\u0e19\u0e17\u0e35\u0e48\u0e2a\u0e38\u0e14": 4095, "\u0e02\u0e2d\u0e07\u0e17\u0e48\u0e32\u0e19": 4096, "\u0e40\u0e25\u0e22\u0e27\u0e48\u0e32": 4097, "\u77ed": 4098, "\u2581\u0e0b\u0e36\u0e48\u0e07": 4099, "\u2581\u55e8": 4100, "ard": 4101, "\u0e07\u0e48\u0e32\u0e22\u0e46": 4102, "\u0e0a\u0e48\u0e27\u0e22\u0e14\u0e49\u0e27\u0e22": 4103, "\u6838": 4104, "em": 4105, "\u0e21\u0e32\u0e15\u0e25\u0e2d\u0e14": 4106, "Why": 4107, "\u0e40\u0e25\u0e22\u0e25\u0e48\u0e30": 4108, "\u0e09\u0e31\u0e19\u0e21\u0e32": 4109, "\u0e42\u0e2d\u0e49\u0e1e\u0e23\u0e30\u0e40\u0e08\u0e49\u0e32": 4110, "ish": 4111, "\u66f2": 4112, "\u7d2f": 4113, "\u7684\u65f6\u95f4": 4114, "\u0e25\u0e35\u0e22\u0e4c": 4115, "\u0e08\u0e30\u0e16\u0e39\u0e01": 4116, "\u7167\u7247": 4117, "\u0e2b\u0e31\u0e01": 4118, "\u2581black": 4119, "\u0e2b\u0e25\u0e38\u0e21": 4120, "\u5439": 4121, "\u53d8\u5f97": 4122, "\u66b4": 4123, "\u0e41\u0e21\u0e49": 4124, "\u0e1c\u0e34\u0e27": 4125, "\u91ab\u751f": 4126, "\u4f60\u6ca1\u4e8b\u5427": 4127, "\u0e41\u0e1b": 4128, "\u0e1e\u0e27\u0e01\u0e40\u0e02\u0e32\u0e01\u0e4d\u0e32\u0e25\u0e31\u0e07": 4129, "\u7b14": 4130, "\u0e27\u0e34\u0e0d\u0e0d\u0e32\u0e13": 4131, "\u0e0a\u0e31\u0e01": 4132, "\u5b8c\u7f8e": 4133, "\u8eab\u8fb9": 4134, "\u2581\u0e42\u0e2d": 4135, "\u0e15\u0e49\u0e2d\u0e07\u0e01\u0e32\u0e23\u0e2d\u0e30\u0e44\u0e23": 4136, "\u0e1a\u0e23\u0e34\u0e2a\u0e38\u0e17\u0e18\u0e34\u0e4c": 4137, "\u0e28\u0e39\u0e19\u0e22\u0e4c": 4138, "\u0e15\u0e31\u0e49\u0e07\u0e43\u0e08": 4139, "\u0e43\u0e2b\u0e49\u0e15\u0e32\u0e22\u0e2a\u0e34": 4140, "\u7684\u95ee\u9898": 4141, "\u627e\u4f60": 4142, "\u0e04\u0e38\u0e13\u0e04\u0e07": 4143, "\u77a7": 4144, "\u300c": 4145, "\u0e1e\u0e2d\u0e41\u0e25\u0e49\u0e27": 4146, "\u76ee\u524d": 4147, "\u0e14\u0e31": 4148, "pos": 4149, "\u932f": 4150, "\u5a5a": 4151, "ca": 4152, "\u7433": 4153, "\u5bcc": 4154, "\u965b\u4e0b": 4155, "ff": 4156, "\u7ea6\u4f1a": 4157, "\u793c": 4158, "\u0e2a\u0e48\u0e27\u0e19\u0e43\u0e2b\u0e0d\u0e48": 4159, "rial": 4160, "\u65f6\u5019": 4161, "\u62a2": 4162, "\u5708": 4163, "\u96e8": 4164, "\u0e40\u0e2b\u0e25\u0e47\u0e01": 4165, "\u0e21\u0e31\u0e19\u0e44\u0e1b": 4166, "\u0e09\u0e31\u0e19\u0e2a\u0e32\u0e21\u0e32\u0e23\u0e16": 4167, "\u0e08\u0e30\u0e44\u0e1b\u0e44\u0e2b\u0e19": 4168, "\u0e25\u0e4d\u0e32\u0e1a\u0e32\u0e01": 4169, "\u0e40\u0e04\u0e23": 4170, "\u0e14\u0e2d\u0e25": 4171, "\u518d\u6765": 4172, "\u0e19\u0e36\u0e01\u0e27\u0e48\u0e32": 4173, "\u0e19\u0e31\u0e48\u0e19\u0e44\u0e21\u0e48\u0e43\u0e0a\u0e48": 4174, "\u53d1\u73b0\u4e86": 4175, "ist": 4176, "\u7cbe\u795e": 4177, "\u0e41\u0e14\u0e07": 4178, "\u4e86\u4e00\u4e2a": 4179, "\u7535\u89c6": 4180, "\u0e21\u0e32\u0e17\u0e4d\u0e32\u0e2d\u0e30\u0e44\u0e23\u0e17\u0e35\u0e48\u0e19\u0e35\u0e48": 4181, "\u0e04\u0e49\u0e32": 4182, "\u4e8b\u4ef6": 4183, "\u0e40\u0e1b\u0e47\u0e19\u0e19\u0e31\u0e01": 4184, "\u7684\u670b\u53cb": 4185, "\u6211\u4eec\u80fd": 4186, "\u5979\u5728": 4187, "\u0e2d\u0e38\u0e1a\u0e31\u0e15\u0e34\u0e40\u0e2b\u0e15\u0e38": 4188, "BAR": 4189, "\u0e04\u0e38\u0e13\u0e40\u0e04\u0e22": 4190, "\u6771\u897f": 4191, "\u4f7f\u7528": 4192, "\u4e00\u573a": 4193, "\u0e40\u0e23\u0e32\u0e2a\u0e32\u0e21\u0e32\u0e23\u0e16": 4194, "\u4e8b\u5b9e": 4195, "\u0e02\u0e2d\u0e07\u0e41\u0e01": 4196, "\u773c\u775b": 4197, "Ro": 4198, "\u0e19\u0e48\u0e32\u0e2a\u0e19\u0e43\u0e08": 4199, "\u0e23\u0e31\u0e10\u0e1a\u0e32\u0e25": 4200, "\u65e7": 4201, "\u5f8b\u5e08": 4202, "\u0e2a\u0e16\u0e32\u0e19\u0e35": 4203, "\u0e04\u0e4d\u0e32\u0e1e\u0e39\u0e14": 4204, "\u5bfb": 4205, "\u6ca1\u6709\u4eba": 4206, "\u62e5\u6709": 4207, "\u0e01\u0e47\u0e44\u0e21\u0e48\u0e44\u0e14\u0e49": 4208, "\u5426\u5219": 4209, "3300}": 4210, "\u4f60\u77e5\u9053\u5417": 4211, "\u4e0d\u5fc5": 4212, "\u6bd4\u5982": 4213, "\u7684\u6642\u5019": 4214, "\u0e40\u0e1b\u0e47\u0e19\u0e22\u0e31\u0e07\u0e44\u0e07\u0e1a\u0e49\u0e32\u0e07": 4215, "\u9759": 4216, "\u0e04\u0e27\u0e32\u0e21\u0e1c\u0e34\u0e14": 4217, "\u0e04\u0e32\u0e14": 4218, "\u0e40\u0e08\u0e32\u0e30": 4219, "\u0e2a\u0e34\u0e48\u0e07\u0e17\u0e35\u0e48\u0e04\u0e38\u0e13": 4220, "\u6211\u4eec\u5fc5\u987b": 4221, "\u770b\u5230\u4e86": 4222, "\u0e41\u0e19\u0e27": 4223, "\u95ee\u4f60": 4224, "\u0e09\u0e31\u0e19\u0e44\u0e21\u0e48\u0e2a\u0e32\u0e21\u0e32\u0e23\u0e16": 4225, "\u62a5\u544a": 4226, "\u2581But": 4227, "\u0e19\u0e48\u0e30\u0e2a\u0e34": 4228, "\u6b27": 4229, "\u592a\u68d2\u4e86": 4230, "\u0e16\u0e2d\u0e14": 4231, "\u968f\u4fbf": 4232, "\u0e43\u0e04\u0e23\u0e1a\u0e32\u0e07\u0e04\u0e19": 4233, "\u0e14\u0e38": 4234, "\u0e14\u0e2d\u0e19": 4235, "\u0e2d\u0e19\u0e32\u0e04\u0e15": 4236, "\u56f0": 4237, "\u2581\u6211\u4e5f": 4238, "\u8425": 4239, "\u0e02\u0e2d\u0e07\u0e1e\u0e48\u0e2d": 4240, "\u2581\u0e09\u0e31\u0e19\u0e04\u0e34\u0e14\u0e27\u0e48\u0e32": 4241, "\u2581\u0e40\u0e23\u0e47\u0e27\u0e40\u0e02\u0e49\u0e32": 4242, "\u258112": 4243, "\u258130": 4244, "\u0e44\u0e21\u0e48\u0e2b\u0e23\u0e2d\u0e01": 4245, "\u0e18\u0e19\u0e32\u0e04\u0e32\u0e23": 4246, "\u4e09\u4e2a": 4247, "\u4e0b\u9762": 4248, "\u0e17\u0e4d\u0e32\u0e2d\u0e22\u0e48\u0e32\u0e07\u0e19\u0e31\u0e49\u0e19": 4249, "\u4f18": 4250, "\u9644\u8fd1": 4251, "\u0e23\u0e2d\u0e07\u0e40\u0e17\u0e49\u0e32": 4252, "\u7684\u786e": 4253, "\u4fe1\u606f": 4254, "\u4f60\u786e\u5b9a": 4255, "\u544a\u8bc9\u4ed6": 4256, "\u6302": 4257, "\u0e41\u0e25\u0e19": 4258, "\u0e42\u0e1e": 4259, "\u518d\u8bf4": 4260, "\u0e16\u0e36\u0e07\u0e40\u0e27\u0e25\u0e32": 4261, "\u0e01\u0e4d\u0e32\u0e08\u0e31\u0e14": 4262, "\u53cd\u6b63": 4263, "\u653b\u51fb": 4264, "\u50cf\u662f": 4265, "\u6709\u4e00": 4266, "\u4f60\u5462": 4267, "\u662f\u8fd9\u6837": 4268, "\u0e44\u0e1b\u0e01\u0e31\u0e1a": 4269, "\u0e1b\u0e23\u0e30\u0e01\u0e32\u0e28": 4270, "\u0e42\u0e1b": 4271, "\u5373\u4f7f": 4272, "\u53f7\u7801": 4273, "oo": 4274, "\u0e40\u0e23\u0e32\u0e08\u0e30\u0e44\u0e1b": 4275, "\u7ec8": 4276, "\u4e86\u6211": 4277, "\u56ed": 4278, "\u6492": 4279, "\u732a": 4280, "\u745f": 4281, "\u0e44\u0e02\u0e48": 4282, "\u2581\u0e04\u0e38\u0e13\u0e15\u0e49\u0e2d\u0e07": 4283, "\u52bf": 4284, "\u793c\u7269": 4285, "\u0e2a\u0e31\u0e07\u0e2b\u0e32\u0e23": 4286, "\u0e42\u0e2d\u0e49\u0e27": 4287, "\u0e40\u0e1a\u0e25": 4288, "\u0e04\u0e27\u0e32\u0e21\u0e15\u0e32\u0e22": 4289, "\u0e44\u0e14\u0e49\u0e22\u0e34\u0e19\u0e40\u0e2a\u0e35\u0e22\u0e07": 4290, "\u0e06\u0e32\u0e15\u0e01\u0e23": 4291, "\u7387": 4292, "\u0e1b\u0e25\u0e49\u0e19": 4293, "\u0e40\u0e17\u0e2d\u0e23\u0e4c": 4294, "\u6301": 4295, "\u0e22\u0e34\u0e49\u0e21": 4296, "\u0e14\u0e34\u0e19": 4297, "\u0e44\u0e14\u0e49\u0e19\u0e30": 4298, "\u0e40\u0e2b\u0e15\u0e38\u0e01\u0e32\u0e23\u0e13\u0e4c": 4299, "\u0e08\u0e30\u0e2b\u0e32": 4300, "\u2581\u90a3\u662f": 4301, "\u0e19\u0e31\u0e07": 4302, "\u96e2\u958b": 4303, "\u6211\u628a": 4304, "\u0e41\u0e15\u0e48\u0e40\u0e02\u0e32": 4305, "\u0e41\u0e02\u0e48\u0e07": 4306, "\u65bd": 4307, "\u5831": 4308, "\u0e2a\u0e31\u0e01\u0e2b\u0e19\u0e48\u0e2d\u0e22": 4309, "tt": 4310, "\u54e5\u4eec": 4311, "\u0e42\u0e2b": 4312, "\u0e40\u0e18\u0e2d\u0e44\u0e21\u0e48\u0e44\u0e14\u0e49": 4313, "\u0e04\u0e38\u0e13\u0e2d\u0e22\u0e32\u0e01": 4314, "\u0e04\u0e07\u0e15\u0e49\u0e2d\u0e07": 4315, "\u0e04\u0e37\u0e2d\u0e01\u0e32\u0e23": 4316, "\u8bb0\u5f55": 4317, "\u0e40\u0e23\u0e32\u0e04\u0e27\u0e23": 4318, "\u0e0b\u0e32\u0e19": 4319, "\u0e17\u0e48\u0e2d": 4320, "\u0e40\u0e2d\u0e01": 4321, "\u770b\u4e0a\u53bb": 4322, "\u0e09\u0e31\u0e19\u0e40\u0e02\u0e49\u0e32\u0e43\u0e08": 4323, "\u597d\u55ce": 4324, "ice": 4325, "\u0e27\u0e31": 4326, "\ue145": 4327, "\u0e14\u0e48\u0e27\u0e19": 4328, "\u60f3\u8c61": 4329, "\u5e26\u6765": 4330, "\u6848\u5b50": 4331, "\u0e40\u0e2b\u0e47\u0e19\u0e27\u0e48\u0e32": 4332, "ma": 4333, "\u2581\u5feb\u70b9": 4334, "\u0e40\u0e04\u0e22\u0e40\u0e1b\u0e47\u0e19": 4335, "\u0e40\u0e02\u0e32\u0e01\u0e4d\u0e32\u0e25\u0e31\u0e07": 4336, "\u0e1a\u0e31\u0e0d\u0e0a\u0e35": 4337, "\u4e0a\u53bb": 4338, "\u5348": 4339, "\u53f3": 4340, "\u0e40\u0e23\u0e35\u0e22": 4341, "\u2581people": 4342, "\u2581\u0e41\u0e19\u0e48\u0e19\u0e2d\u0e19": 4343, "\u5177": 4344, "\u6211\u8fd8\u662f": 4345, "\u0e2d\u0e1a": 4346, "\u0e2a\u0e20\u0e32\u0e1e": 4347, "\u2581Do": 4348, "\u0e15\u0e49\u0e2d\u0e07\u0e40\u0e1b\u0e47\u0e19": 4349, "\u6389\u4e86": 4350, "\u8bf7\u4f60": 4351, "\u6839\u672c\u4e0d": 4352, "\u0e20\u0e32\u0e04": 4353, "\u8ddf\u7740": 4354, "\u552f\u4e00": 4355, "\u600e\u4e48\u505a": 4356, "\u2581\u0e42\u0e14\u0e22": 4357, "\u0e41\u0e02\u0e01": 4358, "\u59b9\u59b9": 4359, "\u0e2d\u0e2d\u0e01\u0e44\u0e1b\u0e08\u0e32\u0e01\u0e17\u0e35\u0e48\u0e19\u0e35\u0e48": 4360, "\u6bd4\u8f83": 4361, "\u51c6\u5907\u597d": 4362, "\u0e41\u0e2b": 4363, "\u4e00\u6b65": 4364, "\u2581\u771f\u7684": 4365, "\u8d77\u4f86": 4366, "\u5224": 4367, "\u0e1f\u0e49\u0e32": 4368, "\u642d": 4369, "\u0e40\u0e2b\u0e19\u0e37\u0e48\u0e2d\u0e22": 4370, "\u25819": 4371, "\u0e02\u0e2d\u0e1a\u0e04\u0e38\u0e13\u0e17\u0e35\u0e48": 4372, "\u0e17\u0e31\u0e48\u0e27": 4373, "\u0e17\u0e4d\u0e32\u0e44\u0e21\u0e48\u0e44\u0e14\u0e49": 4374, "\u0e40\u0e18\u0e07\u0e40\u0e18": 4375, "\u611f\u8c22": 4376, "\u0e19\u0e34\u0e14": 4377, "\u5de6": 4378, "\u6210\u4e86": 4379, "\u2581\u4eb2\u7231\u7684": 4380, "\u0e2d\u0e30\u0e44\u0e23\u0e19\u0e48\u0e30": 4381, "\u0e01\u0e31\u0e1a\u0e1e\u0e27\u0e01": 4382, "\u4e3a\u4ec0\u4e48\u8981": 4383, "\u0e04\u0e31\u0e19": 4384, "\u0e40\u0e01\u0e35\u0e48\u0e22\u0e27": 4385, "\u5a01\u80c1": 4386, "\u0e1c\u0e21\u0e17\u0e4d\u0e32": 4387, "\u2581\u0e09\u0e31\u0e19\u0e44\u0e21\u0e48\u0e44\u0e14\u0e49": 4388, "\u505c\u6b62": 4389, "oy": 4390, "\u0e04\u0e4c": 4391, "\u503c\u5f97": 4392, "\u4f60\u5f88": 4393, "ke": 4394, "\u0e1b\u0e32\u0e23\u0e4c\u0e15\u0e35\u0e49": 4395, "\u4f11\u606f": 4396, "\u5f88\u68d2": 4397, "\u0e0a\u0e32\u0e23\u0e4c\u0e25\u0e35": 4398, "\u514d": 4399, "\u0e40\u0e02\u0e32\u0e17\u0e4d\u0e32": 4400, "\u4f3c\u4e4e": 4401, "\u0e0a\u0e35": 4402, "\u5f00\u73a9\u7b11": 4403, "\u0e0b\u0e30\u0e2d\u0e35\u0e01": 4404, "\u5a18": 4405, "\u2581pa": 4406, "ant": 4407, "\u0648": 4408, "\u0e2a\u0e21\u0e31\u0e22": 4409, "\u7ed3\u675f\u4e86": 4410, "\u51b7\u9759": 4411, "\u8c22": 4412, "\u9ebc": 4413, "\u62ef\u6551": 4414, "\u8bad\u7ec3": 4415, "\u0e40\u0e17\u0e23": 4416, "\u0e44\u0e21\u0e48\u0e21\u0e35\u0e27\u0e31\u0e19": 4417, "\u0e22\u0e01\u0e40\u0e27\u0e49\u0e19": 4418, "\u5f97\u5f88": 4419, "\u7684\u8a71": 4420, "\u5169": 4421, "\u0e44\u0e14\u0e49\u0e2d\u0e22\u0e48\u0e32\u0e07\u0e44\u0e23": 4422, "\u7842": 4423, "\u0e41\u0e01\u0e49\u0e44\u0e02": 4424, "\u0e22\u0e31\u0e07\u0e2d\u0e22\u0e39\u0e48": 4425, "\u8def\u4e0a": 4426, "\u0e17\u0e35\u0e48\u0e44\u0e14\u0e49": 4427, "\u0e40\u0e18\u0e10\u0e40\u0e18": 4428, "\u0e40\u0e22\u0e35\u0e48\u0e22\u0e21\u0e21\u0e32\u0e01": 4429, "\u6709\u5173": 4430, "\u0e40\u0e18\u0e10": 4431, "Ca": 4432, "nt": 4433, "\u7532": 4434, "\u505c\u4e0b": 4435, "\u98df\u7269": 4436, "\u2581St": 4437, "\u767c\u751f": 4438, "\u2581\u0e21\u0e31\u0e19\u0e08\u0e30": 4439, "\u9910": 4440, "\u6000": 4441, "\u80fd\u4e0d\u80fd": 4442, "\u4ed6\u8981": 4443, "\u0e04\u0e38\u0e13\u0e22\u0e31\u0e07": 4444, "\u8c0b\u6740": 4445, "\u0e40\u0e02\u0e32\u0e1a\u0e2d\u0e01\u0e27\u0e48\u0e32": 4446, "\u0e44\u0e1b\u0e01\u0e31\u0e19": 4447, "\u5e2d": 4448, "\u0e2a\u0e27\u0e23\u0e23\u0e04\u0e4c": 4449, "\u6851": 4450, "\u8feb": 4451, "\u9054": 4452, "FBI": 4453, "\u4e00\u5b9a\u4f1a": 4454, "\u0e23\u0e49\u0e2d\u0e07\u0e44\u0e2b\u0e49": 4455, "\u5f00\u8f66": 4456, "\u0e1e\u0e35\u0e48\u0e19\u0e49\u0e2d\u0e07": 4457, "\u2581has": 4458, "\u0e16\u0e49\u0e32\u0e07\u0e31\u0e49\u0e19": 4459, "\u0e17\u0e4d\u0e32\u0e44\u0e21\u0e44\u0e21\u0e48": 4460, "ak": 4461, "ip": 4462, "\u0e2a\u0e4d\u0e32\u0e2b\u0e23\u0e31\u0e1a\u0e01\u0e32\u0e23": 4463, "\u5408\u4f5c": 4464, "\u0e43\u0e0a\u0e48\u0e21\u0e31\u0e4a\u0e22": 4465, "\u8003": 4466, "\u4f60\u662f\u8c01": 4467, "\u610f\u4e49": 4468, "\u0e1e\u0e22\u0e32\u0e22\u0e32\u0e21\u0e17\u0e35\u0e48\u0e08\u0e30": 4469, "\u0e37\u0e48\u0e2d": 4470, "\u0e2e\u0e32\u0e23\u0e4c": 4471, "\u0e44\u0e21\u0e48\u0e40\u0e0a\u0e37\u0e48\u0e2d": 4472, "wo": 4473, "\u6293\u5230": 4474, "\u0e01\u0e14": 4475, "\u6d88": 4476, "\u7576\u7136": 4477, "nd": 4478, "\u0e01\u0e0e\u0e2b\u0e21\u0e32\u0e22": 4479, "\u0e40\u0e08\u0e49\u0e32\u0e19\u0e32\u0e22": 4480, "\u0e2d\u0e22\u0e32\u0e01\u0e23\u0e39\u0e49": 4481, "\u0e2a\u0e38\u0e14\u0e46": 4482, "\u0e40\u0e01\u0e35\u0e22\u0e23\u0e15\u0e34": 4483, "\u0e08\u0e30\u0e17\u0e4d\u0e32\u0e22\u0e31\u0e07\u0e44\u0e07": 4484, "\u0e04\u0e38\u0e13\u0e21\u0e32": 4485, "\u0e17\u0e4d\u0e32\u0e43\u0e2b\u0e49\u0e21\u0e31\u0e19": 4486, "\u0e23\u0e38\u0e48\u0e19": 4487, "\u0e21\u0e34\u0e19": 4488, "\u4e00\u76f4\u5728": 4489, "\u4e00\u5bb6": 4490, "\u2581\u662f\u5417": 4491, "\u0e2b\u0e19\u0e49\u0e32\u0e15\u0e48\u0e32\u0e07": 4492, "\u0e17\u0e19\u0e32\u0e22": 4493, "\u0e1b\u0e25\u0e2d\u0e21": 4494, "\"\"?\"": 4495, "\u8bb8": 4496, "CF": 4497, "\u62ff\u7740": 4498, "\u0e1c\u0e21\u0e23\u0e39\u0e49\u0e27\u0e48\u0e32": 4499, "\u2581\u0e19\u0e35\u0e48\u0e04\u0e37\u0e2d": 4500, "\u7684\u540d\u5b57": 4501, "\u0e18\u0e23\u0e23\u0e21\u0e0a\u0e32\u0e15\u0e34": 4502, "\u0e25\u0e38\u0e01\u0e02\u0e36\u0e49\u0e19": 4503, "\u6211\u5bf9": 4504, "\u4e00\u540d": 4505, "\u0e44\u0e14\u0e49\u0e2a\u0e34": 4506, "\u53e6\u4e00\u4e2a": 4507, "\u0e04\u0e38\u0e13\u0e40\u0e2b\u0e47\u0e19": 4508, "\u9053\u6b49": 4509, "\u4e5f\u6709": 4510, "\u544a\u8a34\u6211": 4511, "\u0e2d\u0e35\u0e01\u0e17\u0e35": 4512, "\u0e41\u0e15\u0e48\u0e15\u0e2d\u0e19\u0e19\u0e35\u0e49": 4513, "\u2581Co": 4514, "\u2581\u4f46\u6211": 4515, "\u0e04\u0e25\u0e32": 4516, "\u60f3\u77e5\u9053": 4517, "\u718a": 4518, "\u75bc": 4519, "\u7b80\u76f4": 4520, "\u0e21\u0e31\u0e19\u0e15\u0e49\u0e2d\u0e07": 4521, "\u0e41\u0e04\u0e48\u0e19\u0e35\u0e49": 4522, "\u2581\u0e17\u0e38\u0e01\u0e04\u0e19": 4523, "\u0e44\u0e27\u0e49\u0e43\u0e19": 4524, "\u53d7\u4f24": 4525, "\u627e\u4e0d\u5230": 4526, "\u0e25\u0e2d\u0e22": 4527, "\u0e42\u0e21\u0e07": 4528, "\u6613": 4529, "\u987e": 4530, "ock": 4531, "\ue4ce": 4532, "\u6551\u4e86": 4533, "\u70e6": 4534, "\u7ed9\u6211\u4eec": 4535, "Jane": 4536, "\u5abd\u5abd": 4537, "AA": 4538, "\u4f60\u7236\u4eb2": 4539, "\u0e02\u0e49\u0e32\u0e27": 4540, "\u6700\u597d\u7684": 4541, "\u68d2": 4542, "\u0e2a\u0e19": 4543, "\u0e1b\u0e23\u0e30\u0e01\u0e31\u0e19": 4544, "\u5fc5\u9808": 4545, "\u5389\u5bb3": 4546, "\u4e00\u9ede": 4547, "\u0e2d\u0e30\u0e44\u0e23\u0e1a\u0e32\u0e07\u0e2d\u0e22\u0e48\u0e32\u0e07": 4548, "\u7684\u4e00\u5207": 4549, "\u0e25\u0e39\u0e01\u0e04\u0e49\u0e32": 4550, "\u4f46\u4ed6": 4551, "\u0e2a\u0e37\u0e1a": 4552, "ty": 4553, "\u2581Ma": 4554, "\u0e21\u0e31": 4555, "\u0e01\u0e47\u0e23\u0e39\u0e49": 4556, "\u5211": 4557, "\u53ef\u80fd\u4f1a": 4558, "\u0e17\u0e35\u0e48\u0e17\u0e4d\u0e32\u0e43\u0e2b\u0e49": 4559, "\u8001\u5929": 4560, "\u0e01\u0e25\u0e48\u0e32\u0e27": 4561, "\u0e15\u0e34\u0e14\u0e15\u0e32\u0e21": 4562, "\u4f60\u8ba4\u4e3a": 4563, "\u0e44\u0e1b\u0e2b\u0e19\u0e48\u0e2d\u0e22": 4564, "\u0e04\u0e38\u0e21": 4565, "\u0e02\u0e19\u0e32\u0e14\u0e19\u0e35\u0e49": 4566, "\u0e40\u0e1b\u0e2d\u0e23\u0e4c": 4567, "\u7981": 4568, "\u5584": 4569, "\u94a5\u5319": 4570, "\u0e1f\u0e2d": 4571, "\u5f88\u4e45": 4572, "\u0e41\u0e1b\u0e25\u0e27\u0e48\u0e32": 4573, "\u0e01\u0e4d\u0e32": 4574, "\u0e37\u0e49\u0e2d": 4575, "\u0e40\u0e2b\u0e25\u0e48\u0e32\u0e19\u0e31\u0e49\u0e19": 4576, "\u9ed1\u4f53": 4577, "\u592a\u591a": 4578, "\u80fd\u591f": 4579, "\u6c38": 4580, "\u0e2b\u0e21\u0e32\u0e22\u0e40\u0e25\u0e02": 4581, "\u4ee5\u70ba": 4582, "\u0e1c\u0e21\u0e2b\u0e21\u0e32\u0e22\u0e16\u0e36\u0e07": 4583, "\u0e43\u0e2b\u0e49\u0e14\u0e35": 4584, "\u662f\u5427": 4585, "\u0e44\u0e21\u0e04\u0e4c": 4586, "\u0e23\u0e32\u0e22\u0e01\u0e32\u0e23": 4587, "HBE": 4588, "\u53f8": 4589, "\u2581Well": 4590, "\u0e40\u0e01\u0e25": 4591, "\u0e18\u0e32": 4592, "\u90e8\u5206": 4593, "\u0e1d\u0e32\u0e01": 4594, "\u0e25\u0e34\u0e07": 4595, "\u0e34\u0e25": 4596, "\u0e2d\u0e23\u0e48\u0e2d\u0e22": 4597, "\u0e2b\u0e21\u0e39": 4598, "\u63d0\u4f9b": 4599, "\u7ecf": 4600, "\u0e0a\u0e48\u0e27\u0e22\u0e40\u0e2b\u0e25\u0e37\u0e2d": 4601, "po": 4602, "\u2581kill": 4603, "\u4f60\u5df2\u7ecf": 4604, "\u5fd8": 4605, "\u75af": 4606, "\u0e44\u0e21\u0e48\u0e23\u0e39\u0e49\u0e08\u0e31\u0e01": 4607, "808080}": 4608, "\u9047": 4609, "\u4e0d\u904e": 4610, "\u0e01\u0e32\u0e23\u0e4c": 4611, "\u0e43\u0e0a\u0e49\u0e0a\u0e35\u0e27\u0e34\u0e15": 4612, "\u0e15\u0e31\u0e27\u0e15\u0e19": 4613, "\u4f60\u77e5\u9053\u6211": 4614, "40": 4615, "\u0e04\u0e27\u0e32\u0e21\u0e2a\u0e31\u0e21\u0e1e\u0e31\u0e19\u0e18\u0e4c": 4616, "\u0e1c\u0e34\u0e14\u0e1e\u0e25\u0e32\u0e14": 4617, "\u0e15\u0e31\u0e14\u0e2a\u0e34\u0e19": 4618, "\u89c1\u9762": 4619, "\u0e41\u0e15\u0e48\u0e40\u0e23\u0e32": 4620, "\u2014": 4621, "\u5c06\u4f1a": 4622, "\u0e40\u0e18\u0e2d\u0e44\u0e14\u0e49": 4623, "\u6551\u547d": 4624, "\u8f6e": 4625, "\u0e40\u0e18\u0e2d\u0e01\u0e4d\u0e32\u0e25\u0e31\u0e07": 4626, "\u7684\u5927": 4627, "\u77e5\u9053\u5417": 4628, "\u0e2b\u0e25\u0e31\u0e07\u0e08\u0e32\u0e01\u0e19\u0e31\u0e49\u0e19": 4629, "\u0e21\u0e35\u0e1a\u0e32\u0e07\u0e2d\u0e22\u0e48\u0e32\u0e07": 4630, "\u0e2d\u0e32\u0e22": 4631, "\u0e2b\u0e19\u0e48\u0e30": 4632, "\u53bb\u54ea": 4633, "\u4e0d\u77e5": 4634, "\u96e3": 4635, "\u6211\u624d": 4636, "\u4f60\u8fd8\u597d\u5417": 4637, "\u4e5f\u4e0d\u4f1a": 4638, "\u0e23\u0e32\u0e0a\u0e34\u0e19\u0e35": 4639, "uck": 4640, "\u5b83\u7684": 4641, "\u771f\u597d": 4642, "\u6216\u662f": 4643, "\u539f\u56e0": 4644, "\u0e0b\u0e49\u0e32\u0e22": 4645, "ang": 4646, "\u4f19": 4647, "\u6b20": 4648, "\u9ad4": 4649, "\u6709\u5f88\u591a": 4650, "\u4ed6\u4eec\u5728": 4651, "\u6ca1\u6cd5": 4652, "\u2581\u0e0a\u0e31\u0e48\u0e27\u0e42\u0e21\u0e07": 4653, "\u4f9d": 4654, "\u0e1b\u0e23\u0e31\u0e1a": 4655, "\u0e40\u0e14\u0e32": 4656, "\u81ea\u7136": 4657, "\u0e40\u0e14\u0e25": 4658, "\u80dc": 4659, "\u0e27\u0e34\u0e40\u0e28\u0e29": 4660, "\u4e2a\u6708": 4661, "\u4e0d\u559c\u6b22": 4662, "\u0e15\u0e23\u0e32": 4663, "\u0e40\u0e0a\u0e48\u0e19\u0e19\u0e31\u0e49\u0e19": 4664, "\u0e1b\u0e23\u0e30\u0e2b\u0e25\u0e32\u0e14": 4665, "\u5728\u90a3\u513f": 4666, "\u6c89": 4667, "\u60a8\u7684": 4668, "\u4ee5\u53ca": 4669, "\u4e0d\u5bf9": 4670, "\u0e21\u0e32\u0e40\u0e25\u0e22": 4671, "\u9650": 4672, "\u0e02\u0e22\u0e30": 4673, "\u6218\u6597": 4674, "\u8fd9\u4e48\u591a": 4675, "\u0e07\u0e04\u0e4c": 4676, "\u2581j": 4677, "\u6211\u771f": 4678, "\u0e1b\u0e23\u0e30\u0e42\u0e22\u0e0a\u0e19\u0e4c": 4679, "\u0e2b\u0e22\u0e34\u0e1a": 4680, "\u0e40\u0e18\u0e11\u0e40\u0e19": 4681, "\u8b93\u4f60": 4682, "\u0e25\u0e30\u0e04\u0e23": 4683, "\u8655": 4684, "\u4e4b\u4e00": 4685, "\u0e04\u0e38\u0e13\u0e1e\u0e39\u0e14": 4686, "\u6e96\u5099": 4687, "\u2581never": 4688, "\u4f4f\u4e86": 4689, "\u0e44\u0e1b\u0e01\u0e31\u0e19\u0e40\u0e16\u0e2d\u0e30": 4690, "\u6709\u8da3": 4691, "\u0e04\u0e23": 4692, "\u72fc": 4693, "\u6211\u76f8\u4fe1": 4694, "\u4f4f\u624b": 4695, "60": 4696, "\u0e06\u0e48\u0e32\u0e40\u0e02\u0e32": 4697, "\u4ee4\u4eba": 4698, "\u2581\u0e1a\u0e32\u0e07\u0e17\u0e35": 4699, "\u0e08\u0e30\u0e44\u0e14\u0e49\u0e23\u0e31\u0e1a": 4700, "\u5dee\u4e0d\u591a": 4701, "\u65e2\u7136": 4702, "\u2581\u5f53\u7136": 4703, "\u65e9\u5c31": 4704, "\u5730\u72f1": 4705, "\u548c\u5979": 4706, "Re": 4707, "\u0e2d\u0e30\u0e44\u0e23\u0e1a\u0e49\u0e32\u0e07": 4708, "\u0e09\u0e31\u0e19\u0e40\u0e25\u0e22": 4709, "\u0e17\u0e31\u0e49\u0e07\u0e04\u0e39\u0e48": 4710, "\u0e17\u0e2d\u0e21": 4711, "\u9057": 4712, "\u062a": 4713, "\u0e40\u0e2d\u0e4a\u0e22": 4714, "\u653e\u677e": 4715, "\u2581U": 4716, "\u542c\u89c1": 4717, "\u610f\u601d": 4718, "\u0e17\u0e31\u0e49\u0e07\u0e2b\u0e21\u0e14\u0e17\u0e35\u0e48": 4719, "\u7684\u90a3\u4e2a": 4720, "\u0e16\u0e39\u0e01\u0e08\u0e31\u0e1a": 4721, "\u606f": 4722, "\u533b": 4723, "\u0e46\u0e46": 4724, "\u0e21\u0e32\u0e14\u0e49\u0e27\u0e22": 4725, "\u0e14\u0e2d\u0e01": 4726, "\u0e1e\u0e27\u0e01\u0e40\u0e23\u0e32\u0e08\u0e30": 4727, "\u0e01\u0e31\u0e19\u0e41\u0e25\u0e49\u0e27": 4728, "\u5173\u5fc3": 4729, "\u0e47\u0e17": 4730, "\u0e40\u0e18\u0e12\u0e40\u0e19": 4731, "12\\": 4732, "\u5f1f": 4733, "\u2581\u5443": 4734, "\u0e44\u0e2b\u0e25": 4735, "\u0e0a\u0e39": 4736, "\u0e19\u0e35\u0e49\u0e40\u0e1b\u0e47\u0e19": 4737, "\u0e40\u0e02\u0e32\u0e15\u0e49\u0e2d\u0e07": 4738, "\u805a": 4739, "\u547d\u4ee4": 4740, "\u4eae": 4741, "\u5eb7": 4742, "\u0e21\u0e31\u0e07\u0e01\u0e23": 4743, "\u2581should": 4744, "\u0e23\u0e1a\u0e01\u0e27\u0e19": 4745, "\u2581\u6211\u4e0d": 4746, "\u6bcf\u6b21": 4747, "\u503c": 4748, "\u7262": 4749, "\u754c": 4750, "110}": 4751, "\u0e22\u0e38": 4752, "\u7684\u539f\u56e0": 4753, "\u0e1c\u0e21\u0e44\u0e1b": 4754, "\u0e0b\u0e48\u0e2d\u0e21": 4755, "\u5e2b": 4756, "\u652f\u6301": 4757, "\u0e42\u0e04\u0e23": 4758, "\u0e2d\u0e32\u0e08\u0e40\u0e1b\u0e47\u0e19": 4759, "\u72af\u7f6a": 4760, "\u2581\u800c": 4761, "\u2581n": 4762, "\u0e17\u0e4d\u0e32\u0e44\u0e21\u0e04\u0e38\u0e13\u0e16\u0e36\u0e07": 4763, "\u7279\u5de5": 4764, "\u0e27\u0e34\u0e18\u0e35\u0e01\u0e32\u0e23": 4765, "ever": 4766, "\u5fcd": 4767, "\u54ac": 4768, "\u5c5e\u4e8e": 4769, "\u0e2b\u0e2d": 4770, "\u0e02\u0e31\u0e49\u0e19": 4771, "\u0e2a\u0e32\u0e27\u0e46": 4772, "\u0e1a\u0e2d\u0e01\u0e04\u0e38\u0e13": 4773, "\u904e\u4f86": 4774, "\u662f\u5bf9\u7684": 4775, "ment": 4776, "\u0e21\u0e35\u0e14": 4777, "\u4f60\u600e\u4e48\u77e5\u9053": 4778, "\u2581really": 4779, "\u7b49\u4f60": 4780, "\u0e19\u0e31\u0e48\u0e07\u0e25\u0e07": 4781, "\u6211\u8981\u53bb": 4782, "\u0e14\u0e35\u0e17\u0e35\u0e48\u0e2a\u0e38\u0e14": 4783, "\u788e": 4784, "\u0e0b\u0e49\u0e4d\u0e32": 4785, "\u0e40\u0e2d\u0e40\u0e25\u0e19\u0e48\u0e32": 4786, "\u0e02\u0e49\u0e32\u0e07\u0e25\u0e48\u0e32\u0e07": 4787, "\u0e40\u0e25\u0e2d\u0e23\u0e4c": 4788, "\u0e40\u0e14\u0e19": 4789, "\u4e00\u5b9a\u662f": 4790, "\u0e07\u0e32\u0e19\u0e19\u0e35\u0e49": 4791, "\u0e1e\u0e23\u0e49\u0e2d\u0e21\u0e01\u0e31\u0e1a": 4792, "\u6211\u7236\u4eb2": 4793, "\u0e08\u0e23\u0e34\u0e07\u0e46\u0e41\u0e25\u0e49\u0e27": 4794, "\u751c": 4795, "\u4f60\u8bf4\u4ec0\u4e48": 4796, "\u0e40\u0e18\u0e2d\u0e21\u0e35": 4797, "\u0e23\u0e39\u0e49\u0e2a\u0e36\u0e01\u0e27\u0e48\u0e32": 4798, "\u0e44\u0e1b\u0e40\u0e2d\u0e32": 4799, "\u0e2d\u0e22\u0e48\u0e32\u0e07\u0e2d\u0e37\u0e48\u0e19": 4800, "\u0e44\u0e21\u0e48\u0e2d\u0e2d\u0e01": 4801, "\u5230\u4f60": 4802, "\u0e15\u0e38": 4803, "\u4f60\u8be5": 4804, "\u0e17\u0e35\u0e48\u0e44\u0e21\u0e48": 4805, "\u0e40\u0e2d\u0e49\u0e22": 4806, "\u0e01\u0e47\u0e04\u0e07": 4807, "\u82e6": 4808, "\u50b7": 4809, "\u9752": 4810, "\u5377": 4811, "\u0e2a\u0e15\u0e4c": 4812, "\u7ed9\u4e86": 4813, "\u0e44\u0e21\u0e48\u0e40\u0e1b\u0e47\u0e19": 4814, "\u0e40\u0e25\u0e47\u0e01\u0e19\u0e49\u0e2d\u0e22": 4815, "\u4ed6\u4eec\u662f": 4816, "\u0e08\u0e2d\u0e14": 4817, "\u65e9\u4e0a": 4818, "\u0e40\u0e0a\u0e37\u0e48\u0e2d\u0e43\u0e08": 4819, "\u547c\u5438": 4820, "\u5435": 4821, "\u64ad": 4822, "\u842c": 4823, "\u0e2b\u0e25\u0e38\u0e14": 4824, "\u770b\u8fc7": 4825, "\u0e1e\u0e19\u0e31\u0e19": 4826, "\u0e40\u0e25\u0e27": 4827, "\u7761\u89c9": 4828, "\u6211\u4eec\u4e0d\u80fd": 4829, "\u79fb": 4830, "\u0e27\u0e2d\u0e25": 4831, "\u7f3a": 4832, "\u7b54\u6848": 4833, "\u4e00\u65e6": 4834, "\u0e40\u0e1a\u0e23": 4835, "\u0e2b\u0e27\u0e32\u0e19": 4836, "\u0e19\u0e21": 4837, "\u0e19\u0e49\u0e4d\u0e32\u0e21\u0e31\u0e19": 4838, "\u0e27\u0e34\u0e2a": 4839, "\u9519\u8bef": 4840, "\u0e19\u0e32\u0e21": 4841, "ity": 4842, "\u76d1": 4843, "\u300d": 4844, "Elena": 4845, "\u0e40\u0e2d\u0e2a": 4846, "\u83b7": 4847, "\u2581\u4f60\u5c31": 4848, "\u0e19\u0e35\u0e48\u0e44\u0e07": 4849, "\u0e23\u0e31\u0e1a\u0e43\u0e0a\u0e49": 4850, "\u9ea6\u514b": 4851, "\u8239\u957f": 4852, "\u0e4a\u0e14": 4853, "\u591a\u8c22": 4854, "\u536b": 4855, "\u0e17\u0e2d\u0e14": 4856, "\u544a\u8a34": 4857, "\u4e00\u5e74": 4858, "\u602a\u7269": 4859, "\u8fd9\u5bb6\u4f19": 4860, "\u0e47\u0e2d\u0e01": 4861, "\u0e14\u0e35\u0e41\u0e25\u0e49\u0e27": 4862, "\u0e17\u0e4d\u0e32\u0e44\u0e21\u0e16\u0e36\u0e07": 4863, "\u0e21\u0e31\u0e48\u0e19\u0e43\u0e08": 4864, "\u0e17\u0e23\u0e21\u0e32\u0e19": 4865, "\u0e1d\u0e35\u0e21\u0e37\u0e2d": 4866, "\u5c45\u7136": 4867, "\u2581\u0e40\u0e04\u0e49\u0e32": 4868, "\u0e1c\u0e21\u0e0a\u0e2d\u0e1a": 4869, "\u2581\u0e2a\u0e34\u0e48\u0e07\u0e17\u0e35\u0e48": 4870, "\u2581\u957f\u5b98": 4871, "\u9664\u975e": 4872, "\u0e41\u0e27": 4873, "\u0e2a\u0e4d\u0e32\u0e2b\u0e23\u0e31\u0e1a\u0e04\u0e38\u0e13": 4874, "\u9189": 4875, "\u0e01\u0e4d\u0e32\u0e2b\u0e19\u0e14": 4876, "\u804a": 4877, "\u2581into": 4878, "ster": 4879, "\u6bcf\u4e2a": 4880, "\u4e86\u4f60": 4881, "\u4e00\u904d": 4882, "\u0e04\u0e27\u0e32\u0e21\u0e1d\u0e31\u0e19": 4883, "\u0e16\u0e39\u0e01\u0e06\u0e48\u0e32": 4884, "\u79bb\u5f00\u8fd9\u91cc": 4885, "so": 4886, "\u0e40\u0e1b\u0e47\u0e19\u0e44\u0e1b\u0e44\u0e21\u0e48\u0e44\u0e14\u0e49": 4887, "\u673a\u5668": 4888, "\u0e23\u0e2d\u0e07": 4889, "\u67d0": 4890, "\u0e40\u0e23\u0e32\u0e17\u0e4d\u0e32": 4891, "\u0e1a\u0e2d\u0e25": 4892, "\u5f53\u6211": 4893, "\u70ba\u4e86": 4894, "\u6211\u53ea\u662f\u60f3": 4895, "\u6211\u8981\u4f60": 4896, "\u0e16\u0e49\u0e32\u0e1c\u0e21": 4897, "\u8336": 4898, "\u0e17\u0e35\u0e48\u0e40\u0e01\u0e34\u0e14\u0e02\u0e36\u0e49\u0e19": 4899, "ow": 4900, "\u5c31\u8fd9\u4e48": 4901, "\u0e44\u0e01\u0e48": 4902, "\u0e40\u0e2b\u0e47\u0e19\u0e14\u0e49\u0e27\u0e22": 4903, "\u0e43\u0e04\u0e23\u0e2a\u0e31\u0e01\u0e04\u0e19": 4904, "\u0e44\u0e1b\u0e17\u0e32\u0e07": 4905, "\u0e41\u0e15\u0e48\u0e40\u0e18\u0e2d": 4906, "\u73b0\u573a": 4907, "\u771f\u7684\u5f88": 4908, "\u6b63\u662f": 4909, "\u0e1a\u0e38\u0e01": 4910, "\u6709\u53ef\u80fd": 4911, "\u75c5\u4eba": 4912, "\u0e21\u0e30": 4913, "\u6478": 4914, "\u9014": 4915, "\u0e25\u0e30\u0e01\u0e31\u0e19": 4916, "\u0e25\u0e38\u0e01": 4917, "\u5982\u679c\u6211\u4eec": 4918, "\u0e2b\u0e32\u0e17\u0e32\u0e07": 4919, "\u8001\u5927": 4920, "\u0e0b\u0e30\u0e17\u0e35": 4921, "\u901a\u77e5": 4922, "\u0e08\u0e30\u0e01\u0e25\u0e31\u0e1a\u0e21\u0e32": 4923, "\u2581\u0e41\u0e15\u0e48\u0e09\u0e31\u0e19": 4924, "\u7236": 4925, "\u0e40\u0e2a\u0e35\u0e22\u0e43\u0e08\u0e14\u0e49\u0e27\u0e22": 4926, "\u0e40\u0e1e\u0e23\u0e32\u0e30\u0e09\u0e31\u0e19": 4927, "\u9762\u524d": 4928, "\u0e0b\u0e49\u0e2d\u0e21": 4929, "\u5229\u7528": 4930, "\u90a3\u65f6": 4931, "\u0e40\u0e18\u0e02": 4932, "\u610f\u5916": 4933, "\u4f60\u6700\u597d": 4934, "\u0e06\u0e48\u0e32\u0e04\u0e19": 4935, "\u7b7e": 4936, "\u0e27\u0e48\u0e32\u0e1c\u0e21": 4937, "\u0e1e\u0e22\u0e32\u0e1a\u0e32\u0e25": 4938, "\u8d5e": 4939, "\u75af\u72c2": 4940, "\u0e28\u0e36\u0e01": 4941, "\u6bba\u4e86": 4942, "\u2581ro": 4943, ".\"": 4944, "\u0e1d\u0e31\u0e48\u0e07": 4945, "\u76fe": 4946, "\u0e40\u0e04\u0e22\u0e40\u0e2b\u0e47\u0e19": 4947, "\u6211\u4eec\u73b0\u5728": 4948, "\u8981\u505a": 4949, "\u0e1a\u0e2d\u0e01\u0e2d\u0e30\u0e44\u0e23": 4950, "\u0e04\u0e38\u0e13\u0e14\u0e39": 4951, "\u677e": 4952, "\u0e44\u0e21\u0e48\u0e40\u0e2b\u0e21\u0e37\u0e2d\u0e19": 4953, "\u0e40\u0e18\u0e0b\u0e40\u0e18": 4954, "\u0e1e\u0e27\u0e01\u0e41\u0e01": 4955, "\u9ad8\u5174": 4956, "\u51f6\u624b": 4957, "\u0e36\u0e07": 4958, "\u5be6": 4959, "\u4ea1": 4960, "\u4f60\u9084": 4961, "\u0e1c\u0e21\u0e40\u0e2b\u0e47\u0e19": 4962, "\u0e40\u0e23\u0e32\u0e22\u0e31\u0e07": 4963, "\u008c": 4964, "\u5efa\u8bae": 4965, "\u4ed6\u6709": 4966, "\u0e40\u0e08\u0e2d\u0e23\u0e4c": 4967, "\u0e01\u0e47\u0e40\u0e25\u0e22": 4968, "\u7206\u70b8": 4969, "\u2581am": 4970, "lu": 4971, "\u53eb\u4ec0\u4e48": 4972, "\u7535\u8111": 4973, "\u5979\u8bf4": 4974, "\u7ecf\u5386": 4975, "de": 4976, "\u65b0\u95fb": 4977, "\u0e21\u0e37\u0e2d\u0e16\u0e37\u0e2d": 4978, "\u0e44\u0e14\u0e49\u0e40\u0e2b\u0e47\u0e19": 4979, "\u0e19\u0e48\u0e30\u0e40\u0e2b\u0e23\u0e2d": 4980, "\u5c55": 4981, "\u0e22\u0e38\u0e04": 4982, "\u547c": 4983, "\u0e2d\u0e22\u0e39\u0e48\u0e15\u0e23\u0e07\u0e19\u0e35\u0e49": 4984, "\u2581\u53ea\u662f": 4985, "row": 4986, "\u5bc4": 4987, "\u03a4": 4988, "\u72ec": 4989, "\u0e2d\u0e40\u0e21\u0e23\u0e34\u0e01\u0e31\u0e19": 4990, "\u80f8": 4991, "\u0e41\u0e1a\u0e1a\u0e27\u0e48\u0e32": 4992, "\u2581dr": 4993, "\u0e2d\u0e22\u0e48\u0e32\u0e43\u0e2b\u0e49": 4994, "\u0e41\u0e23": 4995, "\u0e2d\u0e22\u0e39\u0e48\u0e19\u0e30": 4996, "To": 4997, "\u2581\u0e08\u0e2d\u0e2b\u0e4c\u0e19": 4998, "\u0e2b\u0e19\u0e32": 4999, "\u0e2a\u0e21\u0e32\u0e0a\u0e34\u0e01": 5000, "\u0e40\u0e1b\u0e47\u0e19\u0e22\u0e31\u0e07\u0e44\u0e07": 5001, "\u0e02\u0e49\u0e2d\u0e15\u0e01\u0e25\u0e07": 5002, "\u0e27\u0e39": 5003, "\u6d3b\u7740": 5004, "\u751f\u6c14": 5005, "\u6211\u4fdd\u8bc1": 5006, "red": 5007, "\u6211\u7ed9\u4f60": 5008, "\u0e40\u0e08\u0e47\u0e14": 5009, "\u4f8b": 5010, "\u2581find": 5011, "\u5fd8\u8bb0": 5012, "\u2581\u6ca1\u9519": 5013, "\u6211\u8ddf": 5014, "\u0e27\u0e48\u0e32\u0e44\u0e07\u0e19\u0e30": 5015, "\u0e04\u0e38": 5016, "\u5f00\u95e8": 5017, "\u8fd9\u6837\u505a": 5018, "\u0e2b\u0e48\u0e27\u0e07": 5019, "\u0e25\u0e2d\u0e23\u0e4c\u0e14": 5020, "\u8fd8\u4e0d": 5021, "\u76d8": 5022, "\u0e40\u0e0b\u0e35\u0e22": 5023, "\u0e44\u0e02": 5024, "\u8d1f": 5025, "\u0e40\u0e1b\u0e25\u0e35\u0e48\u0e22\u0e19\u0e44\u0e1b": 5026, "\u4e5f\u4e0d\u662f": 5027, "\u0e08\u0e48\u0e32": 5028, "\u0e44\u0e1b\u0e17\u0e35\u0e48\u0e19\u0e31\u0e48\u0e19": 5029, "\u52a8\u7269": 5030, "\u5e78\u8fd0": 5031, "\u2581\u5148\u751f": 5032, "\u908a": 5033, "go": 5034, "\u0e25\u0e32\u0e01\u0e48\u0e2d\u0e19": 5035, "\u2581Hey": 5036, "\u0e1f\u0e23\u0e35": 5037, "\u5973\u670b\u53cb": 5038, "\u80fd\u529b": 5039, "\u5987": 5040, "\u70c8": 5041, "\u0e42\u0e18\u0e48": 5042, "\u56e0\u6b64": 5043, "\u7684\u8f66": 5044, "\u0e25\u0e34\u0e2a": 5045, "\u7a2e": 5046, "\u0e40\u0e2d\u0e32\u0e21\u0e31\u0e19": 5047, "\u0e40\u0e2b\u0e23\u0e2d\u0e04\u0e30": 5048, "\u0e19\u0e32\u0e22\u0e04\u0e34\u0e14\u0e27\u0e48\u0e32": 5049, "\u4e49": 5050, "\u9500": 5051, "ph": 5052, "\u2581okay": 5053, "\u4fe9": 5054, "\u2581\u0e01\u0e4d\u0e32\u0e25\u0e31\u0e07": 5055, "\u0e1c\u0e21\u0e40\u0e04\u0e22": 5056, "\u8ba9\u4eba": 5057, "\u0e41\u0e19\u0e30\u0e19\u0e4d\u0e32": 5058, "\u0e48\u0e30": 5059, "\u0e01\u0e31\u0e19\u0e40\u0e25\u0e22": 5060, "\u0e0a\u0e27\u0e19": 5061, "\u0e2d\u0e32\u0e08\u0e08\u0e30\u0e40\u0e1b\u0e47\u0e19": 5062, "\u4f19\u8ba1\u4eec": 5063, "\u987a": 5064, "\u2581Come": 5065, "\u0e25\u0e38\u0e22": 5066, "\u4eca": 5067, "\u0e40\u0e1b\u0e47\u0e19\u0e15\u0e31\u0e27": 5068, "\u2581sh": 5069, "side": 5070, "\u0e02\u0e32\u0e27": 5071, "\u0e08\u0e30\u0e1e\u0e32": 5072, "\u6211\u5011\u7684": 5073, "\u4e00\u4ef6\u4e8b": 5074, "\u6230": 5075, "\u0e41\u0e2b\u0e27\u0e19": 5076, "Lo": 5077, "\u0e2a\u0e2d\u0e07\u0e2a\u0e32\u0e21": 5078, "\u0e40\u0e18\u0e01": 5079, "\u0e40\u0e2a\u0e49\u0e19\u0e17\u0e32\u0e07": 5080, "\u521b": 5081, "\u6212": 5082, "\u96e2": 5083, "\u0e41\u0e15\u0e48\u0e21\u0e31\u0e19": 5084, "\u0e41\u0e25\u0e30\u0e15\u0e2d\u0e19\u0e19\u0e35\u0e49": 5085, "\u0e41\u0e25\u0e49\u0e27\u0e19\u0e35\u0e48": 5086, "\u65b9\u6cd5": 5087, "\u2581De": 5088, "act": 5089, "\u8fd9\u662f\u6211": 5090, "\u600e\u4e48\u8bf4": 5091, "\u6446": 5092, "\u0e44\u0e1b\u0e15\u0e32\u0e21": 5093, "\u6211\u53ea\u60f3": 5094, "\u4e0a\u6b21": 5095, "\u0e15\u0e31\u0e27\u0e40\u0e02\u0e32": 5096, "\u2581\u9019": 5097, "\u0e2d\u0e35\u0e01\u0e15\u0e48\u0e2d\u0e44\u0e1b": 5098, "\u0e40\u0e25\u0e22\u0e40\u0e2b\u0e23\u0e2d": 5099, "\u0e17\u0e35\u0e40\u0e14\u0e35\u0e22\u0e27": 5100, "\u53bb\u54ea\u513f": 5101, "\u968a": 5102, "\u5931\u8e2a": 5103, "\u0e25\u0e48\u0e2d": 5104, "\u0e40\u0e18\u0e07": 5105, "\u0e21\u0e32\u0e01\u0e40\u0e01\u0e34\u0e19\u0e44\u0e1b": 5106, "our": 5107, "if": 5108, "\u0e2d\u0e22\u0e39\u0e48\u0e15\u0e23\u0e07\u0e19\u0e31\u0e49\u0e19": 5109, "\u0e1b\u0e23\u0e30\u0e27\u0e31\u0e15\u0e34": 5110, "\u8d6b": 5111, "\u5c41\u80a1": 5112, "\u0e21\u0e31\u0e19\u0e21\u0e32": 5113, "\u4e86\u6211\u7684": 5114, "14\\": 5115, "\u4eba\u90fd": 5116, "\u5b50\u5f39": 5117, "\u4e0d\u662f\u6211": 5118, "\u95ea": 5119, "\u0e2b\u0e49\u0e2d\u0e07\u0e19\u0e49\u0e4d\u0e32": 5120, "\u6316": 5121, "\u723d": 5122, "08\\": 5123, "\u0e44\u0e07\u0e25\u0e48\u0e30": 5124, "\u2581\u0e1f\u0e31\u0e07\u0e19\u0e30": 5125, "\u2581\u0e15\u0e2d\u0e19\u0e17\u0e35\u0e48": 5126, "\u0e43\u0e19\u0e42\u0e25\u0e01": 5127, "\u2581k": 5128, "\u0e2b\u0e25\u0e32\u0e22\u0e1b\u0e35": 5129, "\u4e00\u822c": 5130, "\u0e19\u0e34\u0e48\u0e07": 5131, "ner": 5132, "16\\": 5133, "\u2581too": 5134, "\u0e01\u0e32\u0e23\u0e4c\u0e14": 5135, "\u0e04\u0e19\u0e2d\u0e37\u0e48\u0e19\u0e46": 5136, "\u0e1e\u0e49\u0e19": 5137, "\u0e41\u0e16\u0e27\u0e19\u0e35\u0e49": 5138, "\u0e0a\u0e31\u0e14": 5139, "\u0e40\u0e18\u0e01\u0e40\u0e18": 5140, "\u795d": 5141, "\u2581work": 5142, "\u8b8a": 5143, "\u7d93": 5144, "\u0e1a\u0e31\u0e07\u0e04\u0e31\u0e1a": 5145, "\u57cb": 5146, "\u0e08\u0e4d\u0e32\u0e40\u0e1b\u0e47\u0e19": 5147, "\u4e5f\u6ca1\u6709": 5148, "\u0e44\u0e21\u0e48\u0e19\u0e32\u0e19": 5149, "\u552f\u4e00\u7684": 5150, "\u9152\u5427": 5151, "\u2581pro": 5152, "ac": 5153, "\u88ad\u51fb": 5154, "\u0e17\u0e34\u0e28": 5155, "\u8fd9\u91cc\u662f": 5156, "\u6211\u513f\u5b50": 5157, "\u0e43\u0e19\u0e2a\u0e34\u0e48\u0e07\u0e17\u0e35\u0e48": 5158, "\u0e08\u0e4d\u0e32\u0e19\u0e27\u0e19": 5159, "\u0e40\u0e08\u0e49\u0e32\u0e08\u0e30": 5160, "\u2581\u0e09\u0e31\u0e19\u0e15\u0e49\u0e2d\u0e07": 5161, "\u0e1b\u0e23\u0e30\u0e2a\u0e32\u0e17": 5162, "\u4f60\u662f\u4e2a": 5163, "\u5f92": 5164, "ance": 5165, "\u2581\u0e41\u0e0b\u0e21": 5166, "\u0e23\u0e39\u0e49\u0e44\u0e2b\u0e21\u0e27\u0e48\u0e32": 5167, "ts": 5168, "\u5e6b": 5169, "\u8eab\u4f53": 5170, "\u8ffd\u8e2a": 5171, "\u0e40\u0e2d\u0e32\u0e21\u0e32": 5172, "\u7ebf\u7d22": 5173, "\u0e40\u0e09\u0e22\u0e46": 5174, "\u2581\u0e16\u0e49\u0e32\u0e04\u0e38\u0e13": 5175, "\u0e01\u0e31\u0e1a\u0e21\u0e31\u0e19": 5176, "\u0e17\u0e4d\u0e32\u0e07\u0e32\u0e19\u0e43\u0e2b\u0e49": 5177, "\u2581\u0e14\u0e23": 5178, "\u6c42\u4f60": 5179, "\u0e02\u0e31\u0e14": 5180, "\u73b0\u5728\u5c31": 5181, "\u2581\u5bf9\u4e0d\u8d77": 5182, "\u827e\u7c73": 5183, "\u0e01\u0e49\u0e2d\u0e19": 5184, "\u0e41\u0e21\u0e27": 5185, "\u800c\u662f": 5186, "\u51fa\u6765\u7684": 5187, "\u4e0d\u51c6": 5188, "\u4f9b": 5189, "\u6000\u7591": 5190, "\u8001\u677f": 5191, "\u6211\u660e\u767d": 5192, "\u0e4a\u0e30": 5193, "\u0e04\u0e23\u0e31\u0e49\u0e07\u0e19\u0e35\u0e49": 5194, "\u0e2d\u0e49\u0e32": 5195, "\u5c31\u597d": 5196, "\u0e2b\u0e48\u0e32": 5197, "\u2581other": 5198, "\u5019": 5199, "\u4e00\u4efd": 5200, "\u5e74\u8f7b": 5201, "\u0e27\u0e2d\u0e19": 5202, "\u5feb\u4e50": 5203, "\u6d88\u5931": 5204, "\u0e14\u0e27\u0e07": 5205, "\u8a93": 5206, "\u0e15\u0e37\u0e48\u0e19\u0e40\u0e15\u0e49\u0e19": 5207, "\u5e7e": 5208, "\u75c7": 5209, "Sheldon": 5210, "\u0e01\u0e23\u0e30\u0e14\u0e39\u0e01": 5211, "\u7684\u6545\u4e8b": 5212, "\u0e09\u0e31\u0e19\u0e44\u0e21\u0e48\u0e04\u0e34\u0e14\u0e27\u0e48\u0e32": 5213, "\u2581doing": 5214, "\u6709\u4e8b": 5215, "\u0e21\u0e35\u0e25\u0e39\u0e01": 5216, "\u6740\u4e86\u4ed6": 5217, "\u0e09\u0e31\u0e19\u0e40\u0e2a\u0e35\u0e22\u0e43\u0e08": 5218, "\u2581\u0e21\u0e31\u0e19\u0e01\u0e47": 5219, "\u0e04\u0e34\u0e21": 5220, "\u0e02\u0e2d\u0e07\u0e25\u0e39\u0e01": 5221, "\u73cd": 5222, "\u63d2": 5223, "\u0e44\u0e14\u0e49\u0e14\u0e35": 5224, "\u0e40\u0e14\u0e35\u0e4b\u0e22\u0e27\u0e19\u0e30": 5225, "Yeah": 5226, "\u9996\u5148": 5227, "\u0e25\u0e14\u0e4c": 5228, "\u7f16": 5229, "res": 5230, "\u6211\u770b\u5230": 5231, "Who": 5232, "\u0e44\u0e14\u0e49\u0e1c\u0e25": 5233, "\u6211\u4eec\u5df2\u7ecf": 5234, "\u4f60\u8ddf": 5235, "\u0e2a\u0e34\u0e17\u0e18\u0e34": 5236, "\u793a": 5237, "\u9ec4": 5238, "\u0e40\u0e01\u0e34\u0e14\u0e2d\u0e30\u0e44\u0e23\u0e02\u0e36\u0e49\u0e19\u0e01\u0e31\u0e1a": 5239, "\u0e40\u0e14\u0e27\u0e34\u0e14": 5240, "\u0e2b\u0e19\u0e48\u0e2d\u0e22\u0e19\u0e30": 5241, "\u0e0b\u0e38": 5242, "\u0e2a\u0e34\u0e48\u0e07\u0e17\u0e35\u0e48\u0e40\u0e01\u0e34\u0e14\u0e02\u0e36\u0e49\u0e19": 5243, "\u7559\u5728": 5244, "\u4f60\u559c\u6b22": 5245, "\u62f3": 5246, "\u7cd6": 5247, "\u0e2a\u0e31\u0e21\u0e1c\u0e31\u0e2a": 5248, "\u0e43\u0e19\u0e02\u0e13\u0e30\u0e17\u0e35\u0e48": 5249, "\u51c6\u5907\u597d\u4e86": 5250, "\u5979\u4f1a": 5251, "\u2581\u4f60\u597d": 5252, "\u0e21\u0e35\u0e0a\u0e35\u0e27\u0e34\u0e15\u0e2d\u0e22\u0e39\u0e48": 5253, "17": 5254, "\u4f60\u8bf4\u7684": 5255, "\u0e44\u0e21\u0e48\u0e2a\u0e19\u0e43\u0e08": 5256, "\u0e15\u0e01\u0e43\u0e08": 5257, "\u0e2d\u0e35\u0e01\u0e04\u0e19": 5258, "\u5167": 5259, "\u0e43\u0e19\u0e40\u0e21\u0e37\u0e2d\u0e07": 5260, "\u8868\u73b0": 5261, "\u0e44\u0e21\u0e48\u0e19\u0e48\u0e32": 5262, "\u8bc6": 5263, "\u0e1d\u0e19": 5264, "\u0e1c\u0e34\u0e14\u0e2b\u0e27\u0e31\u0e07": 5265, "\u0e43\u0e19\u0e15\u0e31\u0e27": 5266, "\u666f": 5267, "\u5c45": 5268, "\u4f69": 5269, "\u5b89\u9759": 5270, "\u0e43\u0e2b\u0e49\u0e02\u0e49\u0e32": 5271, "\u0e19\u0e32\u0e19\u0e41\u0e04\u0e48\u0e44\u0e2b\u0e19": 5272, "\u786e\u8ba4": 5273, "\u674e": 5274, "\u0e0a\u0e37\u0e48\u0e2d\u0e2d\u0e30\u0e44\u0e23": 5275, "\u0e40\u0e1b\u0e47\u0e19\u0e2a\u0e34\u0e48\u0e07\u0e17\u0e35\u0e48": 5276, "\u654c\u4eba": 5277, "\u0e01\u0e25\u0e31\u0e1a\u0e44\u0e1b\u0e17\u0e35\u0e48": 5278, "\u0e40\u0e18\u0e2d\u0e17\u0e4d\u0e32": 5279, "\u5c38": 5280, "\u5f85\u5728": 5281, "\u7684\u610f\u601d": 5282, "\u89c4": 5283, "\u539f\u6765": 5284, "\u5c3f": 5285, "\u6ed1": 5286, "\u2581help": 5287, "\u5982\u679c\u4ed6": 5288, "\u59bb\u5b50": 5289, "\u7ad9\u5728": 5290, "\u0e40\u0e23\u0e37\u0e48\u0e2d\u0e07\u0e23\u0e32\u0e27": 5291, "\u2581\u0e1c\u0e21\u0e01\u0e47": 5292, "ud": 5293, "\u5750\u5728": 5294, "\u0e2d\u0e30\u0e44\u0e23\u0e25\u0e48\u0e30": 5295, "\u0e43\u0e19\u0e0a\u0e48\u0e27\u0e07": 5296, "\u0e44\u0e1b\u0e2b\u0e21\u0e14": 5297, "\u0e14\u0e39\u0e14\u0e35": 5298, "\u5a4a\u5b50": 5299, "\u0e22\u0e49\u0e2d\u0e19": 5300, "\u0e40\u0e0a\u0e2d\u0e23\u0e4c": 5301, "\u9ed1\u6697": 5302, "\u0e14\u0e31\u0e1a": 5303, "\u2581\u0e44\u0e21\u0e48\u0e15\u0e49\u0e2d\u0e07": 5304, "\u0e01\u0e31\u0e19\u0e41\u0e19\u0e48": 5305, "\u4f60\u53c8": 5306, "\u0e04\u0e39": 5307, "\u751f\u65e5": 5308, "ting": 5309, "\u0e21\u0e35\u0e04\u0e48\u0e32": 5310, "\u529f": 5311, "\u5fae": 5312, "\u0e01\u0e32\u0e22": 5313, "My": 5314, "\u0e40\u0e40\u0e04\u0e48": 5315, "\u516c\u5bd3": 5316, "\u0e18\u0e34": 5317, "\u522b\u52a8": 5318, "j": 5319, "\u4f60\u770b\u5230": 5320, "\u4e0d\u5982": 5321, "\u0e04\u0e38\u0e13\u0e2d\u0e22\u0e39\u0e48": 5322, "\u5145": 5323, "\u76d1\u89c6": 5324, "\u662f\u8ab0": 5325, "\u6587\u4ef6": 5326, "\u6211\u5e94\u8be5": 5327, "\u0e22\u0e34\u0e48\u0e07\u0e43\u0e2b\u0e0d\u0e48": 5328, "\u6211\u521a": 5329, "\u2581\u0e15\u0e01\u0e25\u0e07": 5330, "\u7ed9\u5979": 5331, "\u0e21\u0e34\u0e2a": 5332, "\u0e21\u0e32\u0e0a\u0e48\u0e27\u0e22": 5333, "\u0e43\u0e08\u0e40\u0e22\u0e47\u0e19\u0e46": 5334, "\u4e89": 5335, "\u0e27\u0e48\u0e32\u0e19\u0e32\u0e22": 5336, "\u2581\u0e0a\u0e48\u0e27\u0e22": 5337, "\u96fb": 5338, "\u0e2b\u0e21\u0e27\u0e01": 5339, "\u0e48\u0e27": 5340, "\u53e6\u5916": 5341, "\u0e1e\u0e23": 5342, "\u0e21\u0e32\u0e40\u0e1b\u0e47\u0e19": 5343, "sh": 5344, "\u0e40\u0e23\u0e37\u0e48\u0e2d\u0e22": 5345, "\u5bf9\u4e8e": 5346, "\u0e44\u0e1b\u0e08\u0e32\u0e01": 5347, "\u826f": 5348, "\u4e08\u592b": 5349, "\u8865": 5350, "\u6ce1": 5351, "\u902e\u6355": 5352, "\u663e\u7136": 5353, "\u0e2d\u0e39": 5354, "\u4e0b\u6b21": 5355, "\u0e40\u0e15\u0e35\u0e22\u0e07": 5356, "\u51f6": 5357, "\u771f\u5b9e": 5358, "\u4e8b\u5b9e\u4e0a": 5359, "\u5e79": 5360, "\u5fc5\u8981": 5361, "\u00ea": 5362, "\u675c": 5363, "\u5e79\u561b": 5364, "\u0e07\u0e35\u0e49": 5365, "\u2581\u0e21\u0e31\u0e19\u0e44\u0e21\u0e48": 5366, "\u53d7\u5230": 5367, "\u0e09\u0e31\u0e19\u0e04\u0e34\u0e14": 5368, "\u0e2b\u0e19\u0e32\u0e27": 5369, "\u8fd8\u6ca1\u6709": 5370, "\u0e09\u0e31\u0e19\u0e04\u0e07": 5371, "\u0e08\u0e38": 5372, "\u8eab\u4efd": 5373, "\u6a02": 5374, "\u0e1e\u0e34\u0e29": 5375, "\u0e2d\u0e22\u0e39\u0e48\u0e14\u0e49\u0e27\u0e22\u0e01\u0e31\u0e19": 5376, "\u7a97": 5377, "\u0e1b\u0e23\u0e30\u0e40\u0e14\u0e47\u0e19": 5378, "\u2581life": 5379, "\u5b81": 5380, "\u770b\u7740\u6211": 5381, "\u0e41\u0e1b\u0e25\u0e01\u0e46": 5382, "\u90a3\u4e2a\u4eba": 5383, "\u2581\u4f19\u8ba1": 5384, "\u516c\u4e3b": 5385, "\u0e1e\u0e22\u0e32\u0e19": 5386, "\u0e01\u0e48\u0e2d\u0e19\u0e19\u0e30": 5387, "\u0e1c\u0e21\u0e40\u0e2d\u0e07": 5388, "ake": 5389, "\u0e09\u0e31\u0e19\u0e15\u0e49\u0e2d\u0e07\u0e44\u0e1b": 5390, "\u7c89": 5391, "\u0e40\u0e23\u0e32\u0e19\u0e48\u0e32\u0e08\u0e30": 5392, "\u0e41\u0e17\u0e1a": 5393, "\u5b89\u5a1c": 5394, "\u9b54\u6cd5": 5395, "\u4f86\u4e86": 5396, "\u6211\u4eec\u5e94\u8be5": 5397, "\u67e5\u7406": 5398, "\u2581\u62b1\u6b49": 5399, "\u0e08\u0e23\u0e34\u0e07\u0e46\u0e19\u0e30": 5400, "\u65b9\u5411": 5401, "\u0e40\u0e02\u0e32\u0e15\u0e49\u0e2d\u0e07\u0e01\u0e32\u0e23": 5402, "der": 5403, "\u7eb8": 5404, "\u8033": 5405, "\u8cb7": 5406, "\u7248": 5407, "\u0e41\u0e1a\u0e48\u0e07": 5408, "\u7b2c\u4e00\u4e2a": 5409, "\u96fb\u8a71": 5410, "\u0e0a\u0e48\u0e32\u0e22": 5411, "\u0e2a\u0e19\u0e31\u0e1a\u0e2a\u0e19\u0e38\u0e19": 5412, "\u6751": 5413, "rn": 5414, "\u2581\u0e1e\u0e2d": 5415, "\u0e43\u0e19\u0e19\u0e35\u0e49": 5416, "\u2581\u0e44\u0e21\u0e48\u0e21\u0e35\u0e43\u0e04\u0e23": 5417, "\u0e42\u0e15\u0e49": 5418, "\u2581\u0e40\u0e02\u0e32\u0e08\u0e30": 5419, "\u2581\u0e2a\u0e27\u0e31\u0e2a\u0e14\u0e35": 5420, "\u0e44\u0e21\u0e48\u0e16\u0e36\u0e07": 5421, "\u4f60\u662f\u8bf4": 5422, "\u5a01\u5c14": 5423, "\u4ed6\u662f\u4e2a": 5424, "\u8fd9\u662f\u4e2a": 5425, "\u65e0\u8bba": 5426, "\u2581This": 5427, "\u0e2d\u0e22\u0e48\u0e32\u0e44\u0e1b": 5428, "\u0e1c\u0e21\u0e21\u0e32": 5429, "\u6050\u6016": 5430, "\u0e44\u0e23\u0e49\u0e2a\u0e32\u0e23\u0e30": 5431, "\u2581again": 5432, "\u53d4\u53d4": 5433, "\u7070": 5434, "\u5c0d\u4e0d\u8d77": 5435, "\u63a5\u8fd1": 5436, "\u6211\u8be5": 5437, "\u4e5f\u8a31": 5438, "\u0e41\u0e25\u0e30\u0e09\u0e31\u0e19\u0e01\u0e47": 5439, "\u7528\u7684": 5440, "\u4e86\u4e2a": 5441, "\u2581\u0e44\u0e21\u0e48\u0e21\u0e35\u0e2d\u0e30\u0e44\u0e23": 5442, "\u2581\u600e\u4e48\u4e86": 5443, "\u0e17\u0e14\u0e2a\u0e2d\u0e1a": 5444, "\u5999": 5445, "\u2581\u0e14\u0e31\u0e07\u0e19\u0e31\u0e49\u0e19": 5446, "\u6211\u4e86": 5447, "are": 5448, "\u8d76\u7d27": 5449, "\u8b66\u63a2": 5450, "\u6bc1\u4e86": 5451, "\u0e21\u0e2d\u0e07\u0e40\u0e2b\u0e47\u0e19": 5452, "\u0e04\u0e23\u0e31\u0e49\u0e07\u0e2a\u0e38\u0e14\u0e17\u0e49\u0e32\u0e22": 5453, "\u0e02\u0e2d\u0e42\u0e17\u0e29\u0e04\u0e23\u0e31\u0e1a": 5454, "\u4f60\u6703": 5455, "\u0e44\u0e1b\u0e43\u0e2b\u0e49": 5456, "\u0e15\u0e32\u0e21\u0e25\u0e48\u0e32": 5457, "\u0e41\u0e19\u0e48\u0e19": 5458, "\u4ec0\u9ebd": 5459, "\u0e15\u0e49\u0e19\u0e44\u0e21\u0e49": 5460, "\u8b66\u544a": 5461, "\u2581\u0e22\u0e31\u0e07": 5462, "\u0e23\u0e32\u0e27": 5463, "\u0e40\u0e02\u0e32\u0e40\u0e1b\u0e47\u0e19\u0e04\u0e19": 5464, "\u0e1c\u0e21\u0e08\u0e30\u0e44\u0e1b": 5465, "\u5f53\u4f60": 5466, "\u0e06\u0e32\u0e15\u0e01\u0e23\u0e23\u0e21": 5467, "\u8ddf\u5979": 5468, "\u90fd\u4e0d\u77e5\u9053": 5469, "\u60c5\u62a5": 5470, "\u0e1c\u0e39\u0e49\u0e19\u0e4d\u0e32": 5471, "\u0e2a\u0e32\u0e22\u0e15\u0e32": 5472, "\u0e40\u0e23\u0e47\u0e27\u0e46": 5473, "\u0e21\u0e31\u0e19\u0e40\u0e01\u0e34\u0e14\u0e02\u0e36\u0e49\u0e19": 5474, "200": 5475, "\u638c": 5476, "\u0e44\u0e15": 5477, "\u0e22\u0e31\u0e01\u0e29\u0e4c": 5478, "\u74f6": 5479, "\u627f\u8ba4": 5480, "Dan": 5481, "\u4e25\u91cd": 5482, "\u0e25\u0e32\u0e23\u0e4c": 5483, "\u0e08\u0e21": 5484, "\u8fd9\u4e9b\u4eba": 5485, "\u0e25\u0e31\u0e01": 5486, "\u0e21\u0e32\u0e14\u0e39": 5487, "\u60b2": 5488, "\u2581She": 5489, "\u656c": 5490, "\u866b": 5491, "\u5783\u573e": 5492, "\u8ecd": 5493, "\u0e23\u0e48\u0e27\u0e21\u0e01\u0e31\u0e19": 5494, "\u6050\u6015": 5495, "\u6a23": 5496, "\u6bcf\u5929": 5497, "\u0e1c\u0e48\u0e32\u0e19\u0e44\u0e1b": 5498, "\u0e19\u0e31\u0e48\u0e19\u0e04\u0e37\u0e2d\u0e2a\u0e34\u0e48\u0e07\u0e17\u0e35\u0e48": 5499, "\u0e40\u0e18\u0e2d\u0e21\u0e32": 5500, "ace": 5501, "\u8bb0\u4f4f": 5502, "\u2581where": 5503, "\u0e41\u0e25\u0e49\u0e27\u0e01\u0e31\u0e19": 5504, "\u0644\u0627": 5505, "\u5178": 5506, "\u0e19\u0e32\u0e2c\u0e34\u0e01\u0e32": 5507, "\ue6c8": 5508, "\u2581said": 5509, "\u0e40\u0e18\u0e03\u0e40\u0e18": 5510, "\u9152\u5e97": 5511, "\u0e25\u0e07\u0e21\u0e37\u0e2d": 5512, "\u90a3\u4e0d\u662f": 5513, "\u5e72\u6389": 5514, "\u0e44\u0e21\u0e48\u0e21\u0e35\u0e40\u0e27\u0e25\u0e32": 5515, "\u0e40\u0e1b\u0e25\u0e35\u0e48\u0e22\u0e19\u0e41\u0e1b\u0e25\u0e07": 5516, "\u66f4\u597d": 5517, "\u2581hell": 5518, "\u0e1f\u0e31\u0e07\u0e09\u0e31\u0e19": 5519, "\u0e2b\u0e22\u0e38\u0e14\u0e19\u0e30": 5520, "\u0e1a\u0e32\u0e07\u0e2a\u0e34\u0e48\u0e07": 5521, "\u949f": 5522, "\u7b97\u662f": 5523, "\u0e2a\u0e38\u0e20\u0e32\u0e1e\u0e1a\u0e38\u0e23\u0e38\u0e29": 5524, "\u0e04\u0e38\u0e13\u0e04\u0e27\u0e23": 5525, "\u0e40\u0e23\u0e32\u0e2d\u0e22\u0e39\u0e48": 5526, "unt": 5527, "\u0e22\u0e01\u0e40\u0e25\u0e34\u0e01": 5528, "\u0e01\u0e32\u0e23\u0e41\u0e2a\u0e14\u0e07": 5529, "ure": 5530, "\u0e31\u0e27": 5531, "\u0e01\u0e31\u0e1a\u0e19\u0e32\u0e22": 5532, "\u5403\u4e86": 5533, "\u0e04\u0e38\u0e13\u0e08\u0e30\u0e15\u0e49\u0e2d\u0e07": 5534, "\u4f60\u5c31\u662f": 5535, "\u0e40\u0e2b\u0e21\u0e37\u0e2d\u0e19\u0e40\u0e14\u0e34\u0e21": 5536, "\u6bb5": 5537, "\u6f5c": 5538, "\u5f88\u5feb": 5539, "\u0e02\u0e49\u0e32\u0e07\u0e43\u0e19": 5540, "\u0e40\u0e2b\u0e25\u0e48\u0e32": 5541, "\u2581\u0e40\u0e01\u0e35\u0e48\u0e22\u0e27\u0e01\u0e31\u0e1a": 5542, "\u0e04\u0e23\u0e31\u0e1a\u0e17\u0e48\u0e32\u0e19": 5543, "\u8bae": 5544, "\u56f4": 5545, "\u8a66": 5546, "\u2581V": 5547, "\u0e04\u0e49\u0e32\u0e07": 5548, "Come": 5549, "\u0e25\u0e49\u0e2d": 5550, "\u0e1a\u0e49\u0e32\u0e07\u0e44\u0e2b\u0e21": 5551, "\u574f\u4e86": 5552, "\u0e27\u0e48\u0e32\u0e2d\u0e30\u0e44\u0e23": 5553, "\u2581car": 5554, "\u592a\u7a7a": 5555, "Al": 5556, "ti": 5557, "\u0e41\u0e25\u0e30\u0e04\u0e38\u0e13": 5558, "\u5de8": 5559, "\u53ef\u4e0d": 5560, "\u0e2a\u0e27\u0e22\u0e07\u0e32\u0e21": 5561, "\u8fd9\u4e2a\u4eba": 5562, "\u0e1c\u0e21\u0e44\u0e21\u0e48\u0e2d\u0e22\u0e32\u0e01": 5563, "\u4e0d\u50cf": 5564, "\u978b": 5565, "\u0e0a\u0e31\u0e48\u0e19": 5566, "\u4e3a\u4ec0\u4e48\u4e0d": 5567, "\u0e42\u0e27": 5568, "\u5728\u627e": 5569, "\u2581\u4f60\u5728": 5570, "\u2581gr": 5571, "\u0e1a\u0e23\u0e34": 5572, "\u0e19\u0e31\u0e01\u0e42\u0e17\u0e29": 5573, "\u9879": 5574, "\u5410": 5575, "\u0e43\u0e19\u0e10\u0e32\u0e19\u0e30": 5576, "\u0e16\u0e2d\u0e19": 5577, "\u0e21\u0e31\u0e48\u0e07": 5578, "\u5c31\u662f\u8fd9\u6837": 5579, "14": 5580, "\u0e2b\u0e25\u0e48\u0e2d": 5581, "\u0e1c\u0e34\u0e14\u0e1b\u0e01\u0e15\u0e34": 5582, "\u0e21\u0e31\u0e48\u0e19\u0e43\u0e08\u0e27\u0e48\u0e32": 5583, "\u0e17\u0e49\u0e32\u0e22": 5584, "\u0e27\u0e48\u0e32\u0e40\u0e1b\u0e47\u0e19": 5585, "\u628a\u4f60\u7684": 5586, "\u5b66\u751f": 5587, "\u627e\u4e2a": 5588, "\u0e2d\u0e40\u0e25\u0e47\u0e01\u0e0b\u0e4c": 5589, "\u7f85": 5590, "\u0e27\u0e34\u0e17\u0e22\u0e38": 5591, "\u0e23\u0e31\u0e2a\u0e40\u0e0b\u0e35\u0e22": 5592, "\u8981\u6211": 5593, "\u0e17\u0e35\u0e27\u0e35": 5594, "\u5f88\u5927": 5595, "\u2581than": 5596, "\u0e48\u0e2d\u0e07": 5597, "\u8fd9\u5c31": 5598, "\u0e41\u0e1b\u0e14": 5599, "ba": 5600, "\u6211\u4e00": 5601, "100": 5602, "\u8868\u6f14": 5603, "\u0e21\u0e31\u0e19\u0e2d\u0e32\u0e08\u0e08\u0e30": 5604, "\u2581\u0e15\u0e31\u0e49\u0e07\u0e41\u0e15\u0e48": 5605, "\u51fa\u6765\u4e86": 5606, "\u62dc": 5607, "\u6211\u4ece": 5608, "\u0e1a\u0e34\u0e25": 5609, "\u5bb9\u6613": 5610, "\u518d\u6b21": 5611, "\u0e40\u0e1c\u0e37\u0e48\u0e2d": 5612, "\u7aef": 5613, "\u0e40\u0e08\u0e21\u0e2a\u0e4c": 5614, "\u0e2b\u0e38\u0e48\u0e19": 5615, "\u9762\u5bf9": 5616, "\u0e04\u0e25\u0e37\u0e48\u0e19": 5617, "\u0e04\u0e38\u0e13\u0e19\u0e32\u0e22": 5618, "\u660e\u767d\u5417": 5619, "\u0e4a\u0e04": 5620, "\u6211\u4eec\u53bb": 5621, "\u0e2d\u0e22\u0e48\u0e32\u0e17\u0e4d\u0e32": 5622, "\u590f": 5623, "\u0e2d\u0e27\u0e01\u0e32\u0e28": 5624, "\u97e6": 5625, "\u610f\u5473\u7740": 5626, "\u5f71\u54cd": 5627, "\u7684\u7537\u4eba": 5628, "\u6211\u5417": 5629, "\u0e40\u0e02\u0e49\u0e32\u0e43\u0e08\u0e44\u0e2b\u0e21": 5630, "\u0e17\u0e38\u0e48\u0e21": 5631, "\u519b\u961f": 5632, "\u0e41\u0e2e\u0e21": 5633, "\u0e42\u0e0a\u0e04": 5634, "\u2581give": 5635, "\u0e1e\u0e27\u0e01\u0e40\u0e08\u0e49\u0e32": 5636, "\u63a5\u4e0b\u6765": 5637, "\u0e1b\u0e39\u0e48": 5638, "\u0e22\u0e38\u0e48\u0e07\u0e01\u0e31\u0e1a": 5639, "\u4f60\u628a": 5640, "\u0e40\u0e08\u0e49\u0e32\u0e0a\u0e32\u0e22": 5641, "\u4e0d\u53bb": 5642, "\u6211\u5bb6": 5643, "\u0e02\u0e2d\u0e07\u0e1e\u0e27\u0e01": 5644, "\u722c": 5645, "\u8c37": 5646, "\u6240\u4ee5\u4f60": 5647, "\u0e2a\u0e40\u0e15\u0e1f\u0e32\u0e19": 5648, "\u767e\u4e07": 5649, "Jack": 5650, "\u0e02\u0e2d\u0e42\u0e17\u0e29\u0e14\u0e49\u0e27\u0e22": 5651, "\u0e04\u0e38\u0e13\u0e0a\u0e48\u0e27\u0e22": 5652, "\u7b2c\u4e09": 5653, "\u0e27\u0e31\u0e19\u0e40\u0e01\u0e34\u0e14": 5654, "\u0e09\u0e31\u0e19\u0e40\u0e1e\u0e34\u0e48\u0e07": 5655, "\u73af": 5656, "\u751f\u7269": 5657, "\u2581\u6211\u5728": 5658, "gg": 5659, "\u2581\u5225": 5660, "\u9080\u8bf7": 5661, "\u5929\u4f7f": 5662, "\u0e2d\u0e49\u0e32\u0e07": 5663, "\u9ebb": 5664, "\u5c3c\u514b": 5665, "\u0e17\u0e35\u0e48\u0e08\u0e23\u0e34\u0e07": 5666, "\u0e4a\u0e32": 5667, "\u6d6a": 5668, "\u0e09\u0e38\u0e01\u0e40\u0e09\u0e34\u0e19": 5669, "\u6e56": 5670, "\u0e44\u0e21\u0e48\u0e43\u0e0a\u0e48\u0e40\u0e2b\u0e23\u0e2d": 5671, "\u0e41\u0e21\u0e48\u0e21\u0e14": 5672, "\u6162\u6162": 5673, "\u2581two": 5674, "\u0e23\u0e39\u0e1b\u0e41\u0e1a\u0e1a": 5675, "\u0e40\u0e01\u0e35\u0e48\u0e22\u0e27\u0e01\u0e31\u0e1a\u0e01\u0e32\u0e23": 5676, "\u0e27\u0e31\u0e14": 5677, "\u0e2a\u0e38\u0e02": 5678, "\u8bf4\u4f60": 5679, "og": 5680, "\u0e25\u0e35\u0e48\u0e22\u0e4c": 5681, "\u5f81": 5682, "\ue6d4": 5683, "\u0e04\u0e38\u0e13\u0e04\u0e34\u0e14": 5684, "\u5e76\u4e14": 5685, "\u0e1e\u0e34\u0e18\u0e35": 5686, "\u6bcf\u4e2a\u4eba\u90fd": 5687, "\u0e41\u0e1c\u0e19\u0e17\u0e35\u0e48": 5688, "\u5f88\u91cd\u8981": 5689, "\u0e1b\u0e27\u0e14": 5690, "\u689d": 5691, "\u2022": 5692, "\u7a31": 5693, "\u2581even": 5694, "\u6211\u9700\u8981\u4f60": 5695, "\u0e2a\u0e31\u0e49\u0e19": 5696, "\u7684\u94b1": 5697, "\u4ece\u672a": 5698, "\u0e14\u0e49\u0e27\u0e22\u0e01\u0e32\u0e23": 5699, "\u2581call": 5700, "\u0e14\u0e19\u0e15\u0e23\u0e35": 5701, "\u69cd": 5702, "\u7f8a": 5703, "\u0e02\u0e27\u0e1a": 5704, "\u0e09\u0e31\u0e19\u0e1e\u0e39\u0e14": 5705, "hi": 5706, "\u2581\u5b9d\u8d1d": 5707, "\u0e1b\u0e25\u0e32\u0e22": 5708, "cHF": 5709, "500": 5710, "\u6211\u4ee5\u524d": 5711, "\u2581\u62dc\u6258": 5712, "\u0e1a\u0e2d\u0e01\u0e40\u0e18\u0e2d": 5713, "\u0e41\u0e27\u0e19": 5714, "\u0e43\u0e15\u0e49\u0e14\u0e34\u0e19": 5715, "\u5bbe": 5716, "\u5931\u8d25": 5717, "\u58f0\u97f3": 5718, "ah": 5719, "\u0e19\u0e31\u0e01\u0e40\u0e23\u0e35\u0e22\u0e19": 5720, "\u0e40\u0e25\u0e48\u0e21": 5721, "\u0e43\u0e2b\u0e49\u0e1e\u0e27\u0e01\u0e40\u0e02\u0e32": 5722, "\u4e86\u4ed6": 5723, "\u0e1a\u0e32\u0e14\u0e40\u0e08\u0e47\u0e1a": 5724, "\u4f60\u8fd9\u4e2a": 5725, "\u4f60\u5bf9": 5726, "\u0e16\u0e2d\u0e22\u0e44\u0e1b": 5727, "\u0e02\u0e2d\u0e42\u0e17\u0e29\u0e17\u0e35": 5728, "\u0e1c\u0e39\u0e49\u0e0a\u0e32\u0e22\u0e17\u0e35\u0e48": 5729, "\u4f60\u6ca1\u6709": 5730, "\u0e40\u0e2a\u0e35\u0e22\u0e40\u0e27\u0e25\u0e32": 5731, "\u884c\u4e3a": 5732, "\u90fd\u8981": 5733, "\u0e32\u0e30": 5734, "\u2581only": 5735, "\u0e21\u0e32\u0e44\u0e14\u0e49": 5736, "\u0e22\u0e2d\u0e07": 5737, "\u4e0d\u4e00\u6837": 5738, "\u0e08\u0e30\u0e40\u0e23\u0e34\u0e48\u0e21": 5739, "\u5f97\u4e86": 5740, "\u0e04\u0e35": 5741, "\u0e17\u0e2d": 5742, "\u0e1f\u0e37\u0e49\u0e19": 5743, "\u0098": 5744, "\u5931\u671b": 5745, "\u628a\u4ed6\u4eec": 5746, "\u0e1c\u0e39\u0e49\u0e2b\u0e0d\u0e34\u0e07\u0e17\u0e35\u0e48": 5747, "\u0e23\u0e01": 5748, "\u0e25\u0e31\u0e07": 5749, "\u2581\u6211\u53ef\u4ee5": 5750, "\u0e04\u0e4d\u0e32\u0e27\u0e48\u0e32": 5751, "Do": 5752, "\u0e0a\u0e48\u0e27\u0e22\u0e04\u0e38\u0e13": 5753, "\u50cf\u4f60": 5754, "\u5e94\u8be5\u662f": 5755, "Wh": 5756, "\u0e2a\u0e27\u0e31\u0e2a\u0e14\u0e35\u0e04\u0e23\u0e31\u0e1a": 5757, "\u7684\u90a3": 5758, "\u2581\u0e04\u0e19\u0e17\u0e35\u0e48": 5759, "\u4f1a\u88ab": 5760, "do": 5761, "\u0e19\u0e32\u0e22\u0e17\u0e4d\u0e32": 5762, "\u0e2d\u0e23\u0e38\u0e13\u0e2a\u0e27\u0e31\u0e2a\u0e14\u0e34\u0e4c": 5763, "\u4ecd\u7136": 5764, "\u2581much": 5765, "\u0e40\u0e1a\u0e35\u0e22\u0e23\u0e4c": 5766, "\u0e16\u0e36\u0e07\u0e08\u0e30": 5767, "\u0e41\u0e15\u0e48\u0e25\u0e30": 5768, "\u70b9\u513f": 5769, "\u89c1\u5230\u4f60": 5770, "\u54ea\u4e2a": 5771, "\u2581\u0e40\u0e2d\u0e32\u0e25\u0e48\u0e30": 5772, "\u907f": 5773, "\u8ff9": 5774, "\u2581\u0e40\u0e1b\u0e25\u0e48\u0e32": 5775, "\u4f59": 5776, "\u5e26\u8d70": 5777, "\u0e40\u0e2a\u0e35\u0e22\u0e0a\u0e35\u0e27\u0e34\u0e15": 5778, "\u0e40\u0e1b\u0e25": 5779, "\u0e23\u0e49\u0e2d\u0e07\u0e40\u0e1e\u0e25\u0e07": 5780, "\u0e01\u0e32\u0e23\u0e15\u0e48\u0e2d\u0e2a\u0e39\u0e49": 5781, "\u611f\u89ba": 5782, "\u0e09\u0e31\u0e19\u0e2d\u0e22\u0e39\u0e48": 5783, "\u51e0\u5929": 5784, "\u0e1a\u0e2d\u0e01\u0e21\u0e32": 5785, "\u6b66": 5786, "\u955c": 5787, "\u5bdf": 5788, "\u0e1e\u0e31\u0e19\u0e18\u0e38\u0e4c": 5789, "\u0e08\u0e19\u0e01\u0e23\u0e30\u0e17\u0e31\u0e48\u0e07": 5790, "\u0e27\u0e32\u0e22": 5791, "\u0e1e\u0e2d\u0e08\u0e30": 5792, "\u0e42\u0e04\u0e15\u0e23": 5793, "\u8ddf\u8e2a": 5794, "\u4f60\u4e0d\u77e5\u9053": 5795, "\u0e44\u0e1b\u0e40\u0e23\u0e47\u0e27": 5796, "\u0e25\u0e39\u0e01\u0e23\u0e31\u0e01": 5797, "\u522b\u518d": 5798, "\u53ea\u662f\u4e2a": 5799, "\u6807": 5800, "\u0e0a\u0e35\u0e49": 5801, "\u0e15\u0e49\u0e2d\u0e19\u0e23\u0e31\u0e1a": 5802, "\u0e40\u0e2a\u0e23\u0e47\u0e08\u0e41\u0e25\u0e49\u0e27": 5803, "\u0e40\u0e14\u0e2d": 5804, "ass": 5805, "\u53e5": 5806, "\u0e04\u0e38\u0e13\u0e40\u0e1b\u0e47\u0e19\u0e43\u0e04\u0e23": 5807, "\u0e40\u0e23\u0e32\u0e17\u0e38\u0e01\u0e04\u0e19": 5808, "\u0e40\u0e0a\u0e37\u0e49\u0e2d": 5809, "\u0e17\u0e4d\u0e32\u0e44\u0e21\u0e04\u0e38\u0e13\u0e44\u0e21\u0e48": 5810, "\u0e15\u0e23\u0e30\u0e01\u0e39\u0e25": 5811, "\u0e19\u0e31\u0e49\u0e19\u0e41\u0e2b\u0e25\u0e30": 5812, "\u0e14\u0e39\u0e0b\u0e34": 5813, "\u6559\u6388": 5814, "\u0e41\u0e21\u0e49\u0e27\u0e48\u0e32": 5815, "\u4f60\u90fd": 5816, "\u0e16\u0e49\u0e32\u0e2b\u0e32\u0e01": 5817, "\u2581every": 5818, "\u0e1e\u0e32\u0e22\u0e38": 5819, "\u0e04\u0e23\u0e1a": 5820, "\u540e\u6765": 5821, "\u2581\u0e02\u0e2d\u0e1a\u0e43\u0e08": 5822, "\u906d": 5823, "\u0e40\u0e23\u0e32\u0e08\u0e30\u0e44\u0e14\u0e49": 5824, "\u0e40\u0e04\u0e25": 5825, "\u6211\u505a": 5826, "up": 5827, "\u0e04\u0e19\u0e44\u0e02\u0e49": 5828, "\u8fd9\u662f\u6211\u7684": 5829, "\u0e40\u0e1b\u0e47\u0e19\u0e41\u0e1a\u0e1a\u0e19\u0e35\u0e49": 5830, "\u559c": 5831, "\u0e01\u0e32\u0e23\u0e13\u0e4c": 5832, "\u7565": 5833, "\u0e23\u0e27\u0e22": 5834, "\u2581sorry": 5835, "\u7acb\u523b": 5836, "\u0e42\u0e1b\u0e23": 5837, "\u0e2d\u0e35\u0e01\u0e2d\u0e22\u0e48\u0e32\u0e07": 5838, "les": 5839, "\u65b9\u5f0f": 5840, "\u0e06\u0e48\u0e32\u0e09\u0e31\u0e19": 5841, "\u0e08\u0e31\u0e07\u0e40\u0e25\u0e22": 5842, "\u810f": 5843, "\u0e43\u0e19\u0e1a\u0e49\u0e32\u0e19": 5844, "\u0e40\u0e04\u0e22\u0e44\u0e14\u0e49\u0e22\u0e34\u0e19": 5845, "\u0e01\u0e0f": 5846, "\u0e40\u0e14\u0e34\u0e19\u0e44\u0e1b": 5847, "\u2581\u6211\u53ea\u662f": 5848, "\u0e41\u0e01\u0e25\u0e49\u0e07": 5849, "\u0e09\u0e31\u0e19\u0e2b\u0e27\u0e31\u0e07\u0e27\u0e48\u0e32": 5850, "\u6211\u88ab": 5851, "\u0e1b\u0e0f\u0e34\u0e1a\u0e31\u0e15\u0e34": 5852, "\u8ddf\u6211\u8bf4": 5853, "\u2581\u0e21\u0e32\u0e19\u0e35\u0e48": 5854, "\u0e07\u0e32\u0e21": 5855, "\u2581\u0e09\u0e31\u0e19\u0e27\u0e48\u0e32": 5856, "\u0e09\u0e31\u0e19\u0e23\u0e31\u0e01": 5857, "mi": 5858, "\u5728\u9019": 5859, "\u5f88\u6709": 5860, "\u2581Let": 5861, "\u6208": 5862, "\u6321": 5863, "\u7684\u5bb6\u4f19": 5864, "\u6709\u610f\u601d": 5865, "\u82f1\u91cc": 5866, "\u8b66\u957f": 5867, "\u2581day": 5868, "\u2581e": 5869, "\u738b\u5b50": 5870, "\u0e19\u0e49\u0e4d\u0e32\u0e41\u0e02\u0e47\u0e07": 5871, "ally": 5872, "\u0e1c\u0e39\u0e49\u0e17\u0e35\u0e48": 5873, "\u5728\u9019\u88e1": 5874, "\u53cd\u5e94": 5875, "\u0e15\u0e19": 5876, "\u0e09\u0e25\u0e2d\u0e07": 5877, "\u0e23\u0e32\u0e22\u0e0a\u0e37\u0e48\u0e2d": 5878, "\u0e04\u0e38\u0e49\u0e21\u0e01\u0e31\u0e19": 5879, "\u5168\u90fd": 5880, "\u767c\u73fe": 5881, "\u2581\u0e25\u0e49\u0e32\u0e19": 5882, "\u9a6c\u4e0a\u5c31": 5883, "\u6211\u5f88\u597d": 5884, "\u0e44\u0e1a": 5885, "\u0e07\u0e31\u0e49\u0e19\u0e2b\u0e23\u0e2d": 5886, "\u4e25": 5887, "\u0e2d\u0e31\u0e07\u0e01\u0e24\u0e29": 5888, "\u0e2f": 5889, "\u0e20\u0e39\u0e40\u0e02\u0e32": 5890, "\u5e78\u798f": 5891, "\u0e40\u0e23\u0e48\u0e07": 5892, "\u0e1a\u0e2d\u0e01\u0e40\u0e02\u0e32": 5893, "\u0e08\u0e32\u0e01\u0e44\u0e1b": 5894, "\u0e01\u0e31": 5895, "\u0e15\u0e39\u0e14": 5896, "\u0e23\u0e34\u0e19": 5897, "\u4e3b\u4eba": 5898, "\u6253\u6270": 5899, "\u0e02\u0e2d\u0e07\u0e1e\u0e27\u0e01\u0e40\u0e23\u0e32": 5900, "\u7a81": 5901, "\u6447": 5902, "\u80c6": 5903, "\u0e44\u0e21\u0e48\u0e43\u0e0a\u0e48\u0e04\u0e19": 5904, "\u0e40\u0e08\u0e47\u0e1a\u0e1b\u0e27\u0e14": 5905, "\u77e5\u9053\u4f60": 5906, "\u65b9\u9762": 5907, "\u0e1a\u0e32\u0e22": 5908, "\u2581Okay": 5909, "ug": 5910, "\u5b83\u662f": 5911, "\u6ca1\u4e8b\u4e86": 5912, "\u6717": 5913, "\u6211\u7684\u670b\u53cb": 5914, "X": 5915, "\u0e1c\u0e39\u0e01": 5916, "\u0e20\u0e32\u0e22\u0e43\u0e15\u0e49": 5917, "\u624e": 5918, "\u8c46": 5919, "\u8f6f": 5920, "\u0e1b\u0e23\u0e30\u0e27\u0e31\u0e15\u0e34\u0e28\u0e32\u0e2a\u0e15\u0e23\u0e4c": 5921, "\u660e\u767d\u4e86": 5922, "tor": 5923, "\u80af\u5b9a\u662f": 5924, "She": 5925, "\u63d0\u9192": 5926, "\u0e41\u0e01\u0e19": 5927, "\u0e42\u0e04\u0e25": 5928, "\u0e44\u0e2d\u0e49\u0e2b\u0e19\u0e39": 5929, "\u4eba\u5458": 5930, "\u0e34\u0e07": 5931, "\u8f86": 5932, "\u0e19\u0e49\u0e32": 5933, "\u2581talk": 5934, "\u0e04\u0e21": 5935, "\ue5e6": 5936, "\u95f9": 5937, "\u0e04\u0e2d\u0e21\u0e1e\u0e34\u0e27\u0e40\u0e15\u0e2d\u0e23\u0e4c": 5938, "\u5976\u5976": 5939, "\u0e31\u0e48\u0e19": 5940, "\u0e41\u0e02\u0e47\u0e07": 5941, "\u0e19\u0e34\u0e2a": 5942, "ue": 5943, "\u7801": 5944, "\u2581sc": 5945, "\u0e01\u0e25\u0e31\u0e1a\u0e21\u0e32\u0e41\u0e25\u0e49\u0e27": 5946, "\u82cf": 5947, "\u9ed8": 5948, "\u88dd": 5949, "\u0e1a\u0e38\u0e04\u0e04\u0e25": 5950, "\u5305\u62ec": 5951, "\u0e21\u0e31\u0e19\u0e04\u0e07": 5952, "but": 5953, "\u0e1e\u0e38": 5954, "\u2581\u5662": 5955, "\u2581\u0e40\u0e23\u0e32\u0e21\u0e35": 5956, "\u0e2b\u0e21\u0e2d\u0e19\u0e35\u0e48": 5957, "\u0e40\u0e23\u0e2d\u0e30": 5958, "\u0e40\u0e0b\u0e25": 5959, "St": 5960, "\u0e21\u0e37\u0e49\u0e2d": 5961, "\u7231\u4f60": 5962, "low": 5963, "\u0e17\u0e38\u0e19": 5964, "\u2581\u0e44\u0e21\u0e48\u0e19\u0e30": 5965, "\u0e25\u0e35\u0e19": 5966, "\u5934\u53d1": 5967, "\u2581\u5982\u679c\u4f60": 5968, "\u611f\u53d7": 5969, "\u706d": 5970, "\u7ec3": 5971, "\u5948": 5972, "\u5c1a": 5973, "\u800d": 5974, "\u871c": 5975, "\u5f55": 5976, "\u0e1e\u0e34\u0e21\u0e1e\u0e4c": 5977, "\u0e22\u0e32\u0e07": 5978, "\u0e08\u0e34\u0e21": 5979, "\u8ddf\u4f60\u8bf4": 5980, "ach": 5981, "\u0e1c\u0e21\u0e44\u0e21\u0e48\u0e40\u0e04\u0e22": 5982, "\u0e40\u0e14\u0e35\u0e22\u0e27\u0e01\u0e31\u0e1a": 5983, "\u9488": 5984, "\u9646": 5985, "\u0e15\u0e32\u0e22\u0e44\u0e1b\u0e41\u0e25\u0e49\u0e27": 5986, "\u0e42\u0e2d\u0e40\u0e04\u0e44\u0e2b\u0e21": 5987, "\u0e41\u0e15\u0e48\u0e07\u0e07\u0e32\u0e19\u0e01\u0e31\u0e1a": 5988, "\u0e44\u0e21\u0e48\u0e44\u0e14\u0e49\u0e40\u0e1b\u0e47\u0e19": 5989, "\u0e2a\u0e15": 5990, "\u7b49\u5f85": 5991, "\u68a6\u60f3": 5992, "ful": 5993, "\u0e04\u0e38\u0e13\u0e01\u0e47\u0e23\u0e39\u0e49": 5994, "\u5219": 5995, "\u599e": 5996, "\u59d3": 5997, "\u8f7d": 5998, "\u5e0c\u671b\u4f60": 5999, "\u0e40\u0e18\u0e0b\u0e40\u0e19": 6000, "\u5473\u9053": 6001, "\u0e19\u0e34\u0e27": 6002, "\u6211\u53ef\u4e0d": 6003, "\u0e17\u0e35\u0e2b\u0e25\u0e31\u0e07": 6004, "\u0e1c\u0e21\u0e40\u0e02\u0e49\u0e32\u0e43\u0e08": 6005, "\u0e17\u0e39": 6006, "\u4e00\u4f1a\u513f": 6007, "\u62ff\u8d70": 6008, "\u7687": 6009, "\u636e": 6010, "\u7d27\u5f20": 6011, "\u7684\u5973\u5b69": 6012, "\u2581\u0e16\u0e36\u0e07": 6013, "\u5a5a\u793c": 6014, "\u4f46\u6211\u4eec": 6015, "\u0e17\u0e31\u0e49\u0e07\u0e27\u0e31\u0e19": 6016, "\u6297": 6017, "\u770b\u5230\u4f60": 6018, "How": 6019, "\u0e41\u0e25\u0e30\u0e1c\u0e21": 6020, "ight": 6021, "\u884c\u4e86": 6022, "\u4ecd": 6023, "art": 6024, "Michael": 6025, "\u4f60\u5728\u8bf4\u4ec0\u4e48": 6026, "\u0e04\u0e23\u0e31\u0e27": 6027, "\u0e40\u0e23\u0e37\u0e48\u0e2d\u0e07\u0e01\u0e32\u0e23": 6028, "\u0e14\u0e49\u0e27\u0e22\u0e40\u0e2b\u0e23\u0e2d": 6029, "\u0e40\u0e09\u0e1e\u0e32\u0e30": 6030, "\u51fa\u53d1": 6031, "\u5076": 6032, "\u60e8": 6033, "\u0e2b\u0e32\u0e22\u0e15\u0e31\u0e27\u0e44\u0e1b": 6034, "\u0e22\u0e2d\u0e21\u0e43\u0e2b\u0e49": 6035, "\u0e14\u0e2d\u0e01\u0e44\u0e21\u0e49": 6036, "\u0e09\u0e31\u0e19\u0e19\u0e30": 6037, "\u0e2e\u0e31\u0e19": 6038, "Oh": 6039, "\u4eab\u53d7": 6040, "\u4e2d\u56fd": 6041, "\u627e\u5230\u4ed6": 6042, "\u0e17\u0e35\u0e48\u0e2a\u0e4d\u0e32\u0e04\u0e31\u0e0d": 6043, "\u0e40\u0e23\u0e32\u0e01\u0e4d\u0e32\u0e25\u0e31\u0e07\u0e08\u0e30": 6044, "\u0e2d\u0e22\u0e48\u0e32\u0e40\u0e1e\u0e34\u0e48\u0e07": 6045, "mm": 6046, "\u6709\u65f6\u5019": 6047, "\u8fd9\u4f4d": 6048, "\u0e1d\u0e39\u0e07": 6049, "\u7adf\u7136": 6050, "gu": 6051, "\u62d2\u7edd": 6052, "\u662f\u4ec0\u4e48\u610f\u601d": 6053, "\u2581why": 6054, "\u0e42\u0e2d\u0e40\u0e04\u0e21\u0e31\u0e49\u0e22": 6055, "\u2581\u0e21\u0e35\u0e2d\u0e30\u0e44\u0e23": 6056, "\u0e04\u0e38\u0e13\u0e04\u0e37\u0e2d": 6057, "\u0e41\u0e2b\u0e21": 6058, "\u5821": 6059, "\u0e17\u0e4d\u0e32\u0e43\u0e2b\u0e49\u0e40\u0e02\u0e32": 6060, "\u7701": 6061, "\u0e2a\u0e34\u0e19\u0e04\u0e49\u0e32": 6062, "\u0e44\u0e21\u0e48\u0e27\u0e48\u0e32\u0e08\u0e30": 6063, "\u0e1a\u0e23\u0e23": 6064, "\u0e21\u0e35\u0e40\u0e2b\u0e15\u0e38\u0e1c\u0e25": 6065, "\u0e41\u0e25\u0e49\u0e27\u0e40\u0e08\u0e2d\u0e01\u0e31\u0e19": 6066, "\u0e40\u0e01\u0e35\u0e48\u0e22\u0e27\u0e02\u0e49\u0e2d\u0e07": 6067, "\u0e40\u0e21\u0e37\u0e48\u0e2d\u0e04\u0e38\u0e13": 6068, "\u0e22\u0e2d\u0e14\u0e40\u0e22\u0e35\u0e48\u0e22\u0e21": 6069, "\u0e21\u0e31\u0e19\u0e44\u0e27\u0e49": 6070, "\u0e04\u0e38\u0e13\u0e1a\u0e2d\u0e01\u0e27\u0e48\u0e32": 6071, "\u6211\u6240": 6072, "\u505a\u7684\u4e8b": 6073, "Leonard": 6074, "\u4e9e": 6075, "\u9f13": 6076, "\u0e15\u0e30\u0e27\u0e31\u0e19\u0e2d\u0e2d\u0e01": 6077, "\u0e08\u0e1a\u0e25\u0e07": 6078, "\u258118": 6079, "\u2581any": 6080, "\u0e40\u0e2b\u0e21\u0e37\u0e2d\u0e19\u0e17\u0e35\u0e48": 6081, "\u7ecf\u5e38": 6082, "\u0e2a\u0e34\u0e07": 6083, "\u6211\u662f\u4e2a": 6084, "\u0e27\u0e48\u0e32\u0e43\u0e04\u0e23": 6085, "\u5269": 6086, "\u0e41\u0e17\u0e07": 6087, "\u4ea4\u7ed9": 6088, "\u9020\u6210": 6089, "\u7ae0": 6090, "\u0e2a\u0e07\u0e2a\u0e31\u0e22\u0e27\u0e48\u0e32": 6091, "\u8ac7": 6092, "John": 6093, "\u8a08": 6094, "\u9686": 6095, "\u0e41\u0e21\u0e47\u0e01\u0e0b\u0e4c": 6096, "\u2581years": 6097, "\u0e16\u0e49\u0e32\u0e21\u0e31\u0e19": 6098, "\u0e04\u0e34\u0e27": 6099, "\u0e23\u0e38\u0e19\u0e41\u0e23\u0e07": 6100, "\u0e14\u0e49\u0e27\u0e22\u0e15\u0e31\u0e27\u0e40\u0e2d\u0e07": 6101, "21": 6102, "\u4e00\u5f20": 6103, "\u2581\u0e09\u0e31\u0e19\u0e41\u0e04\u0e48": 6104, "Hi": 6105, "\u5b63": 6106, "\u6beb": 6107, "\u8df3\u821e": 6108, "\u0e2a\u0e4d\u0e32\u0e2b\u0e23\u0e31\u0e1a\u0e09\u0e31\u0e19": 6109, "\u4e8b\u513f": 6110, "\u0e1a\u0e23\u0e34\u0e01\u0e32\u0e23": 6111, "\u0e40\u0e0a\u0e25": 6112, "\u2581\u662f\u6211": 6113, "\u0e2d\u0e30\u0e44\u0e23\u0e40\u0e2b\u0e23\u0e2d": 6114, "\u0e40\u0e02\u0e32\u0e21\u0e32": 6115, "\u0e43\u0e0a\u0e49\u0e21\u0e31\u0e19": 6116, "\u2581\u0e40\u0e14": 6117, "\u52b2": 6118, "\u0e49\u0e14": 6119, "\u0e0d\u0e32\u0e15\u0e34": 6120, "\u64d4\u5fc3": 6121, "\u0e04\u0e27\u0e32\u0e21\u0e0a\u0e48\u0e27\u0e22\u0e40\u0e2b\u0e25\u0e37\u0e2d": 6122, "\u6709\u4e86": 6123, "\u0e21\u0e35\u0e04\u0e27\u0e32\u0e21\u0e2b\u0e21\u0e32\u0e22": 6124, "\u0e04\u0e38\u0e13\u0e2d\u0e32\u0e08\u0e08\u0e30": 6125, "\u771f\u6b63": 6126, "\u0e04\u0e34\u0e14\u0e08\u0e30": 6127, "\u9986": 6128, "\u8ba8\u8bba": 6129, "\u8a18\u5f97": 6130, "\u0e40\u0e23\u0e32\u0e40\u0e1b\u0e47\u0e19": 6131, "ted": 6132, "\u0e42\u0e14\u0e14": 6133, "able": 6134, "\u5b9e\u5728": 6135, "\u4e0d\u660e\u767d": 6136, "\u0e01\u0e23\u0e34": 6137, "\u0e2a\u0e2d\u0e1a": 6138, "\u2581dis": 6139, "\u8bb8\u591a": 6140, "\u5e9f": 6141, "\u0e02\u0e38\u0e14": 6142, "\u6b32": 6143, "\u0e2a\u0e23\u0e38\u0e1b": 6144, "\u6536\u62fe": 6145, "\u2581still": 6146, "\u0e1e\u0e23\u0e49\u0e2d\u0e21\u0e41\u0e25\u0e49\u0e27": 6147, "\u8b66\u5b98": 6148, "\u2581\u662f\u5427": 6149, "\u540c\u65f6": 6150, "\u0e22\u0e31\u0e22": 6151, "\u0e35\u0e48": 6152, "\u505a\u51fa": 6153, "\u0e2a\u0e15\u0e32\u0e23\u0e4c\u0e04": 6154, "\u0e44\u0e21\u0e48\u0e44\u0e14\u0e49\u0e19\u0e30": 6155, "\u8d22": 6156, "\u0e1e\u0e34\u0e08\u0e32\u0e23\u0e13\u0e32": 6157, "\u4ebf": 6158, "\u0e04\u0e27\u0e32\u0e21\u0e17\u0e23\u0e07\u0e08\u0e4d\u0e32": 6159, "\u767d\u75f4": 6160, "\u0e2b\u0e21\u0e32\u0e1b\u0e48\u0e32": 6161, "\u6cd5\u5f8b": 6162, "\u4ece\u6ca1": 6163, "\u8a8d\u70ba": 6164, "\u0e2a\u0e27\u0e22\u0e21\u0e32\u0e01": 6165, "\u2581\u0e09\u0e31\u0e19\u0e02\u0e2d\u0e42\u0e17\u0e29": 6166, "\u4e0d\u4ecb\u610f": 6167, "\u0e40\u0e21\u0e37\u0e2d\u0e07\u0e19\u0e35\u0e49": 6168, "\u0e40\u0e21\u0e19": 6169, "\u0e41\u0e1e\u0e17\u0e22\u0e4c": 6170, "\u0e40\u0e2b\u0e35\u0e49\u0e22": 6171, "\u0e22\u0e31": 6172, "\u5f7c\u5f97": 6173, "\u0e08\u0e19\u0e16\u0e36\u0e07": 6174, "Don": 6175, "\u4e0b\u5348": 6176, "\u2581\u0e2d\u0e35": 6177, "Now": 6178, "\u0e1b\u0e23\u0e30\u0e0a\u0e38\u0e21": 6179, "\u8c22\u4e86": 6180, "Bo": 6181, "\u0e44\u0e21\u0e48\u0e40\u0e1b\u0e47\u0e19\u0e44\u0e23\u0e19\u0e30": 6182, "\u7684\u513f\u5b50": 6183, "\u2581\u0e1c\u0e21\u0e44\u0e21\u0e48": 6184, "\u8fc7\u7684": 6185, "\u0e40\u0e02\u0e49\u0e32\u0e43\u0e08\u0e41\u0e25\u0e49\u0e27": 6186, "\u9a91": 6187, "\u4ecb\u7ecd": 6188, "\u0e21\u0e31\u0e19\u0e17\u0e4d\u0e32\u0e43\u0e2b\u0e49": 6189, "\u8d85\u7ea7": 6190, "sa": 6191, "\u7684\u65b9\u5f0f": 6192, "\u0e41\u0e15": 6193, "\u50cf\u4e2a": 6194, "Hey": 6195, "\u65c5": 6196, "24": 6197, "\u2581They": 6198, "\u0e1a\u0e31\u0e07\u0e40\u0e2d\u0e34\u0e0d": 6199, "\u0e23\u0e32\u0e15\u0e23\u0e35\u0e2a\u0e27\u0e31\u0e2a\u0e14\u0e34\u0e4c": 6200, "\u5141\u8bb8": 6201, "ide": 6202, "\u0e2d\u0e22\u0e39\u0e48\u0e43\u0e19\u0e2b\u0e49\u0e2d\u0e07": 6203, "\u0e40\u0e18\u0e17\u0e40\u0e19": 6204, "\u0e40\u0e1a\u0e32": 6205, "\u4e0d\u5f97": 6206, "\u0e1c\u0e21\u0e08\u0e30\u0e44\u0e21\u0e48": 6207, "\u7684\u5973\u513f": 6208, "\u0e41\u0e25\u0e49\u0e27\u0e40\u0e2b\u0e23\u0e2d": 6209, "\u7684\u65b0": 6210, "\u5e76\u4e0d\u662f": 6211, "\u6211\u7238": 6212, "\u0e40\u0e02\u0e49\u0e32\u0e21\u0e32\u0e43\u0e19": 6213, "\u0e17\u0e31\u0e48\u0e27\u0e44\u0e1b": 6214, "\u0e25\u0e2d\u0e07\u0e14\u0e39": 6215, "\u0e2d\u0e31\u0e14": 6216, "\u2581\u0e2d": 6217, "\u7956": 6218, "\u96f6": 6219, "\u6492\u8c0e": 6220, "\u0e2a\u0e31\u0e07\u0e04\u0e21": 6221, "\u4e0d\u51fa": 6222, "\u6211\u8bf4\u7684": 6223, "\u4e00\u4ef6": 6224, "\u6709\u65f6": 6225, "\u0e21\u0e32\u0e17\u0e35\u0e48": 6226, "\u0e08\u0e30\u0e23\u0e39\u0e49": 6227, "\u9003\u8dd1": 6228, "\u505a\u4e86\u4ec0\u4e48": 6229, "\u0e2b\u0e48\u0e32\u0e07": 6230, "\u0e08\u0e2d\u0e23\u0e4c\u0e08": 6231, "\u0e1b\u0e35\u0e01\u0e48\u0e2d\u0e19": 6232, "\u63a7": 6233, "\u6211\u5c31\u77e5\u9053": 6234, "\u0e1e\u0e1a\u0e01\u0e31\u0e19": 6235, "\u0e44\u0e1f\u0e1f\u0e49\u0e32": 6236, "\u4e0d\u5c11": 6237, "\u2581thought": 6238, "\u9002\u5408": 6239, "\u666e\u901a": 6240, "\u0e40\u0e02\u0e49\u0e32\u0e43\u0e08\u0e21\u0e31\u0e49\u0e22": 6241, "\u0e21\u0e35\u0e2d\u0e22\u0e39\u0e48": 6242, "\u0e41\u0e1b\u0e25\u0e01\u0e43\u0e08": 6243, "ile": 6244, "\u75c5\u6bd2": 6245, "23": 6246, "\u0e19\u0e34\u0e01": 6247, "\u5e55": 6248, "\u0e35\u0e49\u0e22": 6249, "\u2581long": 6250, "\u2581*": 6251, "\u5403\u996d": 6252, "\u0e19\u0e31\u0e48\u0e19\u0e44\u0e07": 6253, "\u6211\u6c92": 6254, "\u6740\u4e86\u6211": 6255, "\u0e27\u0e35\u0e48": 6256, "\u0e40\u0e2b\u0e15\u0e38\u0e1c\u0e25\u0e17\u0e35\u0e48": 6257, "\u0e23\u0e39\u0e49\u0e2a\u0e36\u0e01\u0e40\u0e2b\u0e21\u0e37\u0e2d\u0e19": 6258, "\u8bbe\u8ba1": 6259, "\u0e08\u0e2d\u0e07": 6260, "\u0e41\u0e15\u0e48\u0e01\u0e47": 6261, "\u5c5e": 6262, "\u5ba3": 6263, "\u8baf": 6264, "\u0e2a\u0e38\u0e19\u0e31\u0e02": 6265, "\u5c3e": 6266, "\u9707": 6267, "\u672f": 6268, "\u60f3\u8fc7": 6269, "\u0e17\u0e35\u0e48\u0e1e\u0e27\u0e01\u0e40\u0e02\u0e32": 6270, "\u0e2d\u0e22\u0e39\u0e48\u0e43\u0e19\u0e19\u0e31\u0e49\u0e19": 6271, "\u0e41\u0e1a\u0e1a\u0e17\u0e35\u0e48": 6272, "\u0e08\u0e4d\u0e32\u0e44\u0e27\u0e49": 6273, "\u0e17\u0e35\u0e48\u0e27\u0e48\u0e32": 6274, "\u0e1a\u0e23\u0e32": 6275, "\u0e40\u0e1a\u0e37\u0e48\u0e2d": 6276, "\u0e41\u0e0b\u0e19": 6277, "\u517d": 6278, "\u6298": 6279, "\u0e25\u0e49\u0e21\u0e40\u0e2b\u0e25\u0e27": 6280, "\u0e16\u0e31\u0e07": 6281, "\u0e40\u0e23\u0e37\u0e48\u0e2d\u0e07\u0e02\u0e2d\u0e07": 6282, "\u0e19\u0e32\u0e22\u0e40\u0e1b\u0e47\u0e19": 6283, "\u5feb\u8dd1": 6284, "\u8fd9\u4e00": 6285, "\u2581\u5f88\u597d": 6286, "\u0e22\u0e31\u0e07\u0e21\u0e35\u0e0a\u0e35\u0e27\u0e34\u0e15\u0e2d\u0e22\u0e39\u0e48": 6287, "\u51fa\u751f": 6288, "ose": 6289, "\u53bb\u770b": 6290, "\u0e44\u0e14\u0e49\u0e40\u0e27\u0e25\u0e32": 6291, "\u628a\u8fd9": 6292, "\u0e2d\u0e38\u0e1b\u0e01\u0e23\u0e13\u0e4c": 6293, "\u51cf": 6294, "mon": 6295, "\u7684\u58f0\u97f3": 6296, "\u4f60\u4eec\u4fe9": 6297, "\u0e23\u0e39\u0e49\u0e41\u0e25\u0e49\u0e27": 6298, "\u0e40\u0e18\u0e0d\u0e40\u0e19": 6299, "\u9690": 6300, "\u2581\u8c01": 6301, "\u800c\u4f60": 6302, "\u0e08\u0e34\u0e15\u0e43\u0e08": 6303, "\u0e40\u0e02\u0e32\u0e2d\u0e22\u0e39\u0e48": 6304, "\u4e0a\u73ed": 6305, "\u0e18\u0e23\u0e23\u0e21": 6306, "\u0e01\u0e32\u0e07\u0e40\u0e01\u0e07": 6307, "\u5362": 6308, "\u8166": 6309, "\u0e01\u0e27\u0e49\u0e32\u0e07": 6310, "\u0e1e\u0e35\u0e48\u0e2a\u0e32\u0e27": 6311, "\u2581then": 6312, "\u0e34\u0e14": 6313, "\u0e08\u0e34\u0e21\u0e21\u0e35\u0e48": 6314, "\u800c\u4e0d\u662f": 6315, "\u0e40\u0e17\u0e48\u0e32\u0e44\u0e23": 6316, "\u0e44\u0e21\u0e48\u0e08\u0e23\u0e34\u0e07": 6317, "\u0e17\u0e4d\u0e32\u0e43\u0e2b\u0e49\u0e40\u0e18\u0e2d": 6318, "\u0e43\u0e2b\u0e49\u0e15\u0e32\u0e22": 6319, "\u6740\u4e86\u4f60": 6320, "\u4f60\u77e5\u9053\u7684": 6321, "\u0e43\u0e0a\u0e48\u0e40\u0e25\u0e22": 6322, "\u6253\u4e86": 6323, "\u0e21\u0e35\u0e40\u0e07\u0e34\u0e19": 6324, "\u4e00\u534a": 6325, "\u2581\u4f60\u60f3": 6326, "\u78ba": 6327, "\u2581\u0e44\u0e21\u0e48\u0e40\u0e2d\u0e32\u0e19\u0e48\u0e32": 6328, "\u97e9": 6329, "\u0e2a\u0e31\u0e01\u0e04\u0e23\u0e39\u0e48": 6330, "\u0e2e\u0e35\u0e42\u0e23\u0e48": 6331, "\u2581100": 6332, "\u0e44\u0e21\u0e48\u0e40\u0e08\u0e2d": 6333, "\u6709\u9ede": 6334, "\u0e09\u0e31\u0e19\u0e40\u0e08\u0e2d": 6335, "\u0e2a\u0e15\u0e32\u0e23\u0e4c": 6336, "\u0e1c\u0e21\u0e22\u0e31\u0e07": 6337, "\u0e43\u0e0a\u0e48\u0e04\u0e23\u0e31\u0e1a": 6338, "\u0e0a\u0e34\u0e19": 6339, "\u4f46\u662f\u6211": 6340, "\u5976": 6341, "\u0e42\u0e1b\u0e23\u0e41\u0e01\u0e23\u0e21": 6342, "\u64e6": 6343, "\u0647": 6344, "\u0e1c\u0e25\u0e34\u0e15": 6345, "\u0e40\u0e18\u0e2d\u0e23\u0e39\u0e49": 6346, "\u0e41\u0e15\u0e48\u0e07\u0e15\u0e31\u0e27": 6347, "\u0e44\u0e14\u0e49\u0e1e\u0e1a": 6348, "\u5fc3\u810f": 6349, "lie": 6350, "\u0e0a\u0e01": 6351, "\u770b\u4f60": 6352, "\u76ee\u7684": 6353, "\u5f8b": 6354, "\u0e15\u0e25\u0e2d\u0e14\u0e44\u0e1b": 6355, "\u0e40\u0e18\u0e2d\u0e04\u0e07": 6356, "\u0e43\u0e2b\u0e49\u0e40\u0e1b\u0e47\u0e19": 6357, "\u0e1c\u0e48\u0e32\u0e15\u0e31\u0e14": 6358, "\u0e1b\u0e23\u0e30\u0e40\u0e20\u0e17": 6359, "\u2581\u7238\u7238": 6360, "\u0e20\u0e39\u0e21\u0e34\u0e43\u0e08": 6361, "\u0e23\u0e31\u0e1a\u0e17\u0e23\u0e32\u0e1a": 6362, "\u6d4b\u8bd5": 6363, "\u0e40\u0e2b\u0e21\u0e32\u0e30": 6364, "\u559d\u9152": 6365, "\u0e08\u0e30\u0e40\u0e01\u0e34\u0e14\u0e02\u0e36\u0e49\u0e19": 6366, "\u63a5\u7740": 6367, "\u0e44\u0e04": 6368, "\u0e2a\u0e14": 6369, "This": 6370, "\u62c9\u65af": 6371, "\u53c8\u4e0d\u662f": 6372, "\u0e44\u0e21\u0e48\u0e40\u0e1b\u0e47\u0e19\u0e44\u0e23\u0e2b\u0e23\u0e2d\u0e01": 6373, "\u5360": 6374, "\u7eaf": 6375, "\u0e08\u0e23\u0e34\u0e07\u0e08\u0e31\u0e07": 6376, "\u5dee\u70b9": 6377, "\u82ac\u5947": 6378, "\u0e21\u0e38": 6379, "\u0e23\u0e30\u0e1a\u0e38": 6380, "\u5e72\u4e86": 6381, "\u0e23\u0e34\u0e01": 6382, "\u0e1e\u0e1a\u0e01\u0e31\u0e1a": 6383, "Not": 6384, "\u0e17\u0e35\u0e48\u0e2b\u0e49\u0e2d\u0e07": 6385, "\u0e41\u0e01\u0e08\u0e30": 6386, "\u0e40\u0e04\u0e23\u0e35\u0e22\u0e14": 6387, "Where": 6388, "\u0e40\u0e15\u0e47\u0e21\u0e44\u0e1b\u0e14\u0e49\u0e27\u0e22": 6389, "\u6c42\u6c42\u4f60": 6390, "\u0e17\u0e4d\u0e32\u0e2d\u0e30\u0e44\u0e23\u0e2d\u0e22\u0e39\u0e48": 6391, "\u2581Mo": 6392, "iss": 6393, "\u8fd8\u4f1a": 6394, "\u0e27\u0e32\u0e19": 6395, "\u0e21\u0e35\u0e41\u0e04\u0e48": 6396, "\u0e19\u0e32\u0e22\u0e01\u0e4d\u0e32\u0e25\u0e31\u0e07": 6397, "\u0e43\u0e19\u0e2d\u0e35\u0e01": 6398, "\u9a8c": 6399, "\u2581\u90a3\u5c31": 6400, "\u6696": 6401, "\u606d\u559c": 6402, "\u0e40\u0e1b\u0e47\u0e19\u0e04\u0e19\u0e14\u0e35": 6403, "...\"": 6404, "\u0e08\u0e19\u0e01\u0e27\u0e48\u0e32\u0e08\u0e30": 6405, "\u0e14\u0e39\u0e14": 6406, "\u0e23\u0e2d\u0e1a\u0e46": 6407, "\u0e16\u0e36\u0e07\u0e44\u0e14\u0e49": 6408, "\u5230\u8fd9\u91cc": 6409, "\u0e40\u0e04\u0e25\u0e37\u0e48\u0e2d\u0e19": 6410, "\u6211\u6ca1\u4e8b": 6411, "\u0e1c\u0e21\u0e1a\u0e2d\u0e01": 6412, "\u5386\u53f2": 6413, "\u5bfb\u627e": 6414, "\u0e44\u0e21\u0e48\u0e2a\u0e4d\u0e32\u0e04\u0e31\u0e0d": 6415, "\u6211\u542c\u8bf4": 6416, "\u5c31\u5f97": 6417, "\u6740\u624b": 6418, "\u6cbb\u7597": 6419, "\u0e02\u0e13\u0e30\u0e17\u0e35\u0e48": 6420, "\u5e72\u51c0": 6421, "\u0e40\u0e2d\u0e21\u0e35\u0e48": 6422, "\u0e23\u0e35\u0e1a\u0e44\u0e1b": 6423, "\u0e0a\u0e34\u0e07": 6424, "\u0e40\u0e0a\u0e35\u0e22\u0e27": 6425, "\u6d3b\u52a8": 6426, "\u0e21\u0e31\u0e19\u0e40\u0e2b\u0e21\u0e37\u0e2d\u0e19": 6427, "\u0e40\u0e1e\u0e37\u0e48\u0e2d\u0e17\u0e35\u0e48\u0e08\u0e30": 6428, "\u0e1a\u0e23\u0e39": 6429, "\u56e0\u4e3a\u4ed6": 6430, "\u5385": 6431, "\u0e15\u0e48\u0e2d\u0e15\u0e49\u0e32\u0e19": 6432, "\u0e0a\u0e35\u0e27\u0e34\u0e15\u0e02\u0e2d\u0e07": 6433, "\u0e40\u0e2a\u0e37\u0e2d": 6434, "\u6b7b\u53bb": 6435, "\u0e02\u0e49\u0e32\u0e07\u0e1a\u0e19": 6436, "\u0e40\u0e18\u0e2d\u0e15\u0e49\u0e2d\u0e07\u0e01\u0e32\u0e23": 6437, "\u0e1b\u0e23\u0e30\u0e18\u0e32\u0e19\u0e32\u0e18\u0e34\u0e1a\u0e14\u0e35": 6438, "\u4ed6\u60f3": 6439, "\u0e21\u0e35\u0e41\u0e1c\u0e19": 6440, "\u4ed6\u5988": 6441, "\u7684\u4e16\u754c": 6442, "\u0e01\u0e25\u0e49\u0e32\u0e2b\u0e32\u0e0d": 6443, "\u2500": 6444, "\u8bd5\u7740": 6445, "\u0e40\u0e23\u0e32\u0e08\u0e30\u0e44\u0e21\u0e48": 6446, "\u0e1b\u0e31": 6447, "\u0e44\u0e2d\u0e49\u0e1e\u0e27\u0e01": 6448, "\u7b97\u4e86": 6449, "\u0e08\u0e30\u0e43\u0e0a\u0e49": 6450, "\u0e21\u0e31\u0e27": 6451, "rt": 6452, "\u0e44\u0e14\u0e49\u0e40\u0e08\u0e2d": 6453, "\u654f": 6454, "\u9635": 6455, "\u67ef": 6456, "\u5b87\u5b99": 6457, "\u7684\u6837\u5b50": 6458, "ust": 6459, "\u0e17\u0e32\u0e07\u0e01\u0e32\u0e23": 6460, "\u593a": 6461, "\u2581\u0e19\u0e31\u0e48\u0e19\u0e21\u0e31\u0e19": 6462, "\u5728\u4ed6": 6463, "\u672c\u6765": 6464, "\u9700": 6465, "\u0e1a\u0e48\u0e2d\u0e22": 6466, "\u7528\u6765": 6467, "\u0e41\u0e25\u0e30\u0e16\u0e49\u0e32": 6468, "\u0e2a\u0e20\u0e32": 6469, "\u6bd4\u6211": 6470, "\u0e1b\u0e23\u0e30\u0e0a\u0e32\u0e0a\u0e19": 6471, "\u865a": 6472, "\u2581feel": 6473, "\u7f8e\u5143": 6474, "\u0e40\u0e2b\u0e25\u0e37\u0e2d\u0e40\u0e01\u0e34\u0e19": 6475, "\u0e17\u0e4d\u0e32\u0e22\u0e31\u0e07\u0e44\u0e07": 6476, "22": 6477, "\u0e4a\u0e2d\u0e01": 6478, "\u81ea\u6740": 6479, "\u0e04\u0e38\u0e13\u0e40\u0e1b\u0e47\u0e19\u0e04\u0e19": 6480, "0,000": 6481, "\u2581\u0e1c\u0e39\u0e49": 6482, "\u0e23\u0e39\u0e49\u0e2a\u0e36\u0e01\u0e22\u0e31\u0e07\u0e44\u0e07": 6483, "\u60f3\u6cd5": 6484, "\u0e10": 6485, "\u9b42": 6486, "\u0e15\u0e48\u0e2d\u0e2b\u0e19\u0e49\u0e32": 6487, "\u2581away": 6488, "\u0e2a\u0e27\u0e31\u0e2a\u0e14\u0e35\u0e04\u0e48\u0e30": 6489, "\u0e41\u0e2d\u0e25": 6490, "ub": 6491, "\u6c92\u932f": 6492, "\u4e00\u8d77\u53bb": 6493, "\u4e0a\u6765": 6494, "\u2581sure": 6495, "\u2581hear": 6496, "\u0e17\u0e31\u0e1e": 6497, "\u4e0d\u4e0a": 6498, "ark": 6499, "\u0e04\u0e32\u0e23\u0e4c\u0e25": 6500, "\u0e41\u0e1f\u0e23\u0e07\u0e04\u0e4c": 6501, "\u4e27": 6502, "\u58de": 6503, "\u5f37": 6504, "\u0e17\u0e4d\u0e32\u0e01\u0e32\u0e23": 6505, "\u7684\u773c\u775b": 6506, "\u89ba\u5f97": 6507, "\u7740\u6211": 6508, "\u4e0d\u591f": 6509, "\u0e04\u0e38\u0e13\u0e19\u0e48\u0e32\u0e08\u0e30": 6510, "\u0e22\u0e34\u0e19\u0e14\u0e35\u0e15\u0e49\u0e2d\u0e19\u0e23\u0e31\u0e1a": 6511, "\u0e01\u0e23\u0e30\u0e42\u0e14\u0e14": 6512, "\u2581\u0e41\u0e15\u0e48\u0e27\u0e48\u0e32": 6513, "\u0e44\u0e21\u0e48\u0e43\u0e0a\u0e48\u0e41\u0e04\u0e48": 6514, "\u7684\u60c5\u51b5": 6515, "\u0e21\u0e31\u0e19\u0e08\u0e30\u0e40\u0e1b\u0e47\u0e19": 6516, "\u0e02\u0e2d\u0e07\u0e04\u0e19": 6517, "\u2581\u771f": 6518, "\u0e15\u0e48\u0e32\u0e07\u0e46": 6519, "\u4f60\u662f\u4e0d\u662f": 6520, "bb": 6521, "\u6211\u53c8": 6522, "\u0e42\u0e25\u0e01\u0e19\u0e35\u0e49": 6523, "\u0e2d\u0e27\u0e4c": 6524, "\u0e17\u0e31\u0e49\u0e07\u0e2b\u0e25\u0e32\u0e22": 6525, "\u7bad": 6526, "\u628a\u624b": 6527, "\u0e40\u0e25\u0e37\u0e48\u0e2d\u0e19": 6528, "\u70ae": 6529, "\u0e04\u0e38\u0e49\u0e21\u0e04\u0e23\u0e2d\u0e07": 6530, "\u4e0d\u932f": 6531, "Jake": 6532, "\u2581\u0e17\u0e38\u0e01\u0e2d\u0e22\u0e48\u0e32\u0e07": 6533, "\u654c": 6534, "\u2581\u6211\u6709": 6535, "\u0e27\u0e48\u0e32\u0e22\u0e31\u0e07\u0e44\u0e07": 6536, "\u9019\u7a2e": 6537, "va": 6538, "ite": 6539, "\u653f": 6540, "\u00e1": 6541, "\u5510": 6542, "\u665a\u9910": 6543, "\u82b1\u4e86": 6544, "\u90fd\u77e5\u9053": 6545, "\u0e23\u0e31\u0e07": 6546, "\u0e41\u0e14": 6547, "\u6211\u7684\u5929": 6548, "\u4ec0\u4e48\u4e1c\u897f": 6549, "\u719f": 6550, "\u8a8d": 6551, "\u0e21\u0e32\u0e01\u0e01\u0e27\u0e48\u0e32\u0e19\u0e35\u0e49": 6552, "\u4ec0": 6553, "\u0e02\u0e36\u0e49\u0e19\u0e2d\u0e22\u0e39\u0e48\u0e01\u0e31\u0e1a": 6554, "\u0e15\u0e49\u0e2d\u0e07\u0e15\u0e32\u0e22": 6555, "\u0e40\u0e27\u0e49\u0e22": 6556, "\u904b": 6557, "\u0e41\u0e25\u0e49\u0e27\u0e19\u0e32\u0e22": 6558, "\u8111\u888b": 6559, "\u90fd\u80fd": 6560, "\u600e\u9ebc\u4e86": 6561, "\u2581\u0e04\u0e07": 6562, "\u0e42\u0e08\u0e23": 6563, "\u0e09\u0e31\u0e19\u0e08\u0e30\u0e17\u0e4d\u0e32": 6564, "\u0e2d\u0e07\u0e04\u0e4c": 6565, "\u5c31\u6ca1": 6566, "\u0e02\u0e49\u0e32\u0e01\u0e47": 6567, "OK": 6568, "\u0e43\u0e19\u0e02\u0e13\u0e30\u0e19\u0e35\u0e49": 6569, "aw": 6570, "\u0e15\u0e31\u0e27\u0e41\u0e17\u0e19": 6571, "\u54cd": 6572, "\u0e04\u0e27\u0e32\u0e21\u0e1b\u0e25\u0e2d\u0e14\u0e20\u0e31\u0e22": 6573, "\u51f1": 6574, "\u841d": 6575, "\u0e40\u0e1b\u0e34\u0e14\u0e40\u0e1c\u0e22": 6576, "\u6211\u89ba\u5f97": 6577, "\u0e41\u0e15\u0e01\u0e15\u0e48\u0e32\u0e07": 6578, "\u0e42\u0e27\u0e49\u0e22": 6579, "qu": 6580, "\u807d\u8457": 6581, "\u0e22\u0e37\u0e21": 6582, "\u6211\u4eec\u4e00\u8d77": 6583, "\u0e04\u0e38\u0e13\u0e04\u0e27\u0e23\u0e08\u0e30": 6584, "\u0e40\u0e0a\u0e37\u0e48\u0e2d\u0e09\u0e31\u0e19": 6585, "\u2581\u0e2d\u0e22\u0e48\u0e32\u0e07": 6586, "\u2581cr": 6587, "\u4ed6\u4e0d": 6588, "Are": 6589, "\u961f\u957f": 6590, "\u0e22\u0e34\u0e48\u0e07\u0e01\u0e27\u0e48\u0e32": 6591, "\u79ae": 6592, "\u0e42\u0e2d\u0e25\u0e34\u0e40\u0e27\u0e2d\u0e23\u0e4c": 6593, "\u0e1e\u0e19\u0e31\u0e01\u0e07\u0e32\u0e19": 6594, "\u0e40\u0e18\u0e15\u0e40\u0e18": 6595, "\u0e06\u0e48\u0e32\u0e15\u0e31\u0e27\u0e15\u0e32\u0e22": 6596, "\u6c7d\u8f66": 6597, "\u0e2e\u0e39": 6598, "\u968f\u65f6": 6599, "\u0e2d\u0e34\u0e19\u0e40\u0e14\u0e35\u0e22": 6600, "\u5802": 6601, "\u8fd9\u91cc\u7684": 6602, "\u0e21\u0e31\u0e19\u0e14\u0e39": 6603, "\u0e1b\u0e35\u0e17\u0e35\u0e48\u0e41\u0e25\u0e49\u0e27": 6604, "\u0e0a\u0e48\u0e27\u0e07\u0e40\u0e27\u0e25\u0e32": 6605, "\u0e15\u0e34\u0e19": 6606, "\u0e44\u0e21\u0e48\u0e04\u0e34\u0e14\u0e27\u0e48\u0e32": 6607, "\u5e05": 6608, "\u2581\u8fd8\u662f": 6609, "\u65af\u57fa": 6610, "\u662f\u4ec0\u9ebc": 6611, "\u0e23\u0e31\u0e1a\u0e1c\u0e34\u0e14\u0e0a\u0e2d\u0e1a": 6612, "\u0e0a\u0e37\u0e48\u0e2d\u0e02\u0e2d\u0e07": 6613, "\u3113": 6614, "\u0e2d\u0e22\u0e39\u0e48\u0e02\u0e49\u0e32\u0e07": 6615, "ence": 6616, "\u51e0\u4e4e": 6617, "\u0e0a\u0e48\u0e27\u0e22\u0e43\u0e2b\u0e49": 6618, "\u592a\u9633": 6619, "\u2581\u6211\u89c9\u5f97": 6620, "\u0e2a\u0e32\u0e40\u0e2b\u0e15\u0e38": 6621, "\u2581\u0e30\u0e10": 6622, "\u53ea\u4f1a": 6623, "\u2581\u0e2b\u0e27\u0e31\u0e14\u0e14\u0e35": 6624, "\u0e15\u0e32\u0e21\u0e21\u0e32": 6625, "\u0e43\u0e19\u0e40\u0e27\u0e25\u0e32": 6626, "\u6211\u53d1\u8a93": 6627, "\u5361\u5c14": 6628, "\u957f\u5927": 6629, "\u0e19\u0e36\u0e01\u0e16\u0e36\u0e07": 6630, "\u541b": 6631, "\u8981\u4e48": 6632, "\u9023": 6633, "\u0e04\u0e27\u0e49\u0e32": 6634, "\u5728\u5916\u9762": 6635, "\u0e2d\u0e30\u0e44\u0e23\u0e2d\u0e35\u0e01": 6636, "\u0e23\u0e31\u0e1a\u0e23\u0e2d\u0e07": 6637, "\u0e02\u0e49\u0e2d\u0e2b\u0e32": 6638, "\u2581\u0e2d\u0e32": 6639, "\u0e41\u0e25\u0e49\u0e27\u0e27\u0e48\u0e32": 6640, "\u4ed6\u4e0d\u662f": 6641, "\u0e40\u0e2b\u0e47\u0e19\u0e2d\u0e30\u0e44\u0e23": 6642, "\u0e1e\u0e1a\u0e27\u0e48\u0e32": 6643, "\u0e04\u0e27\u0e32\u0e21\u0e2b\u0e27\u0e31\u0e07": 6644, "\u0e44\u0e21\u0e48\u0e2d\u0e22\u0e32\u0e01\u0e43\u0e2b\u0e49": 6645, "\u59b9": 6646, "\u70b8\u5f39": 6647, "\u6211\u7231": 6648, "\u0e40\u0e2d\u0e32\u0e40\u0e07\u0e34\u0e19": 6649, "\u0e01\u0e0f\u0e2b\u0e21\u0e32\u0e22": 6650, "\u8d70\u5f00": 6651, "\u0e18\u0e35": 6652, "\u2581\u4f60\u53ef\u4ee5": 6653, "\u90a3\u6211": 6654, "\u6c64": 6655, "\u6b8b": 6656, "\u626b": 6657, "\u0e1a\u0e4a\u0e2d\u0e1a\u0e1a\u0e35\u0e49": 6658, "\u5f7c\u6b64": 6659, "\u2581ex": 6660, "\u0e1e\u0e39\u0e14\u0e40\u0e23\u0e37\u0e48\u0e2d\u0e07\u0e2d\u0e30\u0e44\u0e23": 6661, "\u5bc6\u7801": 6662, "\u0e04\u0e49\u0e19\u0e1e\u0e1a": 6663, "\u597d\u5566": 6664, "\u4e00\u751f": 6665, "\u73b0\u5728\u662f": 6666, "\u0e02\u0e22\u0e31\u0e1a": 6667, "\u0e2d\u0e22\u0e39\u0e48\u0e04\u0e19\u0e40\u0e14\u0e35\u0e22\u0e27": 6668, "\u0e2d\u0e31\u0e19\u0e19\u0e35\u0e49": 6669, "\u575a\u6301": 6670, "\u2581\u4f60\u4f1a": 6671, "\u8207": 6672, "\u8bb0\u5fc6": 6673, "\u0e41\u0e02\u0e47\u0e07\u0e41\u0e23\u0e07": 6674, "\u0e40\u0e15\u0e30": 6675, "\u77e5\u9053\u7684": 6676, "\u0e43\u0e19\u0e27\u0e31\u0e19": 6677, "Ben": 6678, "ail": 6679, "\u597d\u4e8b": 6680, "\u5766": 6681, "\u0e04\u0e19\u0e41\u0e23\u0e01": 6682, "\u997c": 6683, "\u0e08\u0e2d\u0e21": 6684, "\u2581\u4e5f\u8bb8": 6685, "\u0e1c\u0e21\u0e2d\u0e22\u0e32\u0e01\u0e08\u0e30": 6686, "\u2581All": 6687, "\u5242": 6688, "\u8d8a\u6765\u8d8a": 6689, "\u53e5\u8bdd": 6690, "\u9760\u8fd1": 6691, "\u0e17\u0e4d\u0e32\u0e2a\u0e34\u0e48\u0e07\u0e17\u0e35\u0e48": 6692, "\u0e40\u0e01\u0e47\u0e1a\u0e44\u0e27\u0e49": 6693, "\u0e41\u0e04\u0e23\u0e4c": 6694, "\u0e0a\u0e48\u0e27\u0e22\u0e2d\u0e30\u0e44\u0e23": 6695, "\u0e41\u0e04\u0e2a": 6696, "\u5ba2\u4eba": 6697, "\u505a\u8fc7": 6698, "\u5931\u53bb\u4e86": 6699, "\u0e30\u0e10\u0e31": 6700, "\u4e0d\u662f\u5417": 6701, "\u505a\u5230": 6702, "\u0e41\u0e2b\u0e25\u0e48\u0e07": 6703, "\u0e2d\u0e31\u0e22\u0e01\u0e32\u0e23": 6704, "\u4ec0\u4e48\u5417": 6705, "\u0e25\u0e48\u0e30\u0e01\u0e47": 6706, "\u2581How": 6707, "\u2581\u0e14\u0e35\u0e19": 6708, "\u2581\u0e40\u0e14\u0e37\u0e2d\u0e19": 6709, "\u0e01\u0e35\u0e48": 6710, "\u2581\u4e0d\u662f\u5417": 6711, "\u4e3a\u6211": 6712, "\u628a\u6211\u4eec": 6713, "\u2581\u0e09\u0e31\u0e19\u0e21\u0e35": 6714, "\u0e2a\u0e32\u0e27\u0e19\u0e49\u0e2d\u0e22": 6715, "\u4ed6\u4eec\u90fd": 6716, "\u5229\u4e9a": 6717, "\u0e02\u0e2d\u0e1a": 6718, "\u84dd": 6719, "\u0e17\u0e38\u0e01\u0e02\u0e4c": 6720, "\u9c8d": 6721, "\u0e2d\u0e14\u0e31\u0e21": 6722, "\u6211\u6b63\u5728": 6723, "Damon": 6724, "\u6570\u636e": 6725, "\u0e1c\u0e21\u0e44\u0e21\u0e48\u0e23\u0e39\u0e49\u0e27\u0e48\u0e32": 6726, "\u5c31\u4e0d\u4f1a": 6727, "\u0e2a\u0e19\u0e34\u0e17": 6728, "\u0e17\u0e23\u0e22\u0e28": 6729, "\u0e17\u0e4d\u0e32\u0e43\u0e2b\u0e49\u0e1c\u0e21": 6730, "\u2581\u0e23\u0e2d": 6731, "\u7e3d": 6732, "\u0e23\u0e39\u0e49\u0e44\u0e14\u0e49\u0e22\u0e31\u0e07\u0e44\u0e07": 6733, "\u4e0d\u5e94\u8be5": 6734, "\u4f60\u8aaa": 6735, "\u0e30\u0e15\u0e31": 6736, "\u6211\u8bf4\u8fc7": 6737, "\u7684\u7236\u4eb2": 6738, "\u0e40\u0e18\u0e10\u0e40\u0e19": 6739, "\u6240\u6709\u4eba\u90fd": 6740, "\u5728\u91cc\u9762": 6741, "\u5ba1": 6742, "\u0e08\u0e30\u0e1a\u0e2d\u0e01\u0e27\u0e48\u0e32": 6743, "\u0e2a\u0e01\u0e1b\u0e23\u0e01": 6744, "\u6865": 6745, "\u8072": 6746, "\u98db": 6747, "\u0e2a\u0e37\u0e48\u0e2d\u0e2a\u0e32\u0e23": 6748, "\u7235\u58eb": 6749, "\u521b\u9020": 6750, "\u0e04\u0e07\u0e40\u0e1b\u0e47\u0e19": 6751, "\u6ca1\u60f3\u5230": 6752, "\u0e25\u0e07\u0e17\u0e38\u0e19": 6753, "\u2581\u4ed6\u662f": 6754, "\u0e2d\u0e30\u0e44\u0e23\u0e40\u0e19\u0e35\u0e48\u0e22": 6755, "che": 6756, "\u0e01\u0e48\u0e2d\u0e19\u0e17\u0e35\u0e48\u0e08\u0e30": 6757, "\u0e2a\u0e31\u0e07\u0e40\u0e01\u0e15": 6758, "\u8eba": 6759, "\u5370\u5ea6": 6760, "\u2581\u0e40\u0e1e\u0e23\u0e32\u0e30\u0e27\u0e48\u0e32": 6761, "\u4e5f\u8981": 6762, "\u0e0a\u0e31\u0e49\u0e19\u0e08\u0e30": 6763, "\u0e25\u0e34\u0e49\u0e19": 6764, "\u4eba\u7269": 6765, "\u0e04\u0e38\u0e13\u0e0a\u0e2d\u0e1a": 6766, "king": 6767, "\u2581\u0e40\u0e23\u0e47\u0e27": 6768, "\u0e16\u0e49\u0e32\u0e44\u0e21\u0e48": 6769, "\u0e15\u0e31\u0e27\u0e40\u0e25\u0e02": 6770, "\u5c31\u4e0d": 6771, "\u544a\u8bc9\u6211\u4eec": 6772, "\u4ec0\u4e48\u90fd": 6773, "\u8981\u627e": 6774, "\u8fdf": 6775, "\u0e22\u0e38\u0e15\u0e34\u0e18\u0e23\u0e23\u0e21": 6776, "\u6837\u5b50": 6777, "\u0e23\u0e2a": 6778, "Stefan": 6779, "\u6f0f": 6780, "\u0e01\u0e35": 6781, "\u0e22\u0e2d\u0e21\u0e41\u0e1e\u0e49": 6782, "\u0e21\u0e31\u0e14": 6783, "\u514b\u91cc\u65af": 6784, "\u2581Be": 6785, "\u0e19\u0e32\u0e22\u0e23\u0e39\u0e49": 6786, "\u0e2d\u0e19\u0e38\u0e0d\u0e32\u0e15": 6787, "\u258150": 6788, "\u4e0d\u6e05\u695a": 6789, "\u0e21\u0e31\u0e19\u0e01\u0e47\u0e41\u0e04\u0e48": 6790, "\u6211\u544a\u8bc9\u4f60": 6791, "\u2581\u8fd8": 6792, "\u529b\u91cf": 6793, "\u0e40\u0e1b\u0e47\u0e19\u0e02\u0e2d\u0e07": 6794, "\u7b80": 6795, "\u2581Sam": 6796, "\u0e40\u0e28\u0e29": 6797, "\u8d34": 6798, "\u0e25\u0e31\u0e01\u0e1e\u0e32\u0e15\u0e31\u0e27": 6799, "\u6578": 6800, "\u86cb\u7cd5": 6801, "\u7ecf\u8fc7": 6802, "\u0e40\u0e02\u0e32\u0e1e\u0e39\u0e14": 6803, "\u0e44\u0e21\u0e48\u0e17\u0e4d\u0e32": 6804, "Go": 6805, "\u53d1\u5c04": 6806, "\u79c1\u4eba": 6807, "\u0e40\u0e1b\u0e47\u0e19\u0e2d\u0e22\u0e48\u0e32\u0e07\u0e19\u0e31\u0e49\u0e19": 6808, "\u2581\u0e21\u0e34": 6809, "\u2581\u0e27\u0e48\u0e32\u0e44\u0e07": 6810, "\u6750": 6811, "\u0e02\u0e2d\u0e2d\u0e20\u0e31\u0e22": 6812, "\u0e19\u0e31\u0e01\u0e25\u0e48\u0e32": 6813, "\u0e44\u0e27\u0e19\u0e4c": 6814, "\u0e40\u0e23\u0e32\u0e08\u0e30\u0e15\u0e49\u0e2d\u0e07": 6815, "\u0e1a\u0e2d\u0e01\u0e09\u0e31\u0e19\u0e27\u0e48\u0e32": 6816, "\u0e40\u0e2d\u0e32\u0e15\u0e31\u0e27": 6817, "\u0e17\u0e35\u0e48\u0e41\u0e17\u0e49\u0e08\u0e23\u0e34\u0e07": 6818, "\u544a\u8a34\u4f60": 6819, "\u2581\u6211\u80fd": 6820, "\u0e01\u0e40\u0e01\u0e2d\u0e23\u0e4c": 6821, "\u624b\u672f": 6822, "\u6211\u6b63": 6823, "\u0e08\u0e34\u0e19\u0e15\u0e19\u0e32\u0e01\u0e32\u0e23": 6824, "\ue652": 6825, "\u0e44\u0e21\u0e4a": 6826, "\u0e40\u0e01\u0e37\u0e2d\u0e1a\u0e08\u0e30": 6827, "\u0e41\u0e25\u0e49\u0e27\u0e15\u0e2d\u0e19\u0e19\u0e35\u0e49": 6828, "\u0e41\u0e22\u0e48\u0e21\u0e32\u0e01": 6829, "by": 6830, "\u8d23\u4efb": 6831, "\u0e1b\u0e39": 6832, "\u5230\u5904": 6833, "\u0e1b\u0e25\u0e48\u0e2d\u0e22\u0e09\u0e31\u0e19": 6834, "\u2581200": 6835, "\u0e40\u0e25\u0e02": 6836, "\u0e21\u0e2d\u0e07\u0e2b\u0e32": 6837, "\u4ed6\u5f88": 6838, "\u4e0d\u5e78": 6839, "\u82ac": 6840, "\u0e1b\u0e23\u0e36\u0e01\u0e29\u0e32": 6841, "\u0e1b\u0e25\u0e38\u0e01": 6842, "ven": 6843, "\u0e40\u0e2d\u0e47\u0e14": 6844, "\u7684\u8138": 6845, "\u0e1b\u0e23\u0e30\u0e18\u0e32\u0e19": 6846, "\u2581\u53ef": 6847, "\u0e04\u0e19\u0e43\u0e2b\u0e21\u0e48": 6848, "\u0e17\u0e38\u0e01\u0e2a\u0e34\u0e48\u0e07": 6849, "\u4f60\u4e2a": 6850, "\u65e9\u4e0a\u597d": 6851, "\u0e1a\u0e38": 6852, "\u0e40\u0e2b\u0e47\u0e19\u0e44\u0e2b\u0e21": 6853, "\u0e41\u0e25\u0e30\u0e01\u0e32\u0e23": 6854, "\u2581\u5bf9\u5417": 6855, "\u53bb\u505a": 6856, "\u0e23\u0e34\u0e2a": 6857, "\u2581\u266a": 6858, "\u79df": 6859, "\u7a76\u7adf": 6860, "\u5361\u7279": 6861, "\u2581home": 6862, "\u0e01\u0e2d": 6863, "\u665a\u4e86": 6864, "\u0e41\u0e04\u0e25\u0e23\u0e4c": 6865, "\u662f\u600e\u4e48": 6866, "\u0e27\u0e22": 6867, "\u904d": 6868, "\u0e17\u0e4d\u0e32\u0e43\u0e2b\u0e49\u0e40\u0e23\u0e32": 6869, "\u8f66\u91cc": 6870, "\u0e40\u0e23\u0e32\u0e40\u0e04\u0e22": 6871, "\u0e17\u0e35\u0e48\u0e2a\u0e2d\u0e07": 6872, "\u6211\u7238\u7238": 6873, "\u2581\u5c0d": 6874, "\u0e14\u0e2d\u0e23\u0e4c": 6875, "\u5403\u7684": 6876, "\u0e41\u0e1a\u0e1a\u0e44\u0e2b\u0e19": 6877, "\u0e40\u0e1e\u0e23\u0e32\u0e30\u0e04\u0e38\u0e13": 6878, "\u0e44\u0e21\u0e25\u0e4c": 6879, "\u7838": 6880, "\u2581friend": 6881, "\u0e2d\u0e49\u0e27\u0e19": 6882, "\u7ed1\u67b6": 6883, "\u0e2b\u0e21\u0e2d\u0e19\u0e31\u0e48\u0e19": 6884, "\u2581\u0e40\u0e18\u0e2d\u0e08\u0e30": 6885, "\u57fa\u5730": 6886, "\u0e40\u0e2b\u0e47\u0e19\u0e04\u0e38\u0e13": 6887, "\u0e1e\u0e25\u0e31\u0e07\u0e07\u0e32\u0e19": 6888, "\u0e41\u0e21\u0e04": 6889, "\u8ddf\u6211\u6765": 6890, "\u5bf9\u4ed8": 6891, "\u2581Don": 6892, "\u0e01\u0e32\u0e23\u0e41\u0e02\u0e48\u0e07\u0e02\u0e31\u0e19": 6893, "\u0e20\u0e39\u0e21\u0e34": 6894, "\u0e01\u0e25\u0e32\u0e07\u0e27\u0e31\u0e19": 6895, "\u0631": 6896, "\u8cc7": 6897, "\u80cc\u53db": 6898, "\u5730\u5740": 6899, "\u6211\u4e0d\u660e\u767d": 6900, "\u628a\u8fd9\u4e2a": 6901, "\u6211\u600e\u4e48": 6902, "\u4f60\u5988": 6903, "ga": 6904, "\u6211\u9084": 6905, "\u0e15\u0e32\u0e21\u0e17\u0e35\u0e48": 6906, "\u8da3": 6907, "\u8dd1\u4e86": 6908, "\u0e14\u0e32\u0e23\u0e4c": 6909, "\u73a9\u610f": 6910, "\u0e21\u0e31\u0e19\u0e2d\u0e22\u0e39\u0e48": 6911, "\u4ed6\u4e86": 6912, "\u0e41\u0e25\u0e49\u0e27\u0e17\u0e4d\u0e32\u0e44\u0e21": 6913, "\u88ab\u4eba": 6914, "\u53bb\u54ea\u91cc": 6915, "\u5176\u5b83": 6916, "\u8fd9\u79cd\u4e8b": 6917, "\u0e40\u0e22\u0e49": 6918, "\u0e19\u0e31\u0e48\u0e19\u0e25\u0e48\u0e30": 6919, "\u4f6c": 6920, "\u9f50": 6921, "\u0e2d\u0e32\u0e1a\u0e19\u0e49\u0e4d\u0e32": 6922, "\u800c\u6211": 6923, "\u53ef\u60dc": 6924, "\u0e22\u0e31\u0e07\u0e44\u0e21\u0e48\u0e15\u0e32\u0e22": 6925, "\u0e2a\u0e4d\u0e32\u0e19\u0e31\u0e01\u0e07\u0e32\u0e19": 6926, "\u0e04\u0e23\u0e32\u0e27": 6927, "\u2581\u0e1c\u0e21\u0e23\u0e39\u0e49": 6928, "\u505a\u597d": 6929, "\u6076\u5fc3": 6930, "\u4f1a\u513f": 6931, "\u5411\u4f60": 6932, "\u0e07\u0e32\u0e19\u0e17\u0e35\u0e48": 6933, "Get": 6934, "\u5148\u751f\u4eec": 6935,
[...]
